{
  "version": "1.0",
  "truncation": null,
  "padding": {
    "strategy": "BatchLongest",
    "direction": "Right",
    "pad_to_multiple_of": null,
    "pad_id": 2,
    "pad_type_id": 0,
    "pad_token": "[pad]"
  },
  "added_tokens": [
    {
      "id": 0,
      "content": "[start]",
      "single_word": false,
      "lstrip": false,
      "rstrip": false,
      "normalized": false,
      "special": true
    },
    {
      "id": 1,
      "content": "[end]",
      "single_word": false,
      "lstrip": false,
      "rstrip": false,
      "normalized": false,
      "special": true
    },
    {
      "id": 2,
      "content": "[pad]",
      "single_word": false,
      "lstrip": false,
      "rstrip": false,
      "normalized": false,
      "special": true
    },
    {
      "id": 3,
      "content": "[unk]",
      "single_word": false,
      "lstrip": false,
      "rstrip": false,
      "normalized": false,
      "special": true
    }
  ],
  "normalizer": null,
  "pre_tokenizer": {
    "type": "ByteLevel",
    "add_prefix_space": true,
    "trim_offsets": true,
    "use_regex": true
  },
  "post_processor": {
    "type": "TemplateProcessing",
    "single": [
      {
        "SpecialToken": {
          "id": "[start]",
          "type_id": 0
        }
      },
      {
        "Sequence": {
          "id": "A",
          "type_id": 0
        }
      },
      {
        "SpecialToken": {
          "id": "[end]",
          "type_id": 0
        }
      }
    ],
    "pair": [
      {
        "Sequence": {
          "id": "A",
          "type_id": 0
        }
      },
      {
        "Sequence": {
          "id": "B",
          "type_id": 1
        }
      }
    ],
    "special_tokens": {
      "[end]": {
        "id": "[end]",
        "ids": [
          1
        ],
        "tokens": [
          "[end]"
        ]
      },
      "[start]": {
        "id": "[start]",
        "ids": [
          0
        ],
        "tokens": [
          "[start]"
        ]
      }
    }
  },
  "decoder": {
    "type": "ByteLevel",
    "add_prefix_space": true,
    "trim_offsets": true,
    "use_regex": true
  },
  "model": {
    "type": "BPE",
    "dropout": null,
    "unk_token": null,
    "continuing_subword_prefix": null,
    "end_of_word_suffix": null,
    "fuse_unk": false,
    "byte_fallback": false,
    "ignore_merges": false,
    "vocab": {
      "[start]": 0,
      "[end]": 1,
      "[pad]": 2,
      "[unk]": 3,
      "!": 4,
      "\"": 5,
      "#": 6,
      "$": 7,
      "&": 8,
      "'": 9,
      "(": 10,
      ")": 11,
      "*": 12,
      "+": 13,
      "-": 14,
      ".": 15,
      "/": 16,
      ":": 17,
      "<": 18,
      "=": 19,
      ">": 20,
      "@": 21,
      "A": 22,
      "B": 23,
      "C": 24,
      "D": 25,
      "E": 26,
      "F": 27,
      "G": 28,
      "H": 29,
      "I": 30,
      "J": 31,
      "K": 32,
      "L": 33,
      "M": 34,
      "N": 35,
      "O": 36,
      "P": 37,
      "Q": 38,
      "R": 39,
      "S": 40,
      "T": 41,
      "U": 42,
      "V": 43,
      "W": 44,
      "X": 45,
      "Y": 46,
      "Z": 47,
      "[": 48,
      "\\": 49,
      "]": 50,
      "^": 51,
      "_": 52,
      "a": 53,
      "b": 54,
      "c": 55,
      "d": 56,
      "e": 57,
      "f": 58,
      "g": 59,
      "h": 60,
      "i": 61,
      "j": 62,
      "k": 63,
      "l": 64,
      "m": 65,
      "n": 66,
      "o": 67,
      "p": 68,
      "q": 69,
      "r": 70,
      "s": 71,
      "t": 72,
      "u": 73,
      "v": 74,
      "w": 75,
      "x": 76,
      "y": 77,
      "z": 78,
      "{": 79,
      "|": 80,
      "}": 81,
      "¡": 82,
      "¢": 83,
      "£": 84,
      "¤": 85,
      "¦": 86,
      "§": 87,
      "¨": 88,
      "©": 89,
      "ª": 90,
      "«": 91,
      "¬": 92,
      "®": 93,
      "¯": 94,
      "°": 95,
      "±": 96,
      "²": 97,
      "³": 98,
      "´": 99,
      "µ": 100,
      "¶": 101,
      "·": 102,
      "¸": 103,
      "¹": 104,
      "º": 105,
      "»": 106,
      "¼": 107,
      "¾": 108,
      "Â": 109,
      "Ä": 110,
      "Å": 111,
      "Æ": 112,
      "Ç": 113,
      "Ê": 114,
      "Ì": 115,
      "Î": 116,
      "Ð": 117,
      "×": 118,
      "Ø": 119,
      "Ù": 120,
      "Ú": 121,
      "Û": 122,
      "á": 123,
      "â": 124,
      "ã": 125,
      "ï": 126,
      "Ġ": 127,
      "Ģ": 128,
      "ģ": 129,
      "Ĥ": 130,
      "Ħ": 131,
      "ħ": 132,
      "Ĩ": 133,
      "ĩ": 134,
      "Ī": 135,
      "ĭ": 136,
      "Į": 137,
      "İ": 138,
      "Ĳ": 139,
      "ĳ": 140,
      "ĵ": 141,
      "Ķ": 142,
      "ķ": 143,
      "ĸ": 144,
      "Ĺ": 145,
      "ĺ": 146,
      "Ľ": 147,
      "ľ": 148,
      "Ŀ": 149,
      "Ł": 150,
      "Ń": 151,
      "Ø§": 152,
      "ÛĮ": 153,
      "ĠØ": 154,
      "Ø±": 155,
      "Ùħ": 156,
      "ÙĨ": 157,
      "ÙĪ": 158,
      "Ùĩ": 159,
      "Ø§Ø": 160,
      "ÙĦ": 161,
      "Ø¯": 162,
      "ĠÙħ": 163,
      "Ø§ÙĨ": 164,
      "ØĮ": 165,
      "Øª": 166,
      "Ø³": 167,
      "Ùģ": 168,
      "Ú©": 169,
      "Ø´": 170,
      "ÙĤ": 171,
      "Ø¨": 172,
      "ĠØ§": 173,
      "ĠØ¨": 174,
      "Ø§Ø±": 175,
      "ĠÙĪ": 176,
      "ĠØ§Ø": 177,
      "ØŃ": 178,
      "Ú¯": 179,
      "ĠØ¯": 180,
      "ĠØª": 181,
      "âĢ": 182,
      "âĢĮ": 183,
      "Ġ/": 184,
      "Ø¹": 185,
      "ĠÙĨ": 186,
      "Ø§ÛĮ": 187,
      "ĠØ³": 188,
      "Ø²": 189,
      "ĠØ¹": 190,
      "ÙĦÛĮ": 191,
      "ÛĮÙĨ": 192,
      "ÛĮØ±": 193,
      "Ø§Ùħ": 194,
      "Ø§Ø¯": 195,
      "Ø¬": 196,
      "ĠÚ©": 197,
      "Ø±ÛĮ": 198,
      "ĠØŃ": 199,
      "Ù¾": 200,
      "ĠØ´": 201,
      "ĠÙģ": 202,
      "ĠØ±": 203,
      "Ø§ÙĦ": 204,
      "ÙħØ¯": 205,
      "ĠÙħØŃ": 206,
      "Ø§Øª": 207,
      "Ø®": 208,
      "ĠØ§ÙĦ": 209,
      "Ø§Ø³": 210,
      "ÛĮØ¯": 211,
      "ØĽ": 212,
      "ĠÙ¾": 213,
      "Ø§Ùĩ": 214,
      "ĠØ¬": 215,
      "ĠØ¢": 216,
      "ÙĪØ±": 217,
      "Ø§ÙĨÛĮ": 218,
      "ĠÙħØŃÙħØ¯": 219,
      "ĠØ¯Ø±": 220,
      "Øµ": 221,
      "ĠØ®": 222,
      "Ø¶": 223,
      "Ø§Ø¨": 224,
      "ĠÙĤ": 225,
      "ĠÙĩ": 226,
      "ÙĪÛĮ": 227,
      "ĠØ§Ø³": 228,
      "ÙĨØ¯": 229,
      "ĠØ²": 230,
      "Ø³Øª": 231,
      "Ø·": 232,
      "Ø§Ø±ÛĮ": 233,
      "ĠØ¨Ùĩ": 234,
      "Ø¯ÛĮ": 235,
      "ĠÚ¯": 236,
      "ÙĩØ§ÛĮ": 237,
      "ĠØ§ÙĨ": 238,
      "ÛĢ": 239,
      "ÙħÛĮ": 240,
      "ĠÙģØ±": 241,
      "ÙĦØ§Ùħ": 242,
      "ĠØ§ÛĮØ±": 243,
      "Ø³ÛĮ": 244,
      "Ø§Ø²": 245,
      "ĠØŃØ³": 246,
      "ÙĪØ´": 247,
      "ÙĨÚ¯": 248,
      "ĠØ¹ÙĦÛĮ": 249,
      "ĠØ§Ø²": 250,
      "Ø¬Ùħ": 251,
      "ÚĨ": 252,
      "ÙĩØ±": 253,
      "ÙĤÛĮ": 254,
      "Ø¨ÛĮ": 255,
      "ĠØµ": 256,
      "Úĺ": 257,
      "ĠÛĮ": 258,
      "ØªØ±": 259,
      "ĠØ§ÛĮØ±Ø§ÙĨ": 260,
      "ÙĦÙĩ": 261,
      "Ø¸": 262,
      "ĠØ¨Ø±": 263,
      "ĠÙħØ±": 264,
      "ĠØ§Ùħ": 265,
      "ÙĪØ¯": 266,
      "Ġ(": 267,
      "ÙĨÛĮ": 268,
      "ĠØ¹Ø¨": 269,
      "ÙģÛĮ": 270,
      "ÙĪÙĩ": 271,
      "Øº": 272,
      "Ø¶Ø§": 273,
      "ĠØ¨Ø§": 274,
      "Û±": 275,
      "ÙĪØ²": 276,
      "ÙĪÙĨ": 277,
      "Ø±Ø¯": 278,
      "ÛĮÙħ": 279,
      "ĠØŃØ³ÛĮÙĨ": 280,
      "Ø§Ø³ÛĮ": 281,
      "Ø§Ø¦": 282,
      "ĠØ·": 283,
      "ĠÙģØ±Ùĩ": 284,
      "ĠÙħØ¹": 285,
      "Ø§Ø¹": 286,
      "Ø§Ø¯ÛĮ": 287,
      "ĠØ§Ø³ÙĦØ§Ùħ": 288,
      "ĠÙħÙĤ": 289,
      "Ø«": 290,
      "ĠÚĨ": 291,
      "Ø§Ø³Øª": 292,
      "Ø¹Ùĩ": 293,
      "ĠØ§Ø¨": 294,
      "ÙħÙĩ": 295,
      "ÙħØ§ÙĨ": 296,
      "ØªÛĮ": 297,
      "ÙĪÙĦ": 298,
      "ĠØ§ØŃ": 299,
      "Ø§Ø´": 300,
      "ĠÙħÙĨ": 301,
      "Ø¢": 302,
      "ÙĦÛĮÙģ": 303,
      "ÙĩÛĮ": 304,
      "ĠÙģØ±ÙĩÙĨÚ¯": 305,
      "ØªØ´": 306,
      "ĠÙħÙĩ": 307,
      "Ø§Ø±ÛĮØ®": 308,
      "Ø§ÛĮÛĮ": 309,
      "ĠØªØ±": 310,
      "Ø§Ø¯Ùĩ": 311,
      "ÙĪØ±ÛĮ": 312,
      "Û±Û": 313,
      "Ú¯Ø§Ùĩ": 314,
      "ÙĪØ³": 315,
      "ÙĪÙħ": 316,
      "ĠØº": 317,
      "ĠØªØ§Ø±ÛĮØ®": 318,
      "ÙģØ±": 319,
      "ĠØ¹Ø¨Ø¯": 320,
      "ØªØ§Ø¨": 321,
      "ÙĩØ§": 322,
      "Ø£": 323,
      "ĠØ¹ÙĦ": 324,
      "Ø§ÙħÙĩ": 325,
      "Ø§Ø±Ø§Øª": 326,
      "ĠØ¯Ú©": 327,
      "Ø¯ÛĮÙĨ": 328,
      "ĠØ§Ø³ÙĦØ§ÙħÛĮ": 329,
      "ĠØ³ÛĮØ¯": 330,
      "ĠØªØŃ": 331,
      "ÙĪØ§ÙĨ": 332,
      "ĠØ§ÙĨØªØ´": 333,
      "ĠØ³ÛĮ": 334,
      "Ø§Ø·": 335,
      "Ø§Ø¬": 336,
      "ĠØ¯Ú©ØªØ±": 337,
      "ÙĨØ¯Ùĩ": 338,
      "Ø¤": 339,
      "ÚĺÙĪÙĩ": 340,
      "Ø¨Ø±": 341,
      "ĠÚ©ØªØ§Ø¨": 342,
      "Ġ=": 343,
      "Ø§ÙĨØ´": 344,
      "ĠØ§ÙĨØªØ´Ø§Ø±Ø§Øª": 345,
      "ÙģØª": 346,
      "Ø³ØªØ§ÙĨ": 347,
      "ĠØ§ØŃÙħØ¯": 348,
      "ØŃÛĮ": 349,
      "ĠÙħØ¬Ùħ": 350,
      "ĠÙĦ": 351,
      "ĠØ±Ø¶Ø§": 352,
      "Ġ[": 353,
      "ĠØªØ£": 354,
      "Ø§ØŃ": 355,
      "Ø´Ø±": 356,
      "ĠØ¨ÙĨ": 357,
      "ĠØ§Ø¯": 358,
      "Ø§ÙĦÙĦÙĩ": 359,
      "Ø´ÛĮ": 360,
      "ĠØªØ§": 361,
      "Ø°": 362,
      "ĠÙ¾ÚĺÙĪÙĩ": 363,
      "Ø§Ø¦ÛĮ": 364,
      "ĠÙħØ¬ÙħÙĪ": 365,
      "Ø²ÛĮ": 366,
      "Ø§Øµ": 367,
      "ĠØ¯Ø§ÙĨØ´": 368,
      "ĠØ³Ø±": 369,
      "ĠÙħØ¤": 370,
      "Ø§ÙĨÙĩ": 371,
      "Ú¯Ø±": 372,
      "ĠÙħÛĮØ±": 373,
      "Ø¯Ùĩ": 374,
      "ØªÙħ": 375,
      "ÛĮÙĨÛĮ": 376,
      "ĠÙĩÙħ": 377,
      "Ø¹ÙĦÛĮ": 378,
      "Ø§Ú©": 379,
      "ĠØ§Ùģ": 380,
      "ĠØªØ£ÙĦÛĮÙģ": 381,
      "Ø´ÙĨ": 382,
      "ÛĮÙĦ": 383,
      "ĠØªØµ": 384,
      "ĠØ§ÙĦÙħ": 385,
      "ĠØŃØ³ÙĨ": 386,
      "ĠÛ±Û": 387,
      "ĠÙħØ¬": 388,
      "ÛĮØª": 389,
      "ĠÙĨØ¸": 390,
      "ĠÙħÙĤØ¯": 391,
      "ĠØ±ÙĪ": 392,
      "³Û": 393,
      "ĠÙħØ·": 394,
      "ĠÙħØ³": 395,
      "ÙĪÛĮØ³": 396,
      "ĠÙħÙĩØ¯ÛĮ": 397,
      "ĠØªØ±Ø¬Ùħ": 398,
      "ÙĤÙĪ": 399,
      "ĠØ¨ÛĮ": 400,
      "Ø±ÙĪ": 401,
      "Ø¯ÙĪ": 402,
      "ÙĨØ§ÙħÙĩ": 403,
      "ĠÙĤØ±": 404,
      "ÙĪØ´Ø´": 405,
      "ĠÛ": 406,
      "ĠØ¯ÛĮ": 407,
      "ĠØ§Øµ": 408,
      "Ú¯ÛĮ": 409,
      "Ú©ÛĮ": 410,
      "Ø±Ø¶Ø§": 411,
      "Ø²Ø§Ø¯Ùĩ": 412,
      "Ø¯Ø±": 413,
      "ĠØ´Ùĩ": 414,
      "ĠÙħØ¬ÙħÙĪØ¹Ùĩ": 415,
      "Ø§Ø±Ø³ÛĮ": 416,
      "ØªÙĩ": 417,
      "Ø³Ùĩ": 418,
      "ĠØ´Ø±": 419,
      "ÙĤÛĮÙĤ": 420,
      "ĠØ§Ø³Øª": 421,
      "Ø§ÙĦÛĮ": 422,
      "ÛĮØ±ÛĮ": 423,
      "ĠÙĨÙĪÛĮØ³": 424,
      "ĠÙħØ±Ú©": 425,
      "ĠÙ¾ÚĺÙĪÙĩØ´": 426,
      "Ø§Ø²ÛĮ": 427,
      "ĠÚ©ÙĪØ´Ø´": 428,
      "ÙģÙĩ": 429,
      "ĠÙħØµ": 430,
      "ĠØ§ÙĦÙĦÙĩ": 431,
      "ĠÙĨØ´Ø±": 432,
      "ĠØ§Ø±": 433,
      "Ø§ÙĤ": 434,
      "Ø¹ÛĮ": 435,
      "Ø±Ø§Ùĩ": 436,
      "Ø§ÙĦØ¯ÛĮÙĨ": 437,
      "Ø§Ù¾": 438,
      "ĠÙħØŃÙħ": 439,
      "ĠÙħÙĪ": 440,
      "Ø¨Ùĩ": 441,
      "ÙĨØ¬": 442,
      "ÙĦØ³": 443,
      "ĠÙħØ±Ú©Ø²": 444,
      "ÙĤÙĦ": 445,
      "ĠØ§Ø¨ÙĪ": 446,
      "Ø§ÙħÛĮ": 447,
      "ĠØ³Ø¹": 448,
      "Ø´Ùĩ": 449,
      "ĠØ²ÙĨØ¯": 450,
      "ĠØªØŃÙĤÛĮÙĤ": 451,
      "Ø¦": 452,
      "ĠÙģØ±ÙĩÙĨÚ¯ÛĮ": 453,
      "ĠØ´Ø¹": 454,
      "Ø§Ø±Ùĩ": 455,
      "Ø§Ø¡": 456,
      "ĠØ´Ø§Ùĩ": 457,
      "ØŃØ³": 458,
      "ĠØŃÙħ": 459,
      "Ø§Ø¹ÛĮ": 460,
      "Ú©Ø±": 461,
      "ÙħÙĨ": 462,
      "ĠÙģØ§Ø±Ø³ÛĮ": 463,
      "ĠØªØ±Ø¬ÙħÙĩ": 464,
      "ĠØŃÙĤÙĪ": 465,
      "ĠÙĨÙĪÛĮØ³ÙĨØ¯Ùĩ": 466,
      "ĠØ´ÛĮ": 467,
      "ĠØ¬Ùĩ": 468,
      "ĠÙĨÙĤ": 469,
      "ĠÙ¾Ø±": 470,
      "Ø§ØµØ±": 471,
      "ĠÙĨÙĪØ´": 472,
      "ĠØ¹Ø±": 473,
      "Ø±ÛĮÙħ": 474,
      "Ø¨Ø§ÙĨ": 475,
      "Ø§Ø®": 476,
      "ĠØ³Ø§ÙĦ": 477,
      "ĠÙħØŃÙħÙĪØ¯": 478,
      "ĠØ¢Ùħ": 479,
      "ĠØ¯Ø§ÙĨØ´Ú¯Ø§Ùĩ": 480,
      "ĠÙħÛĮ": 481,
      "ĠÙ¾ÛĮ": 482,
      "ĠØ¬ÙĦ": 483,
      "ĠÚ¯Ø±Ø¯": 484,
      "ĠØ±Ø³": 485,
      "ĠØ§Ø´": 486,
      "Ø§Ùģ": 487,
      "ĠÙĩÙĨ": 488,
      "Ø±Ø§Øª": 489,
      "ĠÙĪÛĮØ±": 490,
      "Ø¶ÛĮ": 491,
      "].": 492,
      "Ø²Ø§Ø±": 493,
      "ĠÙħØ¤Ø³": 494,
      "ĠØºÙĦØ§Ùħ": 495,
      "ĠØ´ÛĮØ±": 496,
      "ĠÙĨÙĪ": 497,
      "Ú¯Ø§ÙĨ": 498,
      "ØŃÛĮØŃ": 499,
      "Ø«Ø§Ø±": 500,
      "Ø¹Ø§Øª": 501,
      "ĠØ§ÙħØ§Ùħ": 502,
      "ĠØªÙĪ": 503,
      "Ú¯Ø§Ø±": 504,
      "ĠØ§ÙħÛĮØ±": 505,
      "ĠØ§Ø¬": 506,
      "ĠÙħØ¯": 507,
      "ĠÙħØª": 508,
      "Ø§Ø³ØªØ§ÙĨ": 509,
      "ĠÚ©Ø±": 510,
      "ÙĦÙĪ": 511,
      "Ø±Ø§ÙĨ": 512,
      "Ġ-": 513,
      "Ø§ÛĮØ´": 514,
      "Ø§ÙĪ": 515,
      "Ø§ÛĮØª": 516,
      "ĠÛ±Û³Û": 517,
      "ĠØ§Ø¯Ø¨ÛĮ": 518,
      "ĠØ³Ø§Ø²": 519,
      "ĠÙħØ·Ø§ÙĦ": 520,
      "ĠØ³ÛĮØ§Ø³ÛĮ": 521,
      "ÙħÛĮÙĨ": 522,
      "Ø±Øª": 523,
      "ÙĦÙģ": 524,
      "ĠØ³Ø¹ÛĮØ¯": 525,
      "ĠØ´ÙĩØ±": 526,
      "Ø¨Ø±ÛĮ": 527,
      "Ġ\"": 528,
      "ĠØ¯Ùģ": 529,
      "ĠØŃÚ©": 530,
      "ÙħØª": 531,
      "ĠÙħÙĤØ¯ÙħÙĩ": 532,
      "ĠØ¹Ø¨Ø§Ø³": 533,
      "ĠØ´Ø¹Ø±": 534,
      "ÙħØ§ÙĨÛĮ": 535,
      "Ø´Øª": 536,
      "ĠØ§Ùĩ": 537,
      "ĠØ¹Ùħ": 538,
      "Ø±Ùĩ": 539,
      "Ù¾ÙĪØ±": 540,
      "Ø¯ÙĪÛĮÙĨ": 541,
      "ĠØ¬ÙĪ": 542,
      "ĠÙĨÛĮ": 543,
      "Ø³ÙĨ": 544,
      "ĠØªØµØŃÛĮØŃ": 545,
      "ĠØ¹ÙĦÙĪÙħ": 546,
      "Ø´ÙĨØ§Ø³ÛĮ": 547,
      "ĠÚ©Ø§Ø±": 548,
      "ÙĦØ§": 549,
      "ĠØ³Ø§Ø²ÙħØ§ÙĨ": 550,
      "Û°": 551,
      "Ø±Ø§": 552,
      ").": 553,
      "ĠØ®Ø§ÙĨ": 554,
      "ĠØ¬Ùħ": 555,
      "ĠØ´Ùħ": 556,
      "ĠØŃØ³ÛĮÙĨÛĮ": 557,
      "ØºØ§ÙĨ": 558,
      "ĠÚ©ÛĮ": 559,
      "ĠØ¬Ø¹": 560,
      "ĠØŃÙĤÙĪÙĤ": 561,
      "ÙĪÛĮØ±": 562,
      "ĠÚ©Ø´": 563,
      "ØµØ±": 564,
      "ÙĩØ±Ø§ÙĨ": 565,
      "ĠØªØ¯ÙĪÛĮÙĨ": 566,
      "Ø§Ø³ØªØ§Ø±": 567,
      "ĠØŃÙħÛĮØ¯": 568,
      "ĠÚĨØ§Ù¾": 569,
      "Ø§ÙĩÛĮ": 570,
      "Ú©Øª": 571,
      "ĠØ¢Ø«Ø§Ø±": 572,
      "ĠØ§Ø¨Ø±Ø§Ùĩ": 573,
      "ÙĤÙĦØ§Ø¨": 574,
      "ĠØ¹ÙĦÙħÛĮ": 575,
      "ĠØµØ§Ø¯": 576,
      "ÙĦÙħ": 577,
      "Ø±Ú¯": 578,
      "ĠØ±Ø¶": 579,
      "ÚĺØ§Ø¯": 580,
      "ĠØ§Ø®": 581,
      "ĠØ§ÙĨÙĤÙĦØ§Ø¨": 582,
      "Ø§Ø¸": 583,
      "ĠØ§ÙĤ": 584,
      "Ø±Ø³ÛĮ": 585,
      "Ø¨Ø§Ø±": 586,
      "ĠØ§ÙģØºØ§ÙĨ": 587,
      "ĠÙħÙĤØ§ÙĦ": 588,
      "Ø²Ø§Ø¯": 589,
      "ĠØ®Ø§Ø·": 590,
      "ĠÚ¯ÙĦ": 591,
      "ĠÙħÙĪØ³": 592,
      "ÙĶ": 593,
      "ĠØ§ÙĨØ¯ÛĮ": 594,
      "ĠÛĮÚ©": 595,
      "ÙģØ±ÛĮ": 596,
      "ĠØ¨ÛĮÙĨ": 597,
      "ĠØ¯Ø§Ø³ØªØ§ÙĨ": 598,
      "ĠØ¯ÙĪ": 599,
      "ĠÙħØ¤ÙĦÙģ": 600,
      "..": 601,
      "¹Û": 602,
      "ĠØ§ÙĦØ¯ÛĮÙĨ": 603,
      "ØªÙħØ§Ø¹ÛĮ": 604,
      "ĠØ§ÙĦØ¹": 605,
      "ĠÙģÛĮ": 606,
      "ĠÙħØ¤Ø³Ø³Ùĩ": 607,
      "ĠØ§Ø³ÙĨ": 608,
      "Ø¯Ùħ": 609,
      "ÙĨØ¯ÛĮ": 610,
      "ĠÙģØ±ÛĮ": 611,
      "ĠÙ¾ÙĪØ±": 612,
      "ĠÙħÙĦ": 613,
      "ĠØ§ÛĮØ±Ø§ÙĨÛĮ": 614,
      "ÛĮØ¯Ùĩ": 615,
      "ĠØ¯ÙĪØ±": 616,
      "ĠØ´Ø±ØŃ": 617,
      "ĠØ§Ø¹": 618,
      "ĠØ§ÙģØºØ§ÙĨØ³ØªØ§ÙĨ": 619,
      "ÙĤØ±": 620,
      "Ø§Øº": 621,
      "ØŃØ³ÛĮÙĨ": 622,
      "ÙĪØ¨": 623,
      "ĠØ¬Ø§Ùħ": 624,
      "ĠÙĩÙĨØ±": 625,
      "ĠÙħÙĦÛĮ": 626,
      "ĠÙĨØ³": 627,
      "ÙĤÙĩ": 628,
      "ĠØªØ§ÙĦÛĮÙģ": 629,
      "ĠØªÙĨ": 630,
      "ĠØ¬ÙĩØ§ÙĨ": 631,
      "ÙħØ§ÛĮ": 632,
      "ĠØ²ÙĨØ¯Ú¯ÛĮ": 633,
      "ĠÙħØ·Ø§ÙĦØ¹Ø§Øª": 634,
      "ĠØ§ÙĦÙħÙĦ": 635,
      "Ø´ÛĮØ¯": 636,
      "ĠØ¢ÙĨ": 637,
      "ĠØ³ÙĦ": 638,
      "Ø§Ø¶": 639,
      "Ø®Øª": 640,
      "ĠØ®Ø§Ø·Ø±Ø§Øª": 641,
      "ĠØ§Ø¬ØªÙħØ§Ø¹ÛĮ": 642,
      "ĠØ¢Ø±": 643,
      "Ø¬ÛĮ": 644,
      "ĠÙĨÚ¯Ø§Ø±": 645,
      "Ø§Ø³ÙĦØ§Ùħ": 646,
      "ĠØ§Ø³ÙĨØ§Ø¯": 647,
      "ĠÙħØ´": 648,
      "ĠÛĮÙĪØ³": 649,
      "ĠÙħÛĮØ±Ø²": 650,
      "ĠØ§Ø³Ùħ": 651,
      "ĠÙĨÙĪØ±": 652,
      "Ø®Ø´": 653,
      "ĠÙħÙĩØ±": 654,
      "Ø§Ø³Ùħ": 655,
      "ĠØ¨ÙĨÛĮ": 656,
      "ĠØ¯ÙģØªØ±": 657,
      "ĠØ¨Ø§Ø¨": 658,
      "ØªÙħØ§Ùħ": 659,
      "ØªØµ": 660,
      "ĠÙĪÛĮØ±Ø§Ø³ØªØ§Ø±": 661,
      "ĠØ§Ø¯Ø¨ÛĮØ§Øª": 662,
      "ĠØ§Ú©": 663,
      "ĠÚ¯Ø±": 664,
      "ĠÙħØ±Øª": 665,
      "ĠÙħØŃØ³ÙĨ": 666,
      "Ø§ÙĨÙĪÙĨ": 667,
      "Ø¨Ø§Ø¯ÛĮ": 668,
      "ĠØ±ÙĪØ²": 669,
      "Ø§ØªÛĮ": 670,
      "ĠØŃØ¶": 671,
      "ĠÚ¯ÙģØª": 672,
      "ÙĪØª": 673,
      "ĠØ²ÙĨ": 674,
      "ĠØ¶": 675,
      "ĠØ¨Ø§Ø²": 676,
      "Ø¹ÛĢ": 677,
      "ĠØ·Ø¨": 678,
      "ĠÚ¯Ø±Ø¯Ø¢": 679,
      "ĠØ®ÙĪ": 680,
      "ĠØ¨Ø²": 681,
      "ĠÚĨÙĩ": 682,
      "ĠØ¢ÙħÙĪØ²": 683,
      "ĠØ¯Ùĩ": 684,
      "ÙĦÛĮÙĦ": 685,
      "ĠÛĮØ§": 686,
      "ÙĨØ§Ùħ": 687,
      "ĠÚ¯Ø²": 688,
      "ĠÙĤØ±Ø¢": 689,
      "ÙģØ³": 690,
      "ÙĨÙĩ": 691,
      "Ø§Ø¨ÛĮ": 692,
      "ĠÙĨÙĪØ´ØªÙĩ": 693,
      "ĠØªÙĩØ±Ø§ÙĨ": 694,
      "ĠØ´Ø±ÛĮ": 695,
      "ĠØ±ÛĮ": 696,
      "ĠØ§Ø¨Ø±Ø§ÙĩÛĮÙħ": 697,
      "Ø§ÙĦÙĩ": 698,
      "ĠØ®Ø±": 699,
      "ĠØ§ÛĮ": 700,
      "ĠØ²Ø¨Ø§ÙĨ": 701,
      "ĠØ¢ÛĮØª": 702,
      "Ø®Ø§ÙĨÙĩ": 703,
      "ĠØªØµÙĪÛĮØ±": 704,
      "Ø±Ø¨": 705,
      "ÙĨØ§Ø³ÛĮ": 706,
      "ĠØ¢ÛĮ": 707,
      "ĠØ²ÙĩØ±": 708,
      "ĠØ±Ø§Ùĩ": 709,
      "ĠÚ©Ùĩ": 710,
      "ĠØ±ØŃ": 711,
      "Ø¨Ø§ÙĨÛĮ": 712,
      "Ø·ÙģÛĮ": 713,
      "Ø¹Ø§Ø±": 714,
      "ĠØ´ÛĮØ®": 715,
      "ĠØ¨Ø±Ø±Ø³ÛĮ": 716,
      "ĠÙħØ¹Ø§ØµØ±": 717,
      "ĠÙĨØ¬": 718,
      "ĠØ®Ø·": 719,
      "ÙĨÙĪÛĮ": 720,
      "ĠÙħØ³Ø¹": 721,
      "ĠØ´ÙĩÛĮØ¯": 722,
      "ĠØŃØ¶Ø±Øª": 723,
      "Ø¨Ø§": 724,
      "ĠØ¬ÙĪØ§Ø¯": 725,
      "ĠÙģØ§Ø·": 726,
      "ĠØ¨ÙĩØ±": 727,
      "ĠØ¯ÛĮÙĪØ§ÙĨ": 728,
      "ĠØ«": 729,
      "ĠÛ²": 730,
      "ĠØªÙĤÛĮ": 731,
      "ÛĮÙĨÙĩ": 732,
      "ĠØ§ÙĪ": 733,
      "ĠÙħØŃÙħØ¯ÛĮ": 734,
      "ĠÙħØ±ÛĮÙħ": 735,
      "ĠØªØ¬": 736,
      "ĠØ§ÙĨØ¯ÛĮØ´Ùĩ": 737,
      "Ø³Ø§ÙĨ": 738,
      "ĠÙħÙĤØ§ÙĦØ§Øª": 739,
      "ĠØ°": 740,
      "ÙħÛĮÙĨÛĮ": 741,
      "Ú©Ø§Ø±ÛĮ": 742,
      "ĠÙĨØ¸Ø±": 743,
      "ĠØ§ÙĩØªÙħØ§Ùħ": 744,
      "ĠØªØ§Ø±ÛĮØ®ÛĮ": 745,
      "Ø¯Ø§": 746,
      "Ø±ØŃ": 747,
      "ØĮØĮ": 748,
      "ĠÚ©Ø§Ø¸": 749,
      "ĠÙĨØ§ØµØ±": 750,
      "ÙĪÚĨ": 751,
      "ĠÙĨÚ¯Ø§Ø±Ø´": 752,
      "ĠÙħÙĪÙĦ": 753,
      "ĠØ§ØµÙģÙĩ": 754,
      "ĠØ¬Ø¹ÙģØ±": 755,
      "Ø§ÙħÙĦ": 756,
      "Ø¨ÙĪ": 757,
      "Ùĵ": 758,
      "ĠÙģÙĦØ³": 759,
      "Ø§Ø«": 760,
      "ĠÙ¾ÚĺÙĪÙĩØ´ÛĮ": 761,
      "Ø¸ÛĮÙħ": 762,
      "ØºØ±": 763,
      "ÙĦØ§ØŃ": 764,
      "Ø§ÙĦÙħ": 765,
      "ØªØ¨": 766,
      "ĠÙĤØ±Ø¢ÙĨ": 767,
      "ĠØ¯Ø³Øª": 768,
      "ÙĩÛĮÙĩ": 769,
      "ĠØ¹Ø±Ùģ": 770,
      "ĠØªØŃÙĤÛĮÙĤØ§Øª": 771,
      "ÙĪÙħÛĮ": 772,
      "ĠÙħÛĮØ±Ø²Ø§": 773,
      "ĠØµÙģ": 774,
      "ĠØµØ§Ø¯ÙĤ": 775,
      "ĠÙħØ±ØªØ¶ÛĮ": 776,
      "ÙĨÚ¯ÛĮ": 777,
      "ĠÙĩØ§Ø´": 778,
      "Ø³Ø±": 779,
      "Ø®ÛĮ": 780,
      "ĠØŃØ§Ø¬": 781,
      "¸Û": 782,
      "ĠÙĨÚ¯Ø§Ùĩ": 783,
      "ĠØ¬ÙħÙĩ": 784,
      "Ø¯ÛĮØ¯": 785,
      "ĠÛĮØ§Ø¯": 786,
      "ĠÙħØ³Ø¹ÙĪØ¯": 787,
      "ĠØ¹Ø´": 788,
      "ĠÙĤØ§ÙĨÙĪÙĨ": 789,
      ")ØĽ": 790,
      "Ø³Ø§ÙĨÛĮ": 791,
      "ÙĪØ²Ùĩ": 792,
      "ĠÙħØµØ·ÙģÛĮ": 793,
      "ĠÚ©ÙĦ": 794,
      "ÙĪØ¯ÛĮ": 795,
      "Ø¶ÙĦ": 796,
      "ĠØ¨ÙĨÛĮØ§Ø¯": 797,
      "ĠÙģØ§Ø·ÙħÙĩ": 798,
      "ĠØ§ÙĦØŃ": 799,
      "Ġ--": 800,
      "Ø§ÙĪØ±": 801,
      "Ø®Ø§ÙĨ": 802,
      "ĠÙĤØµ": 803,
      "ĠØ±ÙĪÛĮ": 804,
      "ĠÛĮÙĪØ³Ùģ": 805,
      "ĠØ¢ÙĤ": 806,
      "Ú©Ø§Ø±": 807,
      "ĠØ¬ÙĨ": 808,
      "ÛĮØ§ÙĨ": 809,
      "ĠØªØµÙĪÛĮØ±Ú¯Ø±": 810,
      "ĠØ¢Ø°": 811,
      "ĠÙħÙĨØµ": 812,
      "Ø±ÛĮÙĨ": 813,
      "Ø¨ÛĮØ±": 814,
      "ĠÛĮØ²": 815,
      "ĠÙĨÙĩ": 816,
      "Ø§Ø³ÙĦØ§ÙħÛĮ": 817,
      "Ú¯Ø±Ø¯": 818,
      "ÚĺÙĩ": 819,
      "Ø§Ø¹ÛĮÙĦ": 820,
      "ĠÙħÙĤØ¯Ùħ": 821,
      "ĠØŃØ¬": 822,
      "ĠÚ©Ø´ÙĪØ±": 823,
      "ĠØ´ÛĮØ±Ø§Ø²ÛĮ": 824,
      "Ø§Ø¯Ø±": 825,
      "ØªØ±Ø¬Ùħ": 826,
      "Ø§Ø´ÛĮ": 827,
      "Ø§Ø±Øª": 828,
      "ĠØ§ÙĦÙħÙĦÙĦÛĮ": 829,
      "Ø¯Ø§Ø¯": 830,
      "ĠØ¨Ø²Ø±Ú¯": 831,
      "Ø§Ø±Ø³": 832,
      "ĠØ´ÙĪØ±": 833,
      "ĠÙħØ¬ÛĮØ¯": 834,
      "ĠØ¬ÙħÙĩÙĪØ±ÛĮ": 835,
      "ÙĩØ§ÛĮÛĮ": 836,
      "ĠØ§ÙĨØª": 837,
      "ĠØ§Ø³ÙħØ§Ø¹ÛĮÙĦ": 838,
      "ĠØ¬ÙĦØ§ÙĦ": 839,
      "ĠÙĨÙĪØ´Øª": 840,
      "ĠÙħÙĪØ³ÙĪÛĮ": 841,
      "Ú©ÙĨ": 842,
      "ĠØ±Ùĩ": 843,
      "ĠØ§ÙĦÙģ": 844,
      "ĠÙĩØ§Ø¯ÛĮ": 845,
      "ĠØŃØ¨ÛĮ": 846,
      "ĠØªÙĩÛĮÙĩ": 847,
      "ĠØ´Ú©": 848,
      "ĠØ¯Ø§Ø¯": 849,
      "ĠØ§Ø³ØªØ§Ø¯": 850,
      "Ø±Ø§ÙģÛĮ": 851,
      "ĠÙĤÙħ": 852,
      "ĠØ§ÙĤØªØµ": 853,
      "ÙħØ¯ÛĮ": 854,
      "ĠØºØ²": 855,
      "ĠØ·Ø§Ùĩ": 856,
      "ĠØ²ÙĩØ±Ø§": 857,
      "ĠØ¨Ø§ÙĤØ±": 858,
      "ĠÙĩÙħÚ©Ø§Ø±ÛĮ": 859,
      "ĠØ³ÛĮØ±": 860,
      "Ø§Ú©Ø¨Ø±": 861,
      "Ø¨ÙĨ": 862,
      "Ø§Ø±Ùģ": 863,
      "Ú©Ø¯Ùĩ": 864,
      "ĠÙħØ¬ÙħÙĪØ¹ÛĢ": 865,
      "ĠÙĪØŃ": 866,
      "ĠØªÙĪØ³": 867,
      "ĠØ¨Ø±Ø§ÛĮ": 868,
      "Û±Û³Û": 869,
      "ĠØ§ÙĦÙĩ": 870,
      "ĠØ¯ÛĮÚ¯Ø±": 871,
      "ĠØ§Ø³ØªØ§ÙĨ": 872,
      "ĠØ§Ø¨ÙĨ": 873,
      "ĠØ²ÛĮØ±": 874,
      "ĠÙĨÙĤØ¯": 875,
      "Ø²Ø§Ø±Øª": 876,
      "ĠØ³Ù¾": 877,
      "ĠÙ¾ÛĮØ±": 878,
      "ĠØ§ÙģØ´": 879,
      "ĠØ±ÙĪØ´": 880,
      "ĠÙĨØ¸Ø±ÛĮ": 881,
      "Ø¬ÙħÙĨ": 882,
      "ÙĪÙĨÛĮ": 883,
      "ĠØ¬ÙĨÚ¯": 884,
      "ĠÙĪØ²Ø§Ø±Øª": 885,
      "Ø¨Øª": 886,
      "ĠØ²Ø§Ø¯Ùĩ": 887,
      "ĠØ¬Ø§ÙħØ¹Ùĩ": 888,
      "Ø§Ø´Øª": 889,
      "ÙĪØ·": 890,
      "ĠØ§ÙĦØ³": 891,
      "ĠÚ©ÙĨ": 892,
      "ĠØ³Øª": 893,
      "ĠÚ©Ùħ": 894,
      "ÙĪØ§Ø±": 895,
      "ĠØŃÛĮØ¯": 896,
      "ĠØªØ±Ø¬ÙħÛĢ": 897,
      "ĠÙħÙĪØ³ÛĮ": 898,
      "ĠØ¯ÛĮØ¯": 899,
      "Ø¦ÛĮ": 900,
      "ĠØ¨Ø®": 901,
      "ĠØ§Ø·": 902,
      "ØµÛĮ": 903,
      "ĠØªÙĨØ¸ÛĮÙħ": 904,
      "ĠÙĨÙħ": 905,
      "ĠØ£": 906,
      "ĠÙĨØ³Ø®": 907,
      "Ø®ÙħÛĮÙĨÛĮ": 908,
      "ĠØ§ÙĨØ¬ÙħÙĨ": 909,
      "Ø§Ø®Øª": 910,
      "ĠØ§Ø«": 911,
      "ĠÙĦÛĮ": 912,
      "Ø´Ùħ": 913,
      "ĠØ¨ÙĦ": 914,
      "ĠØ§ÙĦÙĤ": 915,
      "ĠØ¹ÙĦÛĮØ±Ø¶Ø§": 916,
      "µÛ": 917,
      "ĠÙĨØ§Ùħ": 918,
      "ĠÙģØª": 919,
      "ĠØ¹Ø´ÙĤ": 920,
      "Ø³ØªÙĩ": 921,
      "Ø§ÙĪÙĨ": 922,
      "ĠÙħØªØ±Ø¬Ùħ": 923,
      "ĠØ§ØŃÙħØ¯ÛĮ": 924,
      "ĠØ§Ø´Ø¹Ø§Ø±": 925,
      "ØŁ": 926,
      "ÙĦÙĪÛĮ": 927,
      "ĠÙħØ¯ÛĮØ±": 928,
      "ĠÙ¾Ø§ÛĮ": 929,
      "Ø¯Ø§Ø±": 930,
      "ĠØ³Ø¨": 931,
      "Ø±Ùģ": 932,
      "ĠØ¹Ø¨Ø¯Ø§ÙĦ": 933,
      "ĠØ§Ø±Ø¯": 934,
      "ĠØ®ÙĦ": 935,
      "ĠØ¯ÙĪÙĦ": 936,
      "ĠØ³ÛĮØ§Ø³Øª": 937,
      "ĠØ±ÙĪØ§ÛĮØª": 938,
      "Ø³ØªÛĮ": 939,
      "ĠØ±ÙĪØŃ": 940,
      "·Û": 941,
      "ÙĪØ±ÙĨØ¯Ùĩ": 942,
      "ĠØ¬ÙĦØ¯": 943,
      "ĠÙ¾ÛĮØ´": 944,
      "ĠØ²ÛĮ": 945,
      ")ØĮ": 946,
      "Ú¯Ø±ÛĮ": 947,
      "Ø´ØªÛĮ": 948,
      "Ø²ÙĪ": 949,
      "ĠÙĩÛĮ": 950,
      "ÚĨÙĩ": 951,
      "ÙĨØ§ÙħÛĢ": 952,
      "ĠÙģØ±ÛĮØ¯": 953,
      "ĠØµØ§ÙĦ": 954,
      "ĠØ¯Ø±ÛĮ": 955,
      "ĠØ¸": 956,
      "Ø§Ø·Ø¨": 957,
      "ĠÙħØ¯Ø±": 958,
      "ĠØ³Ø®": 959,
      "ĠØµØ¯Ø±": 960,
      "ĠØ¢ÙħÙĪØ²Ø´": 961,
      "ĠÙĨØµ": 962,
      "ĠØ³ÙĦØ·": 963,
      "Ú©Ø±ÛĮ": 964,
      "ĠØªØ¨": 965,
      "ĠØ§ÙĪÙĦ": 966,
      "ĠÚ¯ÙĨØ¬": 967,
      "ÙĨØ¯Ú¯Ø§ÙĨ": 968,
      "ĠÙĨØ¸Ø§Ùħ": 969,
      "Ú¯ÙĪ": 970,
      "ĠØ§ÙħÛĮÙĨ": 971,
      "ĠÙħÙĨØµÙĪØ±": 972,
      "ĠÚĨÙĩØ§Ø±": 973,
      "ÙħØŃ": 974,
      "ĠØªÙģØ³": 975,
      "ĠØ¯Ø§Ø±": 976,
      "ĠÚ©ØªØ§Ø¨Ø®Ø§ÙĨÙĩ": 977,
      "ĠØ³Ùĩ": 978,
      "Ø³ÛĢ": 979,
      "ĠÙħØ¹Ø§ÙĪÙĨ": 980,
      "ĠØ¹ØµØ±": 981,
      "ĠØ§Ú©Ø¨Ø±": 982,
      "ĠÙħØ§Ùĩ": 983,
      "ÙĪÙĨØ¯": 984,
      "ĠØ³ÙģØ±": 985,
      "Ú©ÙĦ": 986,
      "ĠÚ©Ø§Ø¸Ùħ": 987,
      "ĠØ¯ÛĮÙĨ": 988,
      "ÙħØ§": 989,
      "ĠØ¹Ø·": 990,
      "ĠØ´ÙħØ³": 991,
      "ĠÙĩÙħØ§ÛĮØ´": 992,
      "ĠÙĨØ´": 993,
      "ĠÙĨÙĤØ´": 994,
      "ĠØ·Ø¨Ø§Ø·Ø¨": 995,
      "ÙĪÙĦÛĮ": 996,
      "Ø±Ùħ": 997,
      "Ø²Ùĩ": 998,
      "²Û": 999,
      "Ø§ÙĦØ³": 1000,
      "ĠÙ¾ÛĮØ§Ùħ": 1001,
      "ĠÙĩÙĨØ±ÛĮ": 1002,
      "Ø¬Ùĩ": 1003,
      "Ú©Ø§ÙĨ": 1004,
      "ĠÚ©Ø±ÛĮÙħ": 1005,
      "ØºØ§Øª": 1006,
      "ĠØ³ÙĨ": 1007,
      "ĠØµØ¯": 1008,
      "ÙĨÛĮØ§": 1009,
      "ĠØ²ÙĨØ¯Ú¯": 1010,
      "ĠØ³ÛĮÙħ": 1011,
      "Ø¢Ø¨Ø§Ø¯ÛĮ": 1012,
      "ĠØ³ÙĦÛĮ": 1013,
      "ĠØ²ÙĨØ§ÙĨ": 1014,
      "¶Û": 1015,
      "ĠØªØ¨Ø±ÛĮ": 1016,
      "ØµØ§Ø±ÛĮ": 1017,
      "ĠÙħØªÙĨ": 1018,
      "ÛĮÙħÛĮ": 1019,
      "Ø²Ø´": 1020,
      "ĠÚ¯Ø±ÙĪÙĩ": 1021,
      "ĠØ§ÙĦÚ©": 1022,
      "ĠÙħØ±Ø¯Ùħ": 1023,
      "ĠØ¹ÙĦÙħ": 1024,
      "ĠÙħØ¹Ø§ÙĪÙĨØª": 1025,
      "Ø¨ÙĦ": 1026,
      "ĠØ´ÙĨ": 1027,
      "ĠÙ¾Ø±ÙĪ": 1028,
      "ĠØ³ÛĮÙĨ": 1029,
      "ĠØŃÙĤÙĪÙĤÛĮ": 1030,
      "ĠØªÙģØ³ÛĮØ±": 1031,
      "ĠÚ©Ø§Ø´": 1032,
      "ĠÙħØ´Ø±": 1033,
      "Ø¹Øª": 1034,
      "ĠØ±Ø¬": 1035,
      "ÙĤØ§ÛĮ": 1036,
      "ÙĩØ±Ø³Øª": 1037,
      "ÙĦÛĮÙĦÛĮ": 1038,
      "ĠÚ©Ø±ÛĮ": 1039,
      "ĠÙĨÙĪØ´ØªÛĢ": 1040,
      "ĠØ¹ÙĦÛĮÙĩ": 1041,
      "ÙĪÛĮÛĮ": 1042,
      "Ø¸Ùħ": 1043,
      "ĠØ§Øª": 1044,
      "ĠØ¯ÙĪÙħ": 1045,
      "ÛĮÙĩ": 1046,
      "Ø¯Ø§ÙĨ": 1047,
      "ĠØµÙĨ": 1048,
      "ĠÙĤØ§Ø¬": 1049,
      "ĠÛ±Û¹Û": 1050,
      "ĠÙĨÚ¯Ø§ÙĩÛĮ": 1051,
      "ÙĪÙģ": 1052,
      "Ø¯Ø§Ø±ÛĮ": 1053,
      "ĠÙ¾Ùĩ": 1054,
      "ÙĪØ¯Ùĩ": 1055,
      "ĠÚ¯Ø±Ø¯Ø¢ÙĪØ±ÛĮ": 1056,
      "Ø§ÛĮØ±Ø§ÙĨ": 1057,
      "ĠÙħÙĦÚ©": 1058,
      "ĠÙĩÙģØª": 1059,
      "ØŃØ³ÙĨ": 1060,
      "ĠØ¬Ø¹ÙģØ±ÛĮ": 1061,
      "Ú¯Ø°": 1062,
      "ĠÙħÛĮØ±Ø§Ø«": 1063,
      "ĠÙģÙĩØ±Ø³Øª": 1064,
      "ĠÙĪØ§": 1065,
      "ĠØ³Ø®ÙĨ": 1066,
      "ĠØ®Ø±Ø§Ø³": 1067,
      "ĠÙĪÛĮ": 1068,
      "ĠØ¹Ø²ÛĮ": 1069,
      "ĠØ§ÙħØ±": 1070,
      "ĠØ´Ø§Ø¹": 1071,
      "ĠÙģÙĤÙĩ": 1072,
      "ÙĪØ§ÙĦ": 1073,
      "ĠØªØ¹ÙĦÛĮ": 1074,
      "ĠÚ©ÙĦÛĮ": 1075,
      "Ø³ØªØ§ÙĨÛĮ": 1076,
      "ĠÙĨØ®": 1077,
      "Ø¬Ø§ÙĨ": 1078,
      "ĠØ¬Øº": 1079,
      "Ø¶ÙĪ": 1080,
      "ĠÙĤØ§Ø³Ùħ": 1081,
      "ĠØ¨Ø±Ú¯": 1082,
      "ĠØ§ÙħÙĪØ±": 1083,
      "Ø§ÙģØ¸": 1084,
      "Ø§ÙĨØ³Ø§ÙĨÛĮ": 1085,
      "ÙĪÛĮØ²": 1086,
      "ÙĪØ´ÛĮ": 1087,
      "ĠØ´ÙĩØ±ÛĮ": 1088,
      "ĠÙħØ¹Øµ": 1089,
      "ĠÙĩØ§Ø´ÙħÛĮ": 1090,
      "ĠØ¹Ø§ÙĦÛĮ": 1091,
      "ĠØŃØ¨ÛĮØ¨": 1092,
      "ĠÙħØ«": 1093,
      "Ú©Ø§": 1094,
      "ĠØ§ÙĨÚ¯": 1095,
      "ĠØ§ÙĨØµØ§Ø±ÛĮ": 1096,
      "ĠÛ±": 1097,
      "ØªØ¨ÛĮ": 1098,
      "ĠÙĨØµØ±": 1099,
      "Ø®ÙĪ": 1100,
      "ĠÙĪÙĦ": 1101,
      "Ø¯Ø§Ø´Øª": 1102,
      "ĠÚ©Ø±Ø¯": 1103,
      "Ø§Ø¨Ø·": 1104,
      "ÙĤÙĤ": 1105,
      "ĠÙħÙĨØ¸": 1106,
      "ĠØ¯ÛĮØ¯Ú¯Ø§Ùĩ": 1107,
      "ÙĪÛĮÙĩ": 1108,
      "Ø¸ÙħÛĮ": 1109,
      "ĠØ¯ÙĦ": 1110,
      "Ø¯ÛĮØ«": 1111,
      "Ø§Ø¯Ø§Øª": 1112,
      "ĠØ´Ø±Ú©Øª": 1113,
      "ĠÙĩÙħØ±Ø§Ùĩ": 1114,
      "ĠØ¯ÙĪØ±Ùĩ": 1115,
      "ĠØ¬ØºØ±Ø§ÙģÛĮ": 1116,
      "ĠØ®Ø·ÛĮ": 1117,
      "ĠØ´ÙĪØ±Ø§ÛĮ": 1118,
      "ÛĮØ¯ÛĮ": 1119,
      "ĠÙĩØ¬": 1120,
      "ĠØŃØ§ÙģØ¸": 1121,
      "ĠÚ¯ÛĮÙĦ": 1122,
      "ĠØ³ÙĦØ³": 1123,
      "Ø¨Ø§Ø¯": 1124,
      "ØĽØĽ": 1125,
      "ĠÙĤØ¯": 1126,
      "Ø±Ø§ÙĨÛĮ": 1127,
      "ĠÚ©ÙĪØ¯": 1128,
      "ÙĪØ²ÛĮ": 1129,
      "Ø¨ÛĮØª": 1130,
      "ĠÙ¾ÙĨØ¬": 1131,
      "Ø±ÛĮØ§ÙĨ": 1132,
      "ĠØ§ÛĮØ±Ø¬": 1133,
      "ĠÙĤØ±ÙĨ": 1134,
      "Ø§Ø±Ø§ÙĨ": 1135,
      "ĠØ§ØµÙģÙĩØ§ÙĨÛĮ": 1136,
      "Ø³Ùħ": 1137,
      "ĠÚ©ØªØ¨": 1138,
      "ÙĪØ§ÙĨÛĮÙĨ": 1139,
      "ĠØ³Ùģ": 1140,
      "ĠØ®ÛĮ": 1141,
      "ĠÙħØ³Øª": 1142,
      "ĠØ¹Ø§Ø´": 1143,
      "ĠÙħÙĤØ¯Ø³": 1144,
      "ÙĪØ³ÛĮ": 1145,
      "ĠÚ©Ø±ÛĮÙħÛĮ": 1146,
      "Ø§ÙģÛĮ": 1147,
      "ĠÙ¾ÙĨ": 1148,
      "ÚĨÛĮ": 1149,
      "ĠÙĨØ§ÙħÙĩ": 1150,
      "Ø¯ÙĪÛĮ": 1151,
      "ĠØ¢Ø²Ø§Ø¯": 1152,
      "ĠØ¹ÙĦØ§Ùħ": 1153,
      "ĠÙħÙĨÙĪÚĨ": 1154,
      "ĠÙħØ¬ØªØ¨ÛĮ": 1155,
      "ĠÙħÚ©Øª": 1156,
      "ÙħØ±": 1157,
      "ÙħÙĨØ¯": 1158,
      "ĠØŃÙĪØ²Ùĩ": 1159,
      "ĠØ¢ÙĦ": 1160,
      "ĠÙĤÙĪØ§ÙĨÛĮÙĨ": 1161,
      "Ú¯Ø±Ø¯Ø§ÙĨ": 1162,
      "ĠØ§Ø«Ø±": 1163,
      "ĠØªØŃÙĦÛĮÙĦ": 1164,
      "ĠÙ¾ÚĺÙĪÙĩØ´Ú©Ø¯Ùĩ": 1165,
      "ĠÙħØ¯ÙĨÛĮ": 1166,
      "ĠØ¯ÙĪÙĦØª": 1167,
      "ÙħØ§Ùħ": 1168,
      "ØªÙĪ": 1169,
      "ĠØ¨Ø§ÙĨ": 1170,
      "ĠÙĨØ¹": 1171,
      "Ø§Ø¦ÙĦ": 1172,
      "ĠÙħØ¹Ø±": 1173,
      "ĠØ±Ø³Ø§ÙĦÙĩ": 1174,
      "ĠØ²ÛĮÙĨ": 1175,
      "ĠÙ¾Ø±ÙĪÛĮØ²": 1176,
      "ĠÙģÙĦØ³ÙģÙĩ": 1177,
      "Ú©Ùĩ": 1178,
      "ĠÙħØ¸": 1179,
      "Ø®Ø±": 1180,
      "ĠØ±Ø¶ÙĪÛĮ": 1181,
      "ĠØ§ÙģØ´Ø§Ø±": 1182,
      "ĠØªØ¨ÙĦÛĮ": 1183,
      "ĠØ¹ÙħÙĪÙħÛĮ": 1184,
      "Ø³Ø±ÙĪ": 1185,
      "ĠØ§Ø¯Ø¨": 1186,
      "ĠØ±Ø³ÙĪÙĦ": 1187,
      "ĠØ´Ø¨": 1188,
      "Ø¹ØªÛĮ": 1189,
      "ĠØ§Ø¯Ø§Ø±Ùĩ": 1190,
      "Ø´ØªÙĩ": 1191,
      "Ø¨Ø§Ø±Ùĩ": 1192,
      "ĠØ¯Ø§": 1193,
      "ĠÙĤÙĦÙħ": 1194,
      "Ø¬ÙĪ": 1195,
      "ĠØ¬ÙĩØ§ÙĨÛĮ": 1196,
      "ĠØ¹Ø±ÙģØ§ÙĨ": 1197,
      "Ø§ÙĨØ§": 1198,
      "Ø´Ø§Ø¯": 1199,
      "Ø·Ø¨ÛĮ": 1200,
      "ĠØŃÚ©ÛĮÙħ": 1201,
      "ĠÙĪÛĮØ±Ø§ÛĮØ´": 1202,
      "ĠØŃÚ©ÙħØª": 1203,
      "ĠØµØ§Ø¯ÙĤÛĮ": 1204,
      "ĠÙģÛĮØ±": 1205,
      "Ø§Ø³ØªØ§ÙĨÛĮ": 1206,
      "ĠØªÙĪØ³Ø¹Ùĩ": 1207,
      "ĠØ±Ø§": 1208,
      "ĠÙħØ¤Ø³Ø³ÛĢ": 1209,
      "ĠØ§Ø·ÙĦ": 1210,
      "ĠÚĺ": 1211,
      "ĠÙģØ±Ø²": 1212,
      "ĠÙħØ®": 1213,
      "ĠØªØ¹": 1214,
      "ĠÙĩØ¯": 1215,
      "ĠØ¨ÛĮÚ¯": 1216,
      "Ø±Ø§ÛĮ": 1217,
      "Ø´Ø§Ùĩ": 1218,
      "ĠØ§ØµÙģÙĩØ§ÙĨ": 1219,
      "Ø²Ø§Ø¯ÛĮ": 1220,
      "ĠØ§ÙĦÙĨ": 1221,
      "ĠØ§ÙħÛĮØ¯": 1222,
      "ĠØ¢ÛĮÛĮÙĨ": 1223,
      "ÙĦØ§ÙĤ": 1224,
      "ØµÙĦ": 1225,
      "ĠÙħØ¹Ùħ": 1226,
      "ĠÙħÙĨØª": 1227,
      "ÙĪÙħØª": 1228,
      "Ø§Ø¶ÛĮ": 1229,
      "ÙĩØ±ÛĮ": 1230,
      "ĠÙħØ´Ø±ÙĪØ·": 1231,
      "ĠÙħÙģ": 1232,
      "ĠÛĮØ±": 1233,
      "Ø±Ø§Ø±": 1234,
      "ĠØ¨ØŃ": 1235,
      "ĠØ§Ø·ÙĦØ§Ø¹": 1236,
      "ĠØ¯ÙģØ§Ø¹": 1237,
      "ĠØ±Ø³Øª": 1238,
      "ĠØ²ÙħØ§ÙĨ": 1239,
      "ĠØµØ¯ÛĮ": 1240,
      "ÙĦØ§ØŃØ§Øª": 1241,
      "ÚĺÛĮ": 1242,
      "Ø¯ÛĢ": 1243,
      "ĠÚ¯Ø±Ø¯Ø¢ÙĪØ±ÙĨØ¯Ùĩ": 1244,
      "Ø§ÛĮÙĩ": 1245,
      "ĠØ§ÙĩÙĦ": 1246,
      "ĠÙĨÛĮÚ©": 1247,
      "ĠÙĪÙĦÛĮ": 1248,
      "ĠÙĨØ¬ÙģÛĮ": 1249,
      "ĠÙĩØ±": 1250,
      "ĠÙħÙĨÙĪÚĨÙĩØ±": 1251,
      "ĠØ§ÛĮÙĨ": 1252,
      "ĠÚ©Ø±ÙħØ§ÙĨÛĮ": 1253,
      "Ø§ÙĦØ³ÙĦØ§Ùħ": 1254,
      "´Û": 1255,
      "ĠÙģÙĤ": 1256,
      "ĠØ§Ø³Ø¯": 1257,
      "ÙħØ¯ÙĨ": 1258,
      "ĠØ·Ø±ØŃ": 1259,
      "Ø¹ÙĦ": 1260,
      "ĠØ®ÙĪØ±": 1261,
      "ĠØ®Ø³Ø±ÙĪ": 1262,
      "Ø§ØµØºØ±": 1263,
      "ĠÚ©Ø§": 1264,
      "ĠÙĤØ¶": 1265,
      "ĠÚ¯Ø²Ø§Ø±": 1266,
      "ĠØ§ÙĤØªØµØ§Ø¯ÛĮ": 1267,
      "âĢĮâĢĮ": 1268,
      "ĠØ¯Ø±Ø¨Ø§Ø±": 1269,
      "Ø§ØŃØ¯": 1270,
      "ÙĪÙħÙĩ": 1271,
      "ĠØ®Ø§Ø±": 1272,
      "ĠØ®ÙĪØ´": 1273,
      "Ø§ÙĦØª": 1274,
      "ĠÙħØ¨Ø§ÙĨÛĮ": 1275,
      "ĠØŃØ¯ÛĮØ«": 1276,
      "ĠÙĩÙĪØ´": 1277,
      "ĠØ§ÙĦØ¹Ø¸ÙħÛĮ": 1278,
      "ĠÙĤØµÙĩ": 1279,
      "ĠØ¬Ø¯ÛĮØ¯": 1280,
      "ĠØ¨ÙĩÙħÙĨ": 1281,
      "ĠØ²Ø±": 1282,
      "ÙĦØŃ": 1283,
      "ĠØ¹Ú©": 1284,
      "ĠØ³Ø±Ø¯": 1285,
      "ĠØ¯Ø±Ø¨Ø§Ø±Ùĩ": 1286,
      "ĠØ¹ÙĦØ§ÙħÙĩ": 1287,
      "ĠØ³Ø¬": 1288,
      "ĠØ±ÙĪØ§Ø¨Ø·": 1289,
      "ĠØ§ÙħØ±ÙĪØ²": 1290,
      "ĠØ®ÙĪØ§Ø¬": 1291,
      "ĠÙĤØ§Ø¬Ø§Ø±": 1292,
      "ĠÙĨÙĪØ±ÛĮ": 1293,
      "ĠØ§ÙĨÚ¯ÙĦÛĮ": 1294,
      "Ø¨Ø§ØŃ": 1295,
      "ÙĪØ±Ùĩ": 1296,
      "ĠØ¨Ø®Ø´": 1297,
      "Ø§Ø±ÛĢ": 1298,
      "ĠÙĤÛĮ": 1299,
      "ĠÙħÙĪØ³Ø³Ùĩ": 1300,
      "ĠÙĩØ¬Ø±ÛĮ": 1301,
      "ĠÙħØ®Øª": 1302,
      "ÙģÛĮØ¹ÛĮ": 1303,
      "ĠØŃÙĤ": 1304,
      "ĠØ¶ÛĮ": 1305,
      "ĠØ®Ø¯": 1306,
      "ĠÙħÙĩØ¯ÙĪÛĮ": 1307,
      "ĠØ¢Øº": 1308,
      "ĠØ§Ø³Ø§Ø³": 1309,
      "ĠØ¹Ø¨Ø§Ø³ÛĮ": 1310,
      "ÙĨØ§": 1311,
      "Ù¾Ø±": 1312,
      "ÙģØªÙĩ": 1313,
      "ĠÙĨØ³Ø®Ùĩ": 1314,
      "Ø³ØªØ±": 1315,
      "ĠØªÙĤ": 1316,
      "ĠØºÙĦØ§ÙħØ±Ø¶Ø§": 1317,
      "ĠØ¬ÙĪØ§ÙĨ": 1318,
      "ÙĪØº": 1319,
      "ĠÙĨÚĺØ§Ø¯": 1320,
      "Ø§ÙħØ¯": 1321,
      "Ø¯ÙĪØ³ÛĮ": 1322,
      "ĠØªØŃÙĪÙĦ": 1323,
      "ĠÛĮØ²Ø¯ÛĮ": 1324,
      "ĠØ·Ø§ÙĦ": 1325,
      "ĠÚ¯Ø²ÛĮØ¯Ùĩ": 1326,
      "ĠØ´Ø±ÛĮÙģ": 1327,
      "ĠØªØ¨ÙĦÛĮØºØ§Øª": 1328,
      "ÙĨØ´": 1329,
      "ĠÙĨÚ¯": 1330,
      "ĠØ§ÙĦØŃØ³ÛĮÙĨ": 1331,
      "ĠÙĨØ¨": 1332,
      "ĠÙħØ¬ÙĦØ³": 1333,
      "ĠØªØ·Ø¨ÛĮ": 1334,
      "Ø®Øµ": 1335,
      "Ø§ÙĤÛĮ": 1336,
      "ĠÙħØ°": 1337,
      "ÙħÛĮÙĩ": 1338,
      "ĠÙħØ§": 1339,
      "ĠÙ¾Ø§Ú©": 1340,
      "ĠØ±ØŃÛĮÙħ": 1341,
      "Ø¯ÙĨ": 1342,
      "ĠØ§ÙĦØ±": 1343,
      "ĠÙ¾ÙĩÙĦÙĪÛĮ": 1344,
      "ĠÙħØ·Ø¨ÙĪ": 1345,
      "ĠÙĨÙħØ§ÛĮ": 1346,
      "Ø§Ø³ÙħÛĮ": 1347,
      "ĠØ¬ÙħØ§ÙĦ": 1348,
      "ĠÙģØ±Ø¯ÙĪØ³ÛĮ": 1349,
      "ĠØ´Ùģ": 1350,
      "ÙĪÛĮØ§ÙĨ": 1351,
      "ĠØ³ÙĦØ³ÙĦÙĩ": 1352,
      "]ØĮ": 1353,
      "ĠÙħØ¯ÛĮØ±ÛĮØª": 1354,
      "Ø´ÛĮØ±": 1355,
      "ĠØ¯ÛĮÙĨÛĮ": 1356,
      "ĠØ´ÛĮØ¹Ùĩ": 1357,
      "ĠØ±Ø¶Ø§ÛĮÛĮ": 1358,
      "Ø®Ø§ÙĨÛĢ": 1359,
      "ĠØªØ¹ÙĦÛĮÙĤ": 1360,
      "ĠØ¬ÙħØ´ÛĮØ¯": 1361,
      "ĠØªÙģ": 1362,
      "ĠØ¨Ø±ÙĨØ§ÙħÙĩ": 1363,
      "Ø±Ø¨Ø§ÛĮ": 1364,
      "ĠØ§ÙĦÙĤØ§Ø³Ùħ": 1365,
      "ĠØ¨Ø§Ø³ØªØ§ÙĨ": 1366,
      "ĠÙĨÛĮÙħ": 1367,
      "ĠØ±Ùħ": 1368,
      "ĠØ§ÙģØ³": 1369,
      "ÙĦØ·": 1370,
      "ĠØªØ§Ø¡": 1371,
      "ÙĨØ§Ø²": 1372,
      "ĠØ¨ÛĮØ¯": 1373,
      "ÙĪÛĮØ´": 1374,
      "ĠÚ¯Ø°": 1375,
      "ĠÙħØ·Ø¨ÙĪØ¹Ø§Øª": 1376,
      "ĠØ§ÙĦØ±ØŃ": 1377,
      "ÙħØŃÙħØ¯": 1378,
      "ÛĮØ¨": 1379,
      "ĠÚĨÙĨØ¯": 1380,
      "ÙĤØ§ÙĨÛĮ": 1381,
      "Ø¨Ø¯": 1382,
      "ĠÙħØ¨Ø§Ø±": 1383,
      "ĠÙĨÙĪÛĮØ³ÙĨØ¯Ú¯Ø§ÙĨ": 1384,
      "ĠØ¹Ø±ÙģØ§ÙĨÛĮ": 1385,
      "ĠØ¹ÛĮ": 1386,
      "ĠØ¬Ø²": 1387,
      "ĠØ¨Ø±Ú¯Ø²": 1388,
      "ĠØ¨ÙĩØ§Ø±": 1389,
      "ĠÙĪØŃÛĮØ¯": 1390,
      "ĠØ¹ÙĨ": 1391,
      "ĠØ¨ÛĮØ³Øª": 1392,
      "ĠÙ¾ÚĺÙĪÙĩØ´Ú¯Ø§Ùĩ": 1393,
      "Ø§Ù¾ÙĪØ±": 1394,
      "ĠØ§Ø¨Ø±Ø§ÙĩÛĮÙħÛĮ": 1395,
      "ĠØ¨ÙĩØ±Ø§Ùħ": 1396,
      "ĠØ¨ÙĪØ¯": 1397,
      "ĠØªÙħØ¯ÙĨ": 1398,
      "ĠØ¢Ø³ÛĮ": 1399,
      "--": 1400,
      "ÙĪØ§": 1401,
      "ĠØªØ¨Ø±ÛĮØ²ÛĮ": 1402,
      "ĠØ§ÙĦÙĩÛĮ": 1403,
      "ÙĪÙģÛĮ": 1404,
      "ĠÙħÛĮÙĨ": 1405,
      "ĠØ¬Ø§ÙĨ": 1406,
      "ĠÙĩØ²Ø§Ø±": 1407,
      "ĠØ¨ÙĩØ±ÙĪØ²": 1408,
      "ĠÛĮØ¹": 1409,
      "ĠØ³ÛĮØ¯Ø¹ÙĦÛĮ": 1410,
      "ĠÚ¯Ø²Ø§Ø±Ø´": 1411,
      "ĠØ§ØµÙĪÙĦ": 1412,
      "ĠÙĤØ·": 1413,
      "ĠÙħØ¹Ø§Ø±Ùģ": 1414,
      "ĠÚ©ÙĪØª": 1415,
      "Ø²Ø¯Ùĩ": 1416,
      "ĠÙħØªÙĪÙĨ": 1417,
      "ĠÚ©Ø±ÙħØ§ÙĨ": 1418,
      "ĠØ§ÙĤØªØµØ§Ø¯": 1419,
      "ÙĨÙĪØ´": 1420,
      "ĠÚ©ÙĪÚĨ": 1421,
      "ĠØ·Ø±": 1422,
      "ĠÙħØŃÙĤÙĤ": 1423,
      "ĠÙħØ¹ÙħØ§Ø±ÛĮ": 1424,
      "ĠÙģØ±ÛĮØ¯ÙĪÙĨ": 1425,
      "Ø®Ø§Ø¨": 1426,
      "ĠÙĨØ§Ø¯Ø±": 1427,
      "ĠØ³Ùħ": 1428,
      "ĠØ¹Ø³": 1429,
      "ÛĮØ¯ÛĢ": 1430,
      "ĠÙ¾Ø§Ø±Ø³ÛĮ": 1431,
      "ĠØŃØ§ÙħØ¯": 1432,
      "ĠØ§ØµØºØ±": 1433,
      "Ø²ÙħÛĮÙĨ": 1434,
      "ĠÚ©Ø§ÙħÙĦ": 1435,
      "ÙĤÛĮÙĩ": 1436,
      "ÙĪÙĨÙĩ": 1437,
      "ÛĮÙĨÛĢ": 1438,
      "ĠØ¨ÙĪ": 1439,
      "ĠØ¹Ø¯": 1440,
      "ĠØ²ÙĨØ¯Ú¯ÛĮÙĨ": 1441,
      "ĠÙĩÙĪØ´ÙĨÚ¯": 1442,
      "ÙĪØ§ÛĮ": 1443,
      "ĠØ¯Ø¨ÛĮØ±": 1444,
      "ĠØ¬Ø³Øª": 1445,
      "ĠÙĦØ·": 1446,
      "ĠØ±ÙĪØ´ÙĨ": 1447,
      "ĠÙĨØ®Ø³Øª": 1448,
      "Ø§Ø¬ÛĮ": 1449,
      "ĠÛĮÙĪØ³ÙģÛĮ": 1450,
      "Ø±Ø¨ÛĮ": 1451,
      "ÙħÙĦ": 1452,
      "Ø²Ø¨": 1453,
      "ĠÚ©Ø§Ùħ": 1454,
      "ĠØ±Ø§ÙĩÙĨ": 1455,
      "ĠÙĪØ§ÚĺÙĩ": 1456,
      "ĠÙĤØ²ÙĪ": 1457,
      "Ø¶ÛĮØŃ": 1458,
      "ĠÙħØ·Ø§ÙĦØ¹Ùĩ": 1459,
      "ĠÚ©ÙĦØ§Ùħ": 1460,
      "ĠØ§Ø®ÙĦØ§ÙĤ": 1461,
      "Ú©Ø±Ø¯": 1462,
      "ĠÙĪØ±": 1463,
      "ĠØµØ§ÙĦØŃ": 1464,
      "ĠØ´Ø¯Ùĩ": 1465,
      "ÙĩØ±Ø§ÙĨÛĮ": 1466,
      "ĠÙĩØ§Ø´Ùħ": 1467,
      "ĠØŃÛĮØ¯Ø±ÛĮ": 1468,
      "ĠÙħÙĪÙĦØ§ÙĨØ§": 1469,
      "ĠØŃØ§Ø¬ÛĮ": 1470,
      "Ø¹ÛĮØª": 1471,
      "ĠÙģØ¶ÙĦ": 1472,
      "ĠØ¯Ùħ": 1473,
      "ĠØ§Ø¨ÙĪØ§ÙĦ": 1474,
      "ĠØ¢ÙĤØ§": 1475,
      "ĠØŃÛĮØ¯Ø±": 1476,
      "ĠØ¨Ø®ØªÛĮ": 1477,
      "ĠÚ©Ø§Ø´Ø§ÙĨÛĮ": 1478,
      "ÙĪØ§ÙĨÛĮ": 1479,
      "ĠÙħØ«ÙĨÙĪÛĮ": 1480,
      "ĠØªÚ©": 1481,
      "ÛĮØ§": 1482,
      "ĠØ§ÙĦØŃØ³ÙĨ": 1483,
      "ÙģØ±Ùĩ": 1484,
      "ĠÙģÛĮØ±ÙĪØ²": 1485,
      "ĠØ¹Ø§Ø±Ùģ": 1486,
      "ĠØ±ØŃÛĮ": 1487,
      "ĠØ§ÙĨØªØ®Ø§Ø¨": 1488,
      "ĠØ¨Ú©": 1489,
      "Ø¬Ø§ÙĨÛĮ": 1490,
      "Ù¾ÚĺÙĪÙĩ": 1491,
      "ĠØ¢Ø®": 1492,
      "Ø¨Ø§ÙĦ": 1493,
      "ĠØ¹Ø±Ø¨ÛĮ": 1494,
      "Ø¨Ø§Øª": 1495,
      "ĠØªÙĪØ¶ÛĮØŃ": 1496,
      "ĠÙħÙĤØ¯ÙħÛĢ": 1497,
      "ĠÙĪØ§ØŃØ¯": 1498,
      "ÙĦÛĮÙĨ": 1499,
      "ĠØŃÙĪ": 1500,
      "ÙĩÙħ": 1501,
      "Ú©ÙĨØ¯": 1502,
      "ĠØ³ÙĪÙħ": 1503,
      "ĠØ·Ø¨ÛĮ": 1504,
      "Ø¨Ø±Ø¯ÛĮ": 1505,
      "ĠØ¹Ø²ÛĮØ²": 1506,
      "ĠÚ©ÛĮÙģØ±ÛĮ": 1507,
      "ĠÚ©ÙĩÙĨ": 1508,
      "ĠÙħÚ©": 1509,
      "ĠØ³ÙĩØ±": 1510,
      "ĠÙħÙĪØ³ÛĮÙĤÛĮ": 1511,
      "ĠÙĦÛĮÙĦØ§": 1512,
      "Ø³Ø§": 1513,
      "ĠØ¢Ø°Ø±": 1514,
      "ĠØªØ·Ø¨ÛĮÙĤÛĮ": 1515,
      "ĠØŃÛĮ": 1516,
      "ĠØ§ØŃØ³Ø§ÙĨ": 1517,
      "ĠÙħÙĨØ·": 1518,
      "ĠÚ©ÙĪØªØ§Ùĩ": 1519,
      "ĠÙģÛĮÙĦ": 1520,
      "Ø±Ø¨Ø§ÛĮØ¬Ø§ÙĨ": 1521,
      "ÙĪÙĩÛĮ": 1522,
      "ĠÚ©ÙħÛĮ": 1523,
      "ĠØ´ÙĨØ§Ø®Øª": 1524,
      "ĠØªØ§Ø¡ÙĦÛĮÙģ": 1525,
      "ÙĨØª": 1526,
      "Ø§Ø¨ÙĦ": 1527,
      "ĠÙĩÙħØ¯": 1528,
      "ĠÙĪØ²": 1529,
      "Ú¯ÛĮØ±": 1530,
      "ĠØŃØ¬Øª": 1531,
      "ĠØµØ§ÙĦØŃÛĮ": 1532,
      "ĠØ±ØŃÛĮÙħÛĮ": 1533,
      "Ø§Ø¯Øª": 1534,
      "ĠØ¯Ø§ÙĪØ¯": 1535,
      "ĠÙĩØ¯Ø§ÛĮØª": 1536,
      "Ø¬Ø±": 1537,
      "ĠÙĤÙĦÛĮ": 1538,
      "ĠÛĮØŃÛĮ": 1539,
      "Ø§ØŃÛĮ": 1540,
      "ØªØ±ÛĮ": 1541,
      "ĠÙĤØ§Ø³ÙħÛĮ": 1542,
      "ÙĤÙĦÙħ": 1543,
      "ĠØ§ÙĨÚ¯ÙĦÛĮØ³ÛĮ": 1544,
      "ĠÙħØ´Ùĩ": 1545,
      "ĠØ§ÙĦÛĮ": 1546,
      "ĠØ²ÙħÛĮÙĨ": 1547,
      "ĠÙģØ±ÙĩØ§Ø¯": 1548,
      "ĠÛĮØ¹ÙĤÙĪ": 1549,
      "Ø±ÙĪÙģ": 1550,
      "ĠØ§ÙĦÙģØ¶ÙĦ": 1551,
      "ĠØ¨Ø§Øº": 1552,
      "ĠØ®ÙĪØ¯": 1553,
      "ĠØ´ÛĮØ±ÛĮÙĨ": 1554,
      "ĠÚ¯ÙģØªØ§Ø±": 1555,
      "ĠØ§ÙĨØ³Ø§ÙĨ": 1556,
      "ÛĮÙħØ§ÙĨ": 1557,
      "ĠØ§ÙĨØ¯ÛĮØ´": 1558,
      "ĠØ³ÙĪ": 1559,
      "ĠÛ²Û": 1560,
      "ĠÚ©ÙħØ§ÙĦ": 1561,
      "ĠÙ¾Ø³": 1562,
      "ĠÙħØ±Ø§Ø¯ÛĮ": 1563,
      "ĠØ§Ø³ØªØ±": 1564,
      "ĠØ®ÙĪØ§Ø¬Ùĩ": 1565,
      "Ú¯ÛĮØ±ÛĮ": 1566,
      "ĠÛĮØ¯": 1567,
      "Ø§ÙĨØ¯": 1568,
      "ĠØ¯Ø±Ø¨Ø§Ø±ÛĢ": 1569,
      "Ú©Ø§ÙĨÛĮ": 1570,
      "ĠØ®ÙĪØ§ÙĨ": 1571,
      "ĠÙĩÙħØ§ÛĮ": 1572,
      "ĠØªØ´": 1573,
      "ĠØ´Ø§ÙĩÙĨØ§ÙħÙĩ": 1574,
      "Û°Û": 1575,
      "ĠØ·Ø¨Ø§Ø·Ø¨Ø§Ø¦ÛĮ": 1576,
      "ĠØ¢ØºØ§Ø²": 1577,
      "ÙħÙĨÛĮ": 1578,
      "ĠØ¨Ø¯": 1579,
      "Ø§Ø±Ø§": 1580,
      "ĠØªÙĦ": 1581,
      "ĠØ¢Ø¦": 1582,
      "ĠØ¢Ø²Ø§Ø¯ÛĮ": 1583,
      "ĠÙĤØ¯ÛĮ": 1584,
      "ĠØ¹Ø§Ø¨": 1585,
      "ĠÙħÙĤØ±": 1586,
      "Ø«Ø±": 1587,
      "ĠØ¬Ø§ÙħØ¹": 1588,
      "ĠØ¨Ø§ÙĤ": 1589,
      "ĠÙģØ§Ø¶": 1590,
      "ĠÙĤÙĨ": 1591,
      "ĠØºÙģ": 1592,
      "ĠØ¢ÙħÙĪØ²Ø´ÛĮ": 1593,
      "ĠÚ©Ø§Ø¸ÙħÛĮ": 1594,
      "Ø¨Ø´": 1595,
      "ĠÚ©ÙĪØ±": 1596,
      "ĠÙ¾Úĺ": 1597,
      "ĠØ§Ø¨ÛĮ": 1598,
      "Ø³ÙĦ": 1599,
      "ĠÙĤØ¯Ø±": 1600,
      "ĠØ·Ø§ÙĩØ±ÛĮ": 1601,
      "ĠØ§ØŃÙĪØ§ÙĦ": 1602,
      "ĠØ´Ø§Ø¹Ø±": 1603,
      "Ø¹Ùħ": 1604,
      "ĠÙ¾Ø§Ø³": 1605,
      "\".": 1606,
      "ĠÙħÙĦØ§": 1607,
      "ÛĮÙĨÚĺØ§Ø¯": 1608,
      "Ø§ÙĦÚ©": 1609,
      "ĠØ´ÙħØ§Ø±Ùĩ": 1610,
      "ĠØ±Ø§Ø²": 1611,
      "Ø®Ø§ÙĨÛĮ": 1612,
      "ĠÚ¯ÛĮ": 1613,
      "ĠØ¯ÙĪØ±Ø§ÙĨ": 1614,
      "Ø±ÛĮØ²ÛĮ": 1615,
      "ĠØ®Ø¯Ùħ": 1616,
      "ĠÙĤÙĪ": 1617,
      "ØŃØ±": 1618,
      "Ø²Ùħ": 1619,
      "ĠØŃØ²Ø¨": 1620,
      "ĠØ¹Ø¨Ø¯Ø§ÙĦÙĦÙĩ": 1621,
      "ĠÛĮØ²Ø¯": 1622,
      "ÙĤØ§ÙĨ": 1623,
      "ĠÙĨÛĮØ±": 1624,
      "Ø¹Ø´ÛĮ": 1625,
      "ĠØ®Ø³Ø±": 1626,
      "Ø¶ÙħØ§Ùħ": 1627,
      "Ø³ÛĮÙĨ": 1628,
      "ĠØ¯Ø¹": 1629,
      "Ø¹Ø§ÙĦÛĮ": 1630,
      "ĠÚ©ÙĨÚ¯": 1631,
      "Ø±ÛĮÚ©Ø§": 1632,
      "ĠØ¬Ø´ÙĨ": 1633,
      "ÙģØ±ÛĮÙĨ": 1634,
      "ĠØªØ°": 1635,
      "ĠÙħØ·Ø¨": 1636,
      "Ø¨Ø®Ø´": 1637,
      "ĠØ§ØµØ·": 1638,
      "Ø§Ø¯Ø±ÛĮ": 1639,
      "ĠØ§ÙħÛĮÙĨÛĮ": 1640,
      "ĠØªØŃÙĦÛĮÙĦÛĮ": 1641,
      "ĠÙħÙĤØ±Ø±Ø§Øª": 1642,
      "ØŃØ¯": 1643,
      "Ø¹Ø¯": 1644,
      "ÙĪØ±Ø¯ÛĮ": 1645,
      "Ø§ÙħÛĢ": 1646,
      "Ø§ÙħÙĪÙĨ": 1647,
      "ĠØ´Ø§ÙħÙĦ": 1648,
      "ÙĦÛĢ": 1649,
      "ĠØ®Ø±Ø§Ø³Ø§ÙĨ": 1650,
      "ĠØ§ÙģØ³Ø§ÙĨÙĩ": 1651,
      "ĠÙģØµÙĦ": 1652,
      "ÙĪÙĤ": 1653,
      "ĠÙĩÙĨØ¯": 1654,
      "Ø§Ø±Ø´": 1655,
      "ĠØ¢Ø¨": 1656,
      "ĠØ¯Ø±Ø¢": 1657,
      "ĠÙħØ±Ø¯": 1658,
      "³Û±": 1659,
      "ØªØ±ÛĮÙĨ": 1660,
      "ĠÙĨØ¸Ø§ÙħÛĮ": 1661,
      "ĠÙ¾Ø±ÛĮ": 1662,
      "ĠØ¯Ø§Ø±ÛĮ": 1663,
      "ĠØŃÚ©ÙĪÙħØª": 1664,
      "ĠÙģØªØŃ": 1665,
      "ĠØ§Ø·ÙĦØ§Ø¹Ø§Øª": 1666,
      "ĠØ®ÙĪØ±Ø´ÛĮØ¯": 1667,
      "ĠÛĮØŃÛĮÛĮ": 1668,
      "ÙĦÛĮØ§Øª": 1669,
      "ĠÙħØŃÙħØ¯Ø±Ø¶Ø§": 1670,
      "ĠÙħØ±Ú©Ø²ÛĮ": 1671,
      "ĠØ®Ø¯ÙħØ§Øª": 1672,
      "ĠØ¢Ùģ": 1673,
      "ĠØ²Ø§Ø±": 1674,
      "ĠÙģØ±Ø§Ùħ": 1675,
      "ĠÙħØ±Ø¹Ø´ÛĮ": 1676,
      "ĠØ¢Ø°Ø±Ø¨Ø§ÛĮØ¬Ø§ÙĨ": 1677,
      "Ø§Ø¨Ø³ØªÙĩ": 1678,
      "ÙĨÛĮÙģ": 1679,
      "ĠØ³ÙĦØ·Ø§ÙĨ": 1680,
      "ĠØ§ÙĦØµ": 1681,
      "ĠØ·Ø¨Ø§Ø·Ø¨Ø§ÛĮÛĮ": 1682,
      "ĠØ¨ÙĤÙĦÙħ": 1683,
      "Ø¶Øª": 1684,
      "ĠÙĤØ¯Ø³": 1685,
      "ĠÚ©ØªØ§Ø¨Ø®Ø§ÙĨÛĢ": 1686,
      "ĠÚ©ÙĪ": 1687,
      "ĠØ®Ø§Ùħ": 1688,
      "ĠÚ¯ÙĪ": 1689,
      "ĠÙħÙĪÙĦÙģ": 1690,
      "Ú©Ø§Ùħ": 1691,
      "ĠØ®ÙĦÛĮÙĦ": 1692,
      "ĠÙģØ±ÙĪØº": 1693,
      "ĠØ±ÛĮØ§Ø³Øª": 1694,
      "Ø§Ø²ÙĨØ¯": 1695,
      "Ø³Ø§Ø²ÛĮ": 1696,
      "ĠÙĪØ§ÙĦ": 1697,
      "ĠÚ©Ø¨ÛĮØ±": 1698,
      "Ú¯Ø±Ø§ÙĨ": 1699,
      "ĠÙħØ¹ØµÙĪÙħÙĩ": 1700,
      "ÙĨÙĪÛĮØ³": 1701,
      "ÙĤÙĦÛĮ": 1702,
      "ĠØªØ±Ú©ÛĮ": 1703,
      "ĠØ¨Ø´": 1704,
      "Ø§ÙĩØ¯": 1705,
      "ĠØ¯ÙĪØ±ÛĢ": 1706,
      "ĠØ¨Ø§Ùĩ": 1707,
      "ÙģÛĮØ¹": 1708,
      "Ø¹Ø§Ø±Ùģ": 1709,
      "ĠØ§ÙħÛĮØ±ÛĮ": 1710,
      "ĠØ§Ø¹Ø¸Ùħ": 1711,
      "ĠÛĮØ±ÙĨ": 1712,
      "ĠØ¨Ú©ÙĪØ´Ø´": 1713,
      "ĠØ±Ø´ÛĮØ¯": 1714,
      "ĠØ®Ø§Ú©": 1715,
      "ĠØ¹ÙĦÙĪÛĮ": 1716,
      "ĠÙĤØ²ÙĪÛĮÙĨÛĮ": 1717,
      "Ø§ÙĨØ³": 1718,
      "Ø¶ÛĮÙĩ": 1719,
      "ĠØ±Ø¨": 1720,
      "ĠÙĤØ§Ø¶ÛĮ": 1721,
      "ĠØ§ÙĦÙħÙĦÙĦ": 1722,
      "ĠÙħØ²": 1723,
      "Ø§Ø¹ÛĮÙĦÛĮ": 1724,
      "ĠØ³Ø¹ÛĮØ¯ÛĮ": 1725,
      "ĠÚ¯ÛĮÙĦØ§ÙĨ": 1726,
      "ĠÙĨØ§Ùĩ": 1727,
      "Ø§Ø¨Ø¹": 1728,
      "ĠÙ¾Ø±ÙĪÛĮÙĨ": 1729,
      "ĠØ¯Ø§ÙĪ": 1730,
      "Ø±ÛĮÙĩ": 1731,
      "ĠØ¢Ø³ØªØ§ÙĨ": 1732,
      "ÙĪØ±Ø¯": 1733,
      "Ø®Ø§Ø±": 1734,
      "ÙĨÚĺØ§Ø¯": 1735,
      "ĠØ¢Ø´ÙĨ": 1736,
      "ÙĨÛĮØª": 1737,
      "ÙĨÙĪÛĮØ³ÛĮ": 1738,
      "ĠØ±Ø§ÙĩÙĨÙħØ§ÛĮ": 1739,
      "ĠØ³Ø§Ø¯Ø§Øª": 1740,
      "ĠØºØ±Ø¨": 1741,
      "ĠÙħÙĤØ§ÙĦÙĩ": 1742,
      "ĠØ´Ø±ÛĮØ¹ØªÛĮ": 1743,
      "ĠØ§Ú©Ø±": 1744,
      "ĠÙĨØ§Øµ": 1745,
      "Ø¬Ø¯": 1746,
      "ĠØ´Ø¬": 1747,
      "ĠÙħÙĪØ¶ÙĪ": 1748,
      "ĠØ¹ÙħØ±": 1749,
      "ĠØ§Ú©Ø¨Ø±ÛĮ": 1750,
      "ĠØµÙģÙĪÛĮ": 1751,
      "ĠÙģÙĤÙĩÛĮ": 1752,
      "ĠØ§Ø³ÙħØ§Ø¹ÛĮÙĦÛĮ": 1753,
      "ĠØ·Ø§ÙĩØ±": 1754,
      "ĠÙĨØ¹ÙħØª": 1755,
      "ĠØ¹Ú©Ø³": 1756,
      "ĠØ¹Ø±Ø¨": 1757,
      "ĠÛ²Û°": 1758,
      "ĠØ¨Ø§ÙĤØ±ÛĮ": 1759,
      "ĠØ³Ø§Ø®Øª": 1760,
      "ĠØ§ÙħØ§ÙħÛĮ": 1761,
      "ĠÙĨÙĪÛĮÙĨ": 1762,
      "Ø²Ø´Ú©ÛĮ": 1763,
      "ĠÙģØ§Ø±Ø³": 1764,
      "ĠÙ¾ÛĮØ§ÙħØ¨Ø±": 1765,
      "ĠØ´ÛĮØ±Ø§Ø²": 1766,
      "ĠÛ±Û³Û¸Û": 1767,
      "Ø§ØºÙĩ": 1768,
      "ĠØ¯Ø§Ø¯Ø±Ø³ÛĮ": 1769,
      "ĠØ¢Ø¯": 1770,
      "ĠØ®Ø±Ø¯": 1771,
      "ÙĪÛĮØ±Ø§Ø³ØªØ§Ø±": 1772,
      "Ø§ÙĪÛĮ": 1773,
      "ĠØ±ÙĪØ§ÙĨ": 1774,
      "ĠÙ¾ÛĮØ±Ø§ÙħÙĪÙĨ": 1775,
      "ĠØ¯Ø§Ø±ÛĮÙĪØ´": 1776,
      "ÙĩØ§ÙĨ": 1777,
      "Ø§ÛĮØªÛĮ": 1778,
      "ĠÙģØ¶": 1779,
      "ĠØ±Ø§Ø¯": 1780,
      "ĠÙħØŃÛĮ": 1781,
      "ĠØ¯Ø±Ø³": 1782,
      "ØµØ¯": 1783,
      "ĠÙģØ±Ø®": 1784,
      "ØŃØ³ÛĮÙĨÛĮ": 1785,
      "Ø¯ÙĪÙĦÙĩ": 1786,
      "Ø§ÛĮØ±": 1787,
      "ĠÙģÙĩ": 1788,
      "ĠÙħØ³ÙĦ": 1789,
      "ĠØºÙĦØ§ÙħØŃØ³ÛĮÙĨ": 1790,
      "ĠØ¬ØºØ±Ø§ÙģÛĮØ§ÛĮ": 1791,
      "ÙĦØ¨": 1792,
      "Ø´Ø§ÙĩÛĮ": 1793,
      "ĠØ§ÙĦØª": 1794,
      "ĠÚ©ØªØ§Ø¨Ø´ÙĨØ§Ø³ÛĮ": 1795,
      "ĠØ³ÙĨÚ¯": 1796,
      "ĠØŃÙĤÛĮÙĤ": 1797,
      "ĠÙĨÙĩØ¶Øª": 1798,
      "ÙģØ±ÙĩÙĨÚ¯ÛĮ": 1799,
      "ĠÙħÙĪØ²Ùĩ": 1800,
      "ÙĪØ±Ø§ÙĨ": 1801,
      "ĠØ®Ø§ÙĨÙĩ": 1802,
      "ÙĨØ¬Ø§ÙĨÛĮ": 1803,
      "ĠØ®Ø±Ø§Ø³Ø§ÙĨÛĮ": 1804,
      "ĠØ²ÙĨØ¯Ú¯ÛĮÙĨØ§ÙħÙĩ": 1805,
      "ÙĪØ§Ø²": 1806,
      "ĠØ¨Ø§Ø³ØªØ§ÙĨÛĮ": 1807,
      "ĠØ¬ÙĦØ§ÙĦÛĮ": 1808,
      "ĠÙħÙĨØªØ®": 1809,
      "ØªÙĦ": 1810,
      "Ø¬ÙĪØ§ÙĨ": 1811,
      "ĠØ±ÙĪØ³Øª": 1812,
      "ĠØ¯Ø±Ø¢ÙħØ¯ÛĮ": 1813,
      "Ø§Ø±Ú©": 1814,
      "ĠØ³ÙĦØ·Ø§ÙĨÛĮ": 1815,
      "ĠØ§ØªØŃ": 1816,
      "):": 1817,
      "]:": 1818,
      "ĠÙ¾ÙĪÙĩ": 1819,
      "ĠÙĨØ¬Ùģ": 1820,
      "Ø§ÛĮØ§Øª": 1821,
      "ĠÛĮÙĪÙĨ": 1822,
      "ĠØºÛĮ": 1823,
      "ĠØ§Ø´Ú©": 1824,
      "ĠØªØ¹ÙĦÛĮÙĤØ§Øª": 1825,
      "ÙĨØ²": 1826,
      "ĠØ³Ø§Ùħ": 1827,
      "ĠØ³ÙĩÛĮ": 1828,
      "ĠÙģØ±ÙħØ§ÙĨ": 1829,
      "ĠÙħÙĩÙĨØ¯": 1830,
      "Ø§Ø¨Ø±Ø§Ùĩ": 1831,
      "Û±Û¹Û": 1832,
      "ĠØ§Ø±Ø´Ø§Ø¯": 1833,
      "ĠØµØ¨": 1834,
      "ÙĦØ§ÙĤÛĮ": 1835,
      "ĠÚ©Ø§ÙĨÙĪÙĨ": 1836,
      "ĠÙħØ¬ÙħØ¹": 1837,
      "ĠØªØ°Ú©Ø±": 1838,
      "ÙĨÙħ": 1839,
      "Ø¨ÛĮØ§ÙĨ": 1840,
      "ĠØ´Ø±ÛĮÙģÛĮ": 1841,
      "ĠÙģÙĦØ³ÙģÛĮ": 1842,
      "ĠÙħÚ©ØªØ¨": 1843,
      "ĠÙĪØ§ÙĤ": 1844,
      "ĠÙĨØ®Ø³ØªÛĮÙĨ": 1845,
      "Ø§Ø¨Ø±Ø§ÙĩÛĮÙħ": 1846,
      "ĠØ³Ø±ÙĪØ¯": 1847,
      "ĠØ±ÙħØ¶": 1848,
      "ĠÙħØ§Ø²ÙĨØ¯": 1849,
      "ĠØ¬Ø§ÛĮ": 1850,
      "ĠØ§ÙĦÚ©Ø±ÛĮÙħ": 1851,
      "ĠØ¢Ùĩ": 1852,
      "ÙĤÛĮÙĤÛĮ": 1853,
      "Ú©ÙĨÙĨØ¯Ùĩ": 1854,
      "ĠÙħØ³ÛĮ": 1855,
      "ĠØŃÙģ": 1856,
      "ĠÙģØ®Ø±": 1857,
      "ĠØ§Ø³Ùģ": 1858,
      "ĠØ²ÙĩØ±Ùĩ": 1859,
      "ĠÙ¾Ø§ÛĮØ§ÙĨ": 1860,
      "ĠØ¨Ø®ØªÛĮØ§Ø±ÛĮ": 1861,
      "ĠØ¢Ø³": 1862,
      "ĠÛ±Û³ÛµÛ": 1863,
      "ĠØ±ÙĪØŃØ§ÙĨÛĮ": 1864,
      "ĠØ§ØµØ·ÙĦØ§ØŃØ§Øª": 1865,
      "Ø§Ú¯": 1866,
      "ÙĨØ§Ùĩ": 1867,
      "ØªØ§ÛĮ": 1868,
      "ĠÙħØ¬Ø¯": 1869,
      "ĠØ¸Ùĩ": 1870,
      "ĠÙĩÙħØ¯Ø§ÙĨÛĮ": 1871,
      "ĠØ¢ÙħØ§Ø±": 1872,
      "ĠÙĨÙĪØ¬ÙĪØ§ÙĨ": 1873,
      "ĠØ¨ÛĮØ±": 1874,
      "ĠÙĩÙħØ§ÛĮÙĪÙĨ": 1875,
      "ĠØ®Ø§ÙĦ": 1876,
      "Ø§Ø¯ÛĮÙĩ": 1877,
      "ĠÛ³": 1878,
      "ĠØ®Ø§ÙĨÙĪ": 1879,
      "Ø¡": 1880,
      "ĠÙĨØ¬Ùħ": 1881,
      "ÙĪØ§Ø±Ùĩ": 1882,
      "ĠØ§ÛĮÙĦ": 1883,
      "ĠØ¹Ø²": 1884,
      "ĠÙħÙĨØ§Ø¨Ø¹": 1885,
      "Ø§Ø®ØªÛĮ": 1886,
      "ĠØ¬ÙĨØ¨Ø´": 1887,
      "ĠØºØ²ÙĦ": 1888,
      "Ġ.": 1889,
      "ĠÙħÙĩØ§Ø¬": 1890,
      "Ø¯Øª": 1891,
      "ĠØ±Ø¦ÛĮ": 1892,
      "Ø§ÙĦØ´": 1893,
      "ĠØ³ÛĮÙģ": 1894,
      "ĠØ³Ø§Ø³": 1895,
      "ĠÛĮØ§Ø³": 1896,
      "ĠØ·ÙĪØ³ÛĮ": 1897,
      "ĠØªØ±Ø¨ÛĮØª": 1898,
      "ÙĦÙĪÚ©": 1899,
      "ĠØŃÙĤÛĮÙĤØª": 1900,
      "ĠÙħØ±Ø¶ÛĮÙĩ": 1901,
      "ĠÚ©ÙĦÛĮØ§Øª": 1902,
      "ÙĤØ§": 1903,
      "Ú¯ÙĪÛĮ": 1904,
      "Ø§ÛĮÙĦ": 1905,
      "ĠØ¬Ø§ÙĪ": 1906,
      "ĠÚĨÙĩÙĦ": 1907,
      "Ø§Ø¦Ùħ": 1908,
      "ĠÙħØ³Ø§Ø¦ÙĦ": 1909,
      "ĠØ²ÙĨØ¯Ú¯Ø§ÙĨÛĮ": 1910,
      "ĠØ±Ø§Ùħ": 1911,
      "ĠÙħØŃÙħÙĪØ¯ÛĮ": 1912,
      "ĠÙĨØ¸Ø±ÛĮÙĩ": 1913,
      "ĠÙĤØ¶Ø§ÛĮÛĮ": 1914,
      "Ø§ÙĦØ¹": 1915,
      "ĠÙħØ¹Øª": 1916,
      "ÙĪÙĦÙĪ": 1917,
      "Ø§ØŃØ¨": 1918,
      "ĠÙħÛĮÙĦ": 1919,
      "Ø¨Ø±Ø¯": 1920,
      "ĠØªÙĩ": 1921,
      "ĠØªÙĩØ±Ø§ÙĨÛĮ": 1922,
      "Ø³Ø§ÙĦ": 1923,
      "Ø´Ú¯Ø±ÛĮ": 1924,
      "Ø§Ø¨Ùĩ": 1925,
      "ĠØµØ§Ø¨": 1926,
      "Ø§Ø¦ÛĮØ§ÙĨ": 1927,
      "ĠØ§ÙĤØ¨Ø§ÙĦ": 1928,
      "ĠÚ¯Ø²ÛĮØ¯ÛĢ": 1929,
      "ĠÙĤØ¯Ø±Øª": 1930,
      "ĠÙĨØ§ÙĩÛĮØ¯": 1931,
      "]ØĽ": 1932,
      "ĠÚ©ÙĪØ¯Ú©Ø§ÙĨ": 1933,
      "ĠØ¶ÛĮØ§Ø¡": 1934,
      "ĠØ³Ú©": 1935,
      "ĠÙģØ±Ø¯": 1936,
      "ĠØ§ÙĨØªÙĤ": 1937,
      "ĠÙĨØ§Ø¸": 1938,
      "ĠÙģØ§Ø±": 1939,
      "ĠÙģØ±Ø´ØªÙĩ": 1940,
      "Ú©Ø´": 1941,
      "Ø¨Ø§Ø²": 1942,
      "ĠØ§Ø±ÙĪ": 1943,
      "Ø§ÙĨÛĮØ§ÙĨ": 1944,
      "ÙĪØ³Øª": 1945,
      "ÚĺÚ¯Ø§ÙĨ": 1946,
      "Ø§ÙĨØ´ÙĨØ§Ø³ÛĮ": 1947,
      "ÙģØªØ§Ø±": 1948,
      "ØªØ¨Ø§Ø·": 1949,
      "ĠÛĮØ§Ø¯Ø¯Ø§Ø´Øª": 1950,
      "ĠØªØŃÙĪÙĦØ§Øª": 1951,
      "ĠØ¯Ø®": 1952,
      "ĠØ´ÙģÛĮØ¹ÛĮ": 1953,
      "ÙģÛĢ": 1954,
      "ÙģØ±Ø¯": 1955,
      "ĠØ³ÛĮØ±ÛĮ": 1956,
      "ĠØ¹ÙĤ": 1957,
      "ĠØ®Ø¯Ø§": 1958,
      "ĠØ§ÙĨØ¶ÙħØ§Ùħ": 1959,
      "ĠØ§ØµÙĦ": 1960,
      "Ø¦Øª": 1961,
      "ĠÙħÙĦÚ©ÛĮ": 1962,
      "ĠÙĨÙħØ§ÛĮØ´": 1963,
      "Ú¯Ø°Ø´Øª": 1964,
      "ĠÙĩØ±ÙĪÛĮ": 1965,
      "Ø±Ø²": 1966,
      "ĠÙĪÙĤ": 1967,
      "ĠØ¯Ø§Ùħ": 1968,
      "ĠÙĪÙĦØ§ÛĮØª": 1969,
      "ĠØ¬Ø§ÙĪÛĮØ¯": 1970,
      "ĠØ§ÙĦØ´": 1971,
      "ĠØ²ÙħØ§ÙĨÛĮ": 1972,
      "ĠØ·ÛĮ": 1973,
      "Ø±ÙĪØ¯ÛĮ": 1974,
      "ĠØ¹ÙĦÙħÛĮÙĩ": 1975,
      "ĠÚ¯ÙĨØ¬ÛĮÙĨÙĩ": 1976,
      "ÙģÙĤ": 1977,
      "ÛĮÙħÙĩ": 1978,
      "ĠØ´ÙĩØ§Ø¨": 1979,
      "ĠØ§Ø±ØªØ¨Ø§Ø·": 1980,
      "ĠØ§Ø®ÙĦØ§ÙĤÛĮ": 1981,
      "ĠÙ¾ÙĨØ¬Ùħ": 1982,
      "ĠØ§ÙĦØ·": 1983,
      "ĠØ®Ø§Øª": 1984,
      "ĠØ§Ø³Ø¯ÛĮ": 1985,
      "ĠØ¨ÛĮØ§ÙĨ": 1986,
      "ĠØ¢ÙħØ±ÛĮÚ©Ø§": 1987,
      "Ø§ÙģØ§Øª": 1988,
      "Ø¨Ø§ØŃØ«": 1989,
      "ÛĮÙĨØ¯Ùĩ": 1990,
      "ĠØ´ÙĨØ§Ø³ÛĮ": 1991,
      "ĠÙģØ¯": 1992,
      "ĠÚĨÛĮ": 1993,
      "Ø¨Ø±Ø§ÛĮ": 1994,
      "ĠÚ©Ø´Ø§ÙĪØ±": 1995,
      "ĠØ®Ø±Ùħ": 1996,
      "ĠØŃØ¨ÛĮØ¨ÛĮ": 1997,
      "ĠØ¢ÙģØªØ§Ø¨": 1998,
      "Ø¢Ø¨Ø§Ø¯": 1999,
      "ĠØ¨Ø§Ø²ÛĮ": 2000,
      "ĠØªØ§Ø¬": 2001,
      "ÙĦÛĮØ¯": 2002,
      "ÚĺÙĨ": 2003,
      "ĠØ·ÙĨØ²": 2004,
      "ÙģØ±ÙĪØ´ÛĮ": 2005,
      "ĠØªØŃØ´ÛĮ": 2006,
      "Ø¹ÙĦÙħÛĮ": 2007,
      "ĠØ³Ø±Ø¯Ø§Ø±": 2008,
      "ÛĮØ¯Ø§": 2009,
      "ĠØ³ÛĮØ±ÙĪØ³": 2010,
      "ĠØ¢Ø®Ø±ÛĮÙĨ": 2011,
      "ÙĨÛĮÙĨ": 2012,
      "ĠÙħØ¨Ø§ØŃØ«": 2013,
      "ĠÙĨÛĮØ§": 2014,
      "ĠØ§ÙĦØŃÚ©": 2015,
      "ĠÙħØ´Ø±ÙĪØ·Ùĩ": 2016,
      "ĠØ¨Ø±Ú¯Ø²ÛĮØ¯Ùĩ": 2017,
      "ĠØ¹Ø¯Ø§ÙĦØª": 2018,
      "ĠØ¢Ø¨Ø§Ø¯ÛĮ": 2019,
      "ĠØ®ÙĦÛĮÙĦÛĮ": 2020,
      "ĠØ§Ø´Ø±": 2021,
      "ĠØªÙĪØŃ": 2022,
      "ĠØ§ÛĮØ±Ø§ÙĨÛĮØ§ÙĨ": 2023,
      "ĠØ®ÙĦÙĤ": 2024,
      "ĠØ¹Ø§ÙĦÙħ": 2025,
      "ĠØ§Ø³Ú©ÙĨØ¯": 2026,
      "Ø§Ø¹Ø¸": 2027,
      "ĠØªØ±Ú©": 2028,
      "ĠØ¯ÙĪØ³Øª": 2029,
      "ĠØ§ÙĦØ³ÙĦØ·": 2030,
      "ĠØ³ÙģØ±ÙĨØ§ÙħÙĩ": 2031,
      "ÙĪÙ¾": 2032,
      "Ø§ÛĮØ¯": 2033,
      "ĠØ¹Ø¸": 2034,
      "ĠØ¯Ø§ÙĨØ´Ø¬": 2035,
      "ĠØ³Ø±ÙĪØ¯Ùĩ": 2036,
      "Ø´ÙĨØ§Ø³": 2037,
      "Ø²Ø§ÙĨ": 2038,
      "ĠØ§Ø³Ø§Ø³ÛĮ": 2039,
      "ĠØµÙģÛĮ": 2040,
      "ĠØ³Ø±Ø²ÙħÛĮÙĨ": 2041,
      "ĠØªØµÙĨÛĮÙģ": 2042,
      "ĠØ¬ÙĪØ§Ø¯ÛĮ": 2043,
      "ĠØ¹Ø§Ø´ÙĤ": 2044,
      "ĠÛĮØ¹ÙĤÙĪØ¨": 2045,
      "ØŃÙĩ": 2046,
      "Ø§ÛĮØ¹": 2047,
      "ĠÛ´": 2048,
      "ÙĨÙħÙĩ": 2049,
      "ĠØªÛĮÙħ": 2050,
      "ĠÙĨÚ¯Ø±": 2051,
      "ĠÙ¾Ø§Ø±Ø³": 2052,
      "ĠÙħØ±Ø²": 2053,
      "ĠØ¹Ø±Ø§ÙĤ": 2054,
      "ĠÙħÙĩØ±Ø¯Ø§Ø¯": 2055,
      "ĠÙĪØ§Ø¨Ø³ØªÙĩ": 2056,
      "ĠÙħØ¹ÛĮÙĨ": 2057,
      "ĠØ§ÙĦÙĦÙĩÛĮ": 2058,
      "ĠØ³ÛĮÙħØ§ÛĮ": 2059,
      "ĠØ¹Ø²ÛĮØ²ÛĮ": 2060,
      "ÙĪÚ©Ø±": 2061,
      "Ø³Ø§Ø²": 2062,
      "ØŃÙħØ¯": 2063,
      "Ø§ÙĦØ§Ø³ÙĦØ§Ùħ": 2064,
      "ĠÚĨØ´Ùħ": 2065,
      "ĠØ³Ø±Ø®": 2066,
      "ĠØ§ÙĦØ±ØŃÙħÙĨ": 2067,
      "ĠÙħÙĨØ·ÙĤ": 2068,
      "°Û": 2069,
      "ĠÚ©Ø§Ø±Ú¯Ø±Ø¯Ø§ÙĨ": 2070,
      "ØªÙĤ": 2071,
      "ĠØ³ÙħÙĨ": 2072,
      "ĠØªØ±Ø§ÙĨÙĩ": 2073,
      "ĠÙĤØ±Ø§Ø±": 2074,
      "ĠÙĤÙħØ±ÛĮ": 2075,
      "ĠØªØ¨Ø±ÛĮØ²": 2076,
      "Ø¯Ø§ÛĮ": 2077,
      "Ú©ÙĪ": 2078,
      "ĠÙĩØ§ÛĮ": 2079,
      "ĠØ±Ø³Ø§ÙĦ": 2080,
      "ĠØ¯Ø³ØªÙĪØ±": 2081,
      "ĠØ³ÙĦÛĮÙħØ§ÙĨÛĮ": 2082,
      "Ø®ÙĪØ§Ùĩ": 2083,
      "ĠÙħÙĨØ¸Ø±": 2084,
      "ĠÙĨØ§ØµØ±ÛĮ": 2085,
      "ĠÙģÙĦØ§ØŃ": 2086,
      "ĠØ±ÙħØ§ÙĨ": 2087,
      "ĠÙģØ±Ø§Ùĩ": 2088,
      "ĠÙħØ¹ÙĨÙĪÛĮ": 2089,
      "ĠÙħØ¹Ø±ÙĪÙģ": 2090,
      "ĠÙĩÛĮØ¦Øª": 2091,
      "ĠÙĪÙģ": 2092,
      "Ø¬ÙĦ": 2093,
      "ĠØ§ÙĦØº": 2094,
      "ĠØ®ÙĦÛĮ": 2095,
      "ÛĮÙĨÛĮØ§": 2096,
      "ĠÙģØ§Ø¶ÙĦ": 2097,
      "ĠØŃÙĦ": 2098,
      "ĠØµØŃ": 2099,
      "ĠØ±ÙĪØ²ÙĨØ§ÙħÙĩ": 2100,
      "ĠØ¹ÛĮØ³ÛĮ": 2101,
      "ÙĩØ¯": 2102,
      "ĠÙħÙĩØ±Ø§ÙĨ": 2103,
      "ĠØ·ÙĦ": 2104,
      "ĠØ§ØŃÚ©Ø§Ùħ": 2105,
      "ĠÙħÙĨØ´": 2106,
      "ĠØ´Ø§Ø¹Ø±Ø§ÙĨ": 2107,
      "ĠÙħØ¹Ø±ÙģØª": 2108,
      "ĠØĮ": 2109,
      "ÙħÙĤ": 2110,
      "Ø´Ø¯": 2111,
      "ĠØªÛĮ": 2112,
      "ĠØ´Ø§Ùħ": 2113,
      "ĠÙĤÙħÛĮ": 2114,
      "ÙĪÛĮØ§": 2115,
      "ÙĪÛĮØª": 2116,
      "Ø§Ø²Ø¯Ùĩ": 2117,
      "ĠÚ©ØªØ§Ø¨ÙģØ±ÙĪØ´ÛĮ": 2118,
      "ĠÙĨØ³Ø±ÛĮÙĨ": 2119,
      "ĠØ³ÙĩØ±Ø§Ø¨": 2120,
      "ĠÚ©ÙĨÚ¯Ø±Ùĩ": 2121,
      "ĠÚ©ÙĪÙĩ": 2122,
      "ĠØŃØ¯": 2123,
      "Ø§ÙĦØ¨": 2124,
      "ĠÙħØŃØ¯": 2125,
      "Ø§ÙĩØ±": 2126,
      "ĠØ¨ÙĩØ²Ø§Ø¯": 2127,
      "Ø±Ø²ÛĮ": 2128,
      "ĠØ¨Ø³": 2129,
      "ĠØ²Ø¨": 2130,
      "ĠÚ¯Ø±Ø¯Ø´Ú¯Ø±ÛĮ": 2131,
      "ĠØ¬ÙħØ¹ÛĮ": 2132,
      "ĠØ§ÙĨØ¯ÛĮØ´ÛĢ": 2133,
      "Ú©Ø¯ÛĢ": 2134,
      "Ú¯Ø§ÙĨÛĮ": 2135,
      "ĠØ±ØŃÙħØ§ÙĨÛĮ": 2136,
      "ĠØ²ÛĮØ¨": 2137,
      "ĠØ¨Ø§Ø±": 2138,
      "ĠØ¯Ø§Ø³ØªØ§ÙĨÛĮ": 2139,
      "ĠØ¹Ø§Ùħ": 2140,
      "ĠØ¹Ø§ÙĦ": 2141,
      "ĠØ¹Ø«": 2142,
      "ĠØ±ÙĨØ¬": 2143,
      "Ø³ØªØ±ÛĮ": 2144,
      "ĠØ¨Ø±Ú¯Ø±Ø¯Ø§ÙĨ": 2145,
      "ØºØ§ÙĨÛĮ": 2146,
      "ĠØ§Ø¯ÛĮØ§ÙĨ": 2147,
      "ĠØ§ØµÙĦØ§ØŃØ§Øª": 2148,
      "ĠØ§ÙĦÙĩØ§Ùħ": 2149,
      "ĠØ¯Ø®ØªØ±": 2150,
      "Ø³ÙĨÛĮ": 2151,
      "Ø§ÛĮØ§ÙĨ": 2152,
      "ĠØ¬ÙĦÛĮÙĦ": 2153,
      "ĠÙĩØ´": 2154,
      "Ø§Ø¦Ø±ÛĮ": 2155,
      "ĠÙħÙĪÙĦÙĪÛĮ": 2156,
      "ĠÙĨÛĮÙĦ": 2157,
      "ĠÚĨÚ©": 2158,
      "ĠØ®Ø§ÙĨÙĪØ§Ø¯Ùĩ": 2159,
      "ĠÙĨÙģÛĮ": 2160,
      "ØµÙĪ": 2161,
      "ĠÙģØ±Ø§ÙĨ": 2162,
      "ĠÙħØ±Ú¯": 2163,
      "Ø¨ÛĮÙĩ": 2164,
      "Ø§Ø¯ÙħÛĮ": 2165,
      "ĠØ¨Ø±Ø²": 2166,
      "Ø´ÙĨØ§ÙħÙĩ": 2167,
      "ĠÙħØ·ÙĦ": 2168,
      "ÙĤØ§ÛĮØ¹": 2169,
      "ĠÙħØ°Ùĩ": 2170,
      "ÙĪØªÛĮ": 2171,
      "ÛĮØ±Ø§": 2172,
      "ĠÛĮØ§Ø±": 2173,
      "ĠØ³ÛĮØ§Ùĩ": 2174,
      "ĠÙģÛĮØ¶": 2175,
      "ĠØºØ²ÙĦÛĮØ§Øª": 2176,
      "ĠØ¯ÛĮÚ¯Ø±Ø§ÙĨ": 2177,
      "ĠÙģÛĮÙĦÙħ": 2178,
      "ĠØ¨ÙĦÙĪ": 2179,
      "ĠÙĨØ±Ú¯": 2180,
      "ĠØ³ÙĦØ§Ùħ": 2181,
      "Ø²Ø¯": 2182,
      "Ø¬ÙĪØ¯": 2183,
      "Ø³ØªÙĨ": 2184,
      "ĠÙħÙĤØ§Ùħ": 2185,
      "ĠØ´ÙĩØ±ÛĮØ§Ø±": 2186,
      "ĠÙħÙĨØªØ®Ø¨": 2187,
      "ĠØªØ§Ø¨": 2188,
      "Ø±ÛĮØ¨": 2189,
      "ĠØ§ÙĦØ²": 2190,
      "ĠØ§ÙĦØ§Ùħ": 2191,
      "ÙĪØ±Ø§": 2192,
      "ĠÙĤÙĩØ±": 2193,
      "ĠØ¢ÙħÙĦÛĮ": 2194,
      "ĠÙĪÛĮØ±Ø§Ø³Øª": 2195,
      "²Û°": 2196,
      "ÙĪØŃ": 2197,
      "ĠØ±ÙģÛĮØ¹ÛĮ": 2198,
      "ĠÚ¯ÙĪÛĮØ´": 2199,
      "ĠÙģØ±ÛĮØ¯Ùĩ": 2200,
      "ĠØ±ÙĩØ¨Ø±ÛĮ": 2201,
      "ĠÙħØ¯Ø±Ø³": 2202,
      "ĠÙħÚ©ØªÙĪØ¨": 2203,
      "ĠØ³Ø¬Ø§Ø¯ÛĮ": 2204,
      "ÙĨØ¸": 2205,
      "Ø³Ø§Ø±ÛĮ": 2206,
      "ĠØ§Ø¶": 2207,
      "Ú¯Ø§": 2208,
      "Ø±ÛĮØ§": 2209,
      "ĠÙ¾Ø²Ø´Ú©ÛĮ": 2210,
      "ĠÙĤÙĦ": 2211,
      "ÙĪØ²ÛĢ": 2212,
      "ĠÙĨÛĮØ´": 2213,
      "ĠØ±ÙĪÛĮÙĩ": 2214,
      "ĠØµØ¯ÛĮÙĤ": 2215,
      "ØªØ§": 2216,
      "Ù¾ÛĮ": 2217,
      "Ø®ÙĦ": 2218,
      "ĠØ§ÙĦØ±Ø¶Ø§": 2219,
      "ĠÙĩØ´Øª": 2220,
      "ĠØ¨Ø±ÙĪ": 2221,
      "ĠØ³Ø±Ú¯Ø°Ø´Øª": 2222,
      "ĠÚĨØ§Ù¾Ø®Ø§ÙĨÙĩ": 2223,
      "ĠØŃÙĪØ§Ø´ÛĮ": 2224,
      "ĠØ¢Ø¦ÛĮÙĨ": 2225,
      "Ú©ÛĮÙĦ": 2226,
      "ĠØ¨Ø§Ø±Ø§ÙĨ": 2227,
      "ĠÙĨÚ©": 2228,
      "ĠÚĨØ±": 2229,
      "ĠÙĦØ±": 2230,
      "ĠÛ±Û²Û": 2231,
      "ĠØ³Ø¹Ø¯ÛĮ": 2232,
      "Ø±Ú¯Ø§ÙĨÛĮ": 2233,
      "ĠÙħØ´Ø±ÙĪØ·ÛĮØª": 2234,
      "ĠT": 2235,
      "ĠØ§ÙģØ±": 2236,
      "ĠØ¨Ø§Ø¯": 2237,
      "ĠØ¨ÛĮÚĺÙĨ": 2238,
      "ĠÙĪÙĩ": 2239,
      "ĠØŃØ±": 2240,
      "Ø§ÙĩØ§ÛĮ": 2241,
      "ÙĪØ±Ø´": 2242,
      "ĠØ®Ø§ÙĨÛĮ": 2243,
      "ÙħÛĮÙħ": 2244,
      "Ø§ØºÛĮ": 2245,
      "ĠÙħÙĨØµÙĪØ±ÛĮ": 2246,
      "ĠØ¨Ø²Ø±Ú¯Ø¯Ø§Ø´Øª": 2247,
      "Ø³Ø³Ùĩ": 2248,
      "ĠÙĨÙĤØ§Ø´ÛĮ": 2249,
      "ĠØ§Ú©Ø±Ùħ": 2250,
      "Ø²Ø¯ÛĮ": 2251,
      "Ø³ÛĮÙħ": 2252,
      "ĠÙĨØ¸Ø§Ø±Øª": 2253,
      "ĠÙħÛĮØ§ÙĨ": 2254,
      "ĠØ§Ø´Ø±Ùģ": 2255,
      "ĠØ¨Ø§Ø¨Ú©": 2256,
      "ĠØ²ÛĮÙĨØ¨": 2257,
      "ÙĤÙħ": 2258,
      "ĠÙĪØµ": 2259,
      "ÙģÛĮÙĤ": 2260,
      "ĠØ¯ÛĮØ¨Ø§": 2261,
      "ĠÙģØ±ÛĮØ¨Ø§": 2262,
      "ĠØ³Ø¨ØŃ": 2263,
      "ĠØ³ÛĮÙħÛĮÙĨ": 2264,
      "ĠÙħØ³ÙĦÙħØ§ÙĨ": 2265,
      "ÙĦØ§ÙĨ": 2266,
      "Ø±ÛĮÚ©": 2267,
      "ĠØ±ÙĪØ¯": 2268,
      "ĠØ§Ø³ØŃ": 2269,
      "ĠÙħØµÙĪØ¨": 2270,
      "ĠØ¢Ø±Ø´": 2271,
      "ĠÙĪØŃØ¯Øª": 2272,
      "Ø±Ø³": 2273,
      "Ø³ÙħØª": 2274,
      "ĠÙĪÙĤØ§ÛĮØ¹": 2275,
      "ØºÛĮ": 2276,
      "ĠÚĨÙĩØ±": 2277,
      "ĠÛ±Û³Û¶Û": 2278,
      "Ø¨Ø§Ø¨": 2279,
      "ÛĮØ±Ùĩ": 2280,
      "ĠØ¢ØªØ´": 2281,
      "ĠØ®Ø§ÙĪØ±": 2282,
      "ĠØ§Ø³Ø±Ø§Ø±": 2283,
      "ĠØ²Ø±ÛĮÙĨ": 2284,
      "ĠØ¬ÙĩØ§Ø¯": 2285,
      "ĠØ§Ø¯Ø§Ø±ÛĮ": 2286,
      "ĠØ³Ø±ÙĪØ´": 2287,
      "ĠÙĨÙĩØ¬": 2288,
      "ĠØ³ØŃØ±": 2289,
      "Ø¬ÙħÙĩ": 2290,
      "ĠØ§Ø±Ø²Ø´": 2291,
      "ĠØ´ÙĩØ±Ø§Ùħ": 2292,
      "ĠØ¨ÙĩØ±Ø§ÙħÛĮ": 2293,
      "ĠØ¹Ø·Ø§Ø±": 2294,
      "ĠØ±Ø§Ø²ÛĮ": 2295,
      "ĠÙģØ±Ø²Ø§ÙĨÙĩ": 2296,
      "ĠÙħØ·Ø¨Ø¹Ùĩ": 2297,
      "ĠØ¹Øµ": 2298,
      "Ø§ØªØ±": 2299,
      "ĠØ¯ÛĮÙ¾": 2300,
      "ØªÙĨ": 2301,
      "ĠØ´Ø®Øµ": 2302,
      "ĠØ¨ÙĩØ´ØªÛĮ": 2303,
      "ĠØ®ÙĪØ§Ø¨": 2304,
      "ĠØ³Ø¨Ø²": 2305,
      "ĠØ¬Ø³ØªØ§Ø±": 2306,
      "ĠØ¹Ø¸ÛĮÙħÛĮ": 2307,
      "Ø¹Ø¶ÙĪ": 2308,
      "ĠØ´ÙĪ": 2309,
      "ĠØ¢ÛĮÙĨØ¯Ùĩ": 2310,
      "ĠÙħÛĮØ«": 2311,
      "ĠØªÙĪÙĦÛĮØ¯": 2312,
      "ĠØ¹ÙħØ§Ø¯": 2313,
      "ĠØ¢Ø¯Ø§Ø¨": 2314,
      "ĠÙĨØ±Ú¯Ø³": 2315,
      "Ø§Ø°": 2316,
      "Ú¯Ø§Ø±ÛĮ": 2317,
      "Ø§ØŃØ¨Ùĩ": 2318,
      "ĠÙ¾Ø§Ú©Ø³ØªØ§ÙĨ": 2319,
      "ĠØ§ÙģØª": 2320,
      "ĠÚ©Ø§Øª": 2321,
      "ĠÚ©Ø§Ø¨ÙĦ": 2322,
      "ĠØ´Ø±ÙĤ": 2323,
      "ĠØ§ÙĨØªØ¸": 2324,
      "ĠØ³ÙĦÛĮÙħØ§ÙĨ": 2325,
      "ĠØ³ÛĮÙĨÙħØ§ÛĮ": 2326,
      "ĠØŃÙģØ¸": 2327,
      "ĠØ§ÙĦØ¬": 2328,
      "Ø§Ø²Ø§Øª": 2329,
      "ÙĨÚ¯Ø§Ø±ÛĮ": 2330,
      "Ø¨ÛĮØªÛĮ": 2331,
      "ĠÙĨØµÛĮØ±": 2332,
      "ĠÙ¾Ø§Ø±ÛĮ": 2333,
      "ĠØ§ÙħÙĨÛĮØª": 2334,
      "ĠÙĤØ±Ø§ÙĨ": 2335,
      "ĠØ¬ÙĩØ§ÙĨÚ¯ÛĮØ±": 2336,
      "ĠØ®ÙĦÛĮØ¬": 2337,
      "ÙĨÙĪÙĨ": 2338,
      "ÙģØ§Ø±Ø³": 2339,
      "ĠØ¯Ø§ÙĨ": 2340,
      "ĠØ¨ÙĩØ§Ø¡": 2341,
      "ĠÙħÙĤØ§": 2342,
      "ĠÙĦØºØ§Øª": 2343,
      "ĠÙħØ³Ø¦": 2344,
      "ĠØªØŃØ´ÛĮÙĩ": 2345,
      "ĠØ³ÙħÛĮÙĩ": 2346,
      "ĠØ§ÙĦÙĪ": 2347,
      "ĠÚ¯Ø±Ø§ÙģÛĮ": 2348,
      "Ø§Ø®Ø±": 2349,
      "Ø¬Ø±Ø¯ÛĮ": 2350,
      "ĠÙ¾Ø§Ø³Ø®": 2351,
      "ĠØ±Ø³Ø§ÙĦÛĢ": 2352,
      "ĠØ¨Ø¹Ø¯": 2353,
      "ĠÙĨØ§Ø´": 2354,
      "ĠØ³Ø§ÛĮÙĩ": 2355,
      "ĠØ±ÙĨÚ¯": 2356,
      "ĠØ¢Ø¨ÛĮ": 2357,
      "ĠØ¢ÙģØ±ÛĮÙĨ": 2358,
      "ĠÙĤØ§ÙĨ": 2359,
      "ĠØªØ¬Ø¯ÛĮØ¯": 2360,
      "ĠØµÙĨØ¹ØªÛĮ": 2361,
      "ÙħÙĦÛĮ": 2362,
      "ØŃØ§ÙĦ": 2363,
      "Ø§Ø¹Ø¯": 2364,
      "Ø¨ÙĦØ§ØºÙĩ": 2365,
      "ĠØŃØ³ÙĨÛĮ": 2366,
      "ÚĺÛĮÚ©": 2367,
      "ĠÙħÙĨØ§Ø³": 2368,
      "ĠÙħÙĩØ±ÛĮ": 2369,
      "ĠÙħØµØ·": 2370,
      "ĠÙ¾Ø±ØªÙĪ": 2371,
      "ĠØ®ÙĦØ§Øµ": 2372,
      "ÙĩÙĨ": 2373,
      "Ø¨Ø®": 2374,
      "ĠØ§ÙĪØ±": 2375,
      "ĠØ¯Ø§Ø¦": 2376,
      "ĠÙģÚ©Ø±ÛĮ": 2377,
      "ĠÙ¾Ø§Ø±": 2378,
      "ĠØ¬Ø±": 2379,
      "ÙĪÛĮØ³ÛĮ": 2380,
      "ĠÚ¯ÙĦØ³ØªØ§ÙĨ": 2381,
      "ĠÙħÙĨØ¸ÙĪÙħ": 2382,
      "ĠÙĤÛĮØ§Ùħ": 2383,
      "ĠÙħØ§ÙĨ": 2384,
      "ĠØ§ÙĦØ®": 2385,
      "ĠØ¯Ø§ÙĨØ´Ú©Ø¯Ùĩ": 2386,
      "ĠÙĤØ±Ø¢ÙĨÛĮ": 2387,
      "Ú©ÙĦÛĮ": 2388,
      "ĠØ¨Ø¯ÛĮ": 2389,
      "ĠØ¹ÙĤÙĦ": 2390,
      "ĠØ§ÙĦØ¯ÙĪÙĦÙĩ": 2391,
      "Ø§Ø³Ùĩ": 2392,
      "ĠÙħØ¹Ø¸Ùħ": 2393,
      "Ø§Ø¹Øª": 2394,
      "ĠØ±ÙĪØ²Ú¯Ø§Ø±": 2395,
      "ĠÙħØ¹Ø±ÙģÛĮ": 2396,
      "ÙħÛĮØ¯": 2397,
      "Ø¹Ø±": 2398,
      "Ø¬ÛĮØ¯": 2399,
      "ĠØ§ÙĦØ£": 2400,
      "ĠÙħØ¬ÙħÙĪØ¹": 2401,
      "ĠØŃÚ©Ø§ÛĮØª": 2402,
      "ĠÙ¾ÛĮØ´Ú¯": 2403,
      "ĠÚ¯Ø±Ø§ÙģÛĮÚ©": 2404,
      "ÙĦÚ©": 2405,
      "Ø¯ÙĩÛĮ": 2406,
      "ĠØ³Ø±ÛĮ": 2407,
      "ĠØ®Ø²": 2408,
      "ĠÚ¯ÙĪØ¯": 2409,
      "ĠØºÛĮØ±": 2410,
      "ĠÙ¾Ø±Ø³": 2411,
      "ĠØ±Ø¦ÛĮØ³": 2412,
      "ĠÙģØ±Ø§ÙĩØ§ÙĨÛĮ": 2413,
      "ÙħÛĮØ±": 2414,
      "ĠØ§ÙĦØ§Ø³ÙĦØ§ÙħÛĮ": 2415,
      "ĠÙ¾ÛĮÙħØ§ÙĨ": 2416,
      "ÙĪØ±Øª": 2417,
      "ĠÙħØ±Ø§Ø¯": 2418,
      "Ø§Ø¦Ø¨": 2419,
      "ĠØ§Ø¹ØªÙħ": 2420,
      "ĠØ¨Ø§Ø¨Ø§Ù¾ÙĪØ±": 2421,
      "ĠÙĨÛĮÙħØ§": 2422,
      "ĠÙħØŃØ¯Ø«": 2423,
      "ĠÙĩØ²": 2424,
      "ÙĨØ¯Ø§ÙĨ": 2425,
      "ĠÚĨÙĩØ§Ø±Ùħ": 2426,
      "ĠØ³ÙģØ§Ø±Ø´": 2427,
      "ĠØ¯ÙħÙĪÚ©Ø±": 2428,
      "ĠØºÙģØ§Ø±ÛĮ": 2429,
      "Ø³ÙĦÙħÛĮÙĨ": 2430,
      "ĠÙħØ§Ø²ÙĨØ¯Ø±Ø§ÙĨ": 2431,
      "Ø¯ÙĤ": 2432,
      "ĠØŃØ§Ø¦Ø±ÛĮ": 2433,
      "ĠØ²Ùħ": 2434,
      "Ø§ÙĦÙħØ¹Ø§Ø±Ùģ": 2435,
      "ĠÙĨØµÛĮØ±ÛĮ": 2436,
      "ĠÚ¯ÙĨØ¬ÛĮÙĨÛĢ": 2437,
      "ĠØ³ÙĨØª": 2438,
      "ĠÙħØ¸ÙģØ±": 2439,
      "ĠÙħØº": 2440,
      "ĠØ´Ø§Ø¯": 2441,
      "ĠÙħØ±ØŃ": 2442,
      "ĠÙħØ¬Ø§Ø²Ø§Øª": 2443,
      "ĠØ¢ÛĮØ§Øª": 2444,
      "ĠØ·Ø§ÙĩØ±Ùĩ": 2445,
      "ĠØ³Ø®ÙĨØ±Ø§ÙĨÛĮ": 2446,
      "ĠÙĤØ¯ÛĮÙħ": 2447,
      "ĠØ±Ø¨Ø§Ø¹ÛĮ": 2448,
      "ĠÙĨÙĪØ¬ÙĪØ§ÙĨØ§ÙĨ": 2449,
      "ÛĮØ§Ø±": 2450,
      "ÙħØ¬Ùħ": 2451,
      "ÙħØªÛĮ": 2452,
      "ĠÙĪØ§Ø¹Ø¸": 2453,
      "ÙĨØ¯Ú¯ÛĮ": 2454,
      "ĠÙĤØ±Ø¨Ø§ÙĨÛĮ": 2455,
      "ĠÛµ": 2456,
      "ĠØ§ÙĦØ³Ø§Ø¯Ø§Øª": 2457,
      "ĠØ¸ÙĩÙĪØ±": 2458,
      "Ø¯ÙĦ": 2459,
      "Ø¯ÛĮØ±": 2460,
      "ĠØªØ¦": 2461,
      "ĠÙĨÙģØ±": 2462,
      "ĠÙģØ±Ø¬": 2463,
      "ĠØµØ§ØŃØ¨": 2464,
      "ĠÙĨÛĮØ´Ø§Ø¨": 2465,
      "Ø§ÙĪØ´": 2466,
      "ÙĨÙĪ": 2467,
      "Ø¨Ø´Ø±": 2468,
      "ĠÙĨØ«Ø±": 2469,
      "Ø§ÙĦØ¨ÙĦØ§ØºÙĩ": 2470,
      "ÙħÛĮØª": 2471,
      "ĠÛ±Û³Û·Û": 2472,
      "ĠÚ©ÛĮØ§ÙĨ": 2473,
      "ĠØ¯Ø§Ø¯Ú¯Ø§Ùĩ": 2474,
      "ĠØ¯ÛĮØ±": 2475,
      "ĠØ´Ú©Ø±": 2476,
      "ĠØ§ÙĦÙĤØ±": 2477,
      "ĠØ¨Ø±Ø³ÛĮ": 2478,
      "Ø±Ø§ÙĤÛĮ": 2479,
      "ĠØ±ØŃÙħØª": 2480,
      "ÙĪØ¹Ùĩ": 2481,
      "Ø¨ÛĮÙĨ": 2482,
      "Ø³ÛĮÙĩ": 2483,
      "ĠØ§Ø®ÙĪØ§ÙĨ": 2484,
      "ĠÙħØ¤ÙĦÙģØ§ÙĨ": 2485,
      "ĠØ´ÙģØ§ÙĩÛĮ": 2486,
      "ĠØ²Ø§Ø±Ø¹": 2487,
      "ĠØ³ÙĪØ±Ùĩ": 2488,
      "ĠØ±Ø²": 2489,
      "Ø§ÙĦØ§Øª": 2490,
      "Ø§ÙĩØ¨": 2491,
      "ØªÛĮØ¨": 2492,
      "ĠØ´ÙĩØ±Ø¯Ø§Ø±ÛĮ": 2493,
      "ĠØ´Ø±ÛĮØ¹Øª": 2494,
      "ĠÙħØ¯Ø±Ø³Ùĩ": 2495,
      "ĠÙħØŃÛĮØ·": 2496,
      "ĠÙĨØ§Ø²": 2497,
      "Ø§Ú©ÛĮ": 2498,
      "ĠÙ¾Ø±ÙĪØ±Ø´": 2499,
      "ØªØµØŃÛĮØŃ": 2500,
      "ĠØ±Ø§ÙĩØ¨Ø±Ø¯ÛĮ": 2501,
      "ĠØ²Ø±ØªØ´": 2502,
      "ĠØ´Ø®ØµÛĮØª": 2503,
      "ÙħØ§ÛĮÛĮ": 2504,
      "ĠÙħØ§ÙĦÛĮ": 2505,
      "ØªÙĩØ±Ø§ÙĨ": 2506,
      "Ø´ÙĩØ±": 2507,
      "ĠÙ¾Ø¯Ø±": 2508,
      "Ø±Ø¯Ùĩ": 2509,
      "ĠÚĨØ´": 2510,
      "Ú¯ÛĮØ²": 2511,
      "ĠØ±ÙĪÛĮÚ©Ø±Ø¯": 2512,
      "ĠØ¢ÙĤØ§ÛĮ": 2513,
      "ĠÚ©Ø±Ø¯Ø³ØªØ§ÙĨ": 2514,
      "ĠÚ©Ø§ÙĪÙĩ": 2515,
      "ĠØ¢Ø³ÛĮØ¨": 2516,
      "ĠÙĤÙĨØ¨Ø±ÛĮ": 2517,
      "¹Û°": 2518,
      "ÙħØ§Ùĩ": 2519,
      "Ø¨Ø§Ø²ÛĮ": 2520,
      "ĠØ¹ÙĪ": 2521,
      "ĠÙħØŃØ¨ÙĪ": 2522,
      "ĠØ¬Ø§ÙħÛĮ": 2523,
      "Ø§Ø¦Ø¯": 2524,
      "ĠÚ©ÙĪØ¯Ú©": 2525,
      "ĠØ±Ø³ØªÙħ": 2526,
      "ĠØ¨ÙĪØ³ØªØ§ÙĨ": 2527,
      "ĠØ¨Ø§ÙĩØªÙħØ§Ùħ": 2528,
      "ĠØ¬Ø§ÛĮÚ¯Ø§Ùĩ": 2529,
      "Ø¯Ø§Ùħ": 2530,
      "ÙģØ§Øª": 2531,
      "ĠØ³ÙħÛĮÙĨ": 2532,
      "ĠØ§ÙĦØ§Ø³ÙĦØ§Ùħ": 2533,
      "ĠØ¹ÙĦÛĮØ²Ø§Ø¯Ùĩ": 2534,
      "ĠØ¨ÛĮØ§Øª": 2535,
      "ĠÙħØµØ§ØŃØ¨Ùĩ": 2536,
      "ĠØŃÙħØ²Ùĩ": 2537,
      "ĠÙ¾Ø±ÙĪØ§ÙĨ": 2538,
      "ĠØ¶Ø±Ø¨": 2539,
      "ĠØ³ÛĮÙĨØ§": 2540,
      "ĠÙĪÛĮÚĺÙĩ": 2541,
      "Ø®Ø§Ø±Ø¬ÛĮ": 2542,
      "ĠØ§ÙĨØªÙĤØ§Ø¯ÛĮ": 2543,
      "ÙħÙĩØ±": 2544,
      "ĠÙħØ³Ø¬Ø¯": 2545,
      "ĠÙĨÛĮØ³Øª": 2546,
      "ĠÚ©ÛĮØ§ÙĨÛĮ": 2547,
      "ĠØ§ÙģØ´ÛĮÙĨ": 2548,
      "ĠÙĨØµØ±Øª": 2549,
      "ĠÚ©Ø±ÙħÛĮ": 2550,
      "ĠÙħÙĩÙĨØ¯Ø³": 2551,
      "Ø³Ø±ÛĮ": 2552,
      "ĠØ§ÛĮÙħ": 2553,
      "ĠØ¨Øµ": 2554,
      "ĠØªØ³": 2555,
      "Ø§Ø¦ÛĮÙĩ": 2556,
      "ĠÛ±Û³Û¹Û": 2557,
      "ĠÚ©Ø§Ø±Ø¨Ø±Ø¯ÛĮ": 2558,
      "ĠØ¢Ø±Ø§Ø¡": 2559,
      "Ø®ÛĮØµ": 2560,
      "ĠØ·Ø±Ø§ØŃ": 2561,
      "ĠØ§ÛĮÙħØ§ÙĨ": 2562,
      "ĠØªÙħ": 2563,
      "ĠØ³Ø§Ø±Ø§": 2564,
      "ĠØ¹Ø§Ø¯": 2565,
      "ĠØ°Ø¨ÛĮ": 2566,
      "ĠØ±ÙĩØ¨Ø±": 2567,
      "ĠÙĨØ§ÙħÛĢ": 2568,
      "ĠØŃÛĮØ§Øª": 2569,
      "ĠÙħØ´ÙĩØ¯": 2570,
      "ĠÙ¾Ø´Øª": 2571,
      "ĠØ¬Ø±Ùħ": 2572,
      "ĠØ§Ø³Ø·": 2573,
      "ĠØªÙĪÚ©ÙĦÛĮ": 2574,
      "Ø§ÙĪÙĨØ¯": 2575,
      "ÙĤØ§ÛĮÙĤ": 2576,
      "Ø±Ø®": 2577,
      "ĠÙĨÙħÛĮ": 2578,
      "Ø¬Ø§": 2579,
      "ĠÙ¾Ø®Ø´": 2580,
      "Ø§ÙĩÛĮÙħ": 2581,
      "ĠÙģØ±ÙĨÚ¯": 2582,
      "Ø§Ø²Ùĩ": 2583,
      "ØªÙħÙĦ": 2584,
      "ĠÙħØ¨Ø§Ø±Ø²": 2585,
      "ĠØ´Ø´": 2586,
      "ĠÛĮÙĩ": 2587,
      "ĠØªÙĪØµÛĮ": 2588,
      "ĠØ´ÙħØ§Ø±ÛĢ": 2589,
      "ĠØ§ÙĪÙĦÛĮÙĨ": 2590,
      "ĠØ¯Ø§ÙĪÙĪØ¯": 2591,
      "ĠØ³Ø¨ØŃØ§ÙĨÛĮ": 2592,
      "Ú©ÛĮØ¯": 2593,
      "ĠØ¨Ø§ÙĦ": 2594,
      "ĠØ®ÙĪÙĨ": 2595,
      "ĠØ²ÙĨØ¬Ø§ÙĨÛĮ": 2596,
      "ĠÙħØ±ÙĪØ±ÛĮ": 2597,
      "Ø¯ÙĪØ³Øª": 2598,
      "ĠÙĩÙĨØ±ÙĩØ§ÛĮ": 2599,
      "ĠØªØ¬Ø§Ø±Øª": 2600,
      "ĠØ§Ø³ØªØ±Ø§Øª": 2601,
      "ĠØ¹Ø§Ø¨Ø¯ÛĮ": 2602,
      "ĠØ¢Ø´ÙĨØ§ÛĮÛĮ": 2603,
      "ĠÙĨÛĮÙĦÙĪ": 2604,
      "ĠØ³ÙĨØ¯": 2605,
      "ĠØ¹Ø§Ø·": 2606,
      "ĠØ¹Ø±ÙĪ": 2607,
      "Ø°Ø±": 2608,
      "ĠÙħØ·ÙĩØ±ÛĮ": 2609,
      "ĠÚ¯ÙģØªÚ¯ÙĪ": 2610,
      "ĠØ³ÙĨØªÛĮ": 2611,
      "ĠØ±Ø¬Ø¨ÛĮ": 2612,
      "ĠØ±Ø³ØªÙħÛĮ": 2613,
      "ĠÙĦØ·Ùģ": 2614,
      "ĠÛĮÙĪÙĨØ³": 2615,
      "ĠÙħØ±ØŃÙĪÙħ": 2616,
      "Ø¨Ø§Ø³": 2617,
      "ĠØ¨Ø¯Ø±": 2618,
      "ĠÙĨÙģ": 2619,
      "ĠØ¹ÙĩØ¯": 2620,
      "ĠÙĤØ´": 2621,
      "Ø§Ø±ÛĮÙĩ": 2622,
      "ĠØ¯Ø±ÛĮØ§": 2623,
      "ĠØºÛĮØ§Ø«": 2624,
      "ĠØªØ°Ú©Ø±Ùĩ": 2625,
      "ØŃØ¯ÛĮ": 2626,
      "Ù¾Ø§": 2627,
      "ĠØ¢Ø²Ø§Ø¯Ùĩ": 2628,
      "ØµÙģ": 2629,
      "ĠØ§ÙĨØ¯": 2630,
      "ĠØµÙĦØŃ": 2631,
      "ĠÚ¯Ø²ÛĮÙĨ": 2632,
      "ĠØµÙģÙĪÛĮÙĩ": 2633,
      "¹Û±": 2634,
      "ĠØªØ®Øµ": 2635,
      "Ø¬Ø¹": 2636,
      "ĠÙĩÙĪ": 2637,
      "ĠÙĩÙĪÛĮØª": 2638,
      "ÙĨØ¯Ø±": 2639,
      "Ø¯ÛĮÙĩ": 2640,
      "Ø¢ÙĨ": 2641,
      "ĠØ´Ø¹Ø±ÙĩØ§ÛĮ": 2642,
      "ĠØ±Ø¶Ø§Ø¦ÛĮ": 2643,
      "ĠØ¢ÛĮÙĩ": 2644,
      "ĠÙħÙĤØ§ÙĪÙħØª": 2645,
      "ĠÙħØµØ·Ùģ": 2646,
      "ÙģØªØ±": 2647,
      "ĠØ¨Ø§Ø³Øª": 2648,
      "ĠÙĨØ¨ÛĮ": 2649,
      "ĠÙĨÙģØª": 2650,
      "ÙħÛĮÙħÙĩ": 2651,
      "ĠØ¹ÙħÙĦÛĮ": 2652,
      "ĠÙħØ´Ú©": 2653,
      "ĠØ³Ø¬Ø§Ø¯": 2654,
      "ĠÙħÛĮÙĨØ§": 2655,
      "ĠØ®ÙĪØ§ÙĨØ³Ø§Ø±ÛĮ": 2656,
      "Ø³ÛĮÙĨØ§": 2657,
      "ĠØ¯Ø§ÙĨØ´Ø¬ÙĪÛĮØ§ÙĨ": 2658,
      "ØªØ§Ø±ÛĮØ®": 2659,
      "Ø³Ø¨": 2660,
      "ĠÙħØŃØ³ÙĨÛĮ": 2661,
      "Ø§Ø¨Ø¯ÛĮÙĨ": 2662,
      "Ø§Ø²Ø§Ø¯Ùĩ": 2663,
      "ĠØ±ÙĩÙĨ": 2664,
      "ĠÙħÙĨØµÙĪØ±Ùĩ": 2665,
      "ĠØ±Ø¬Ø¨": 2666,
      "ĠØ®Ø§Ø±Ø¬Ùĩ": 2667,
      "ÙĨÙĪØ´Øª": 2668,
      "ĠØ®Ø³Ø±ÙĪÛĮ": 2669,
      "Ø±Ú¯Ø§ÙĨ": 2670,
      "ĠÚĨØ§ÙĦØ´": 2671,
      "Ú©ÛĮÙĩ": 2672,
      "ĠÙħØµØ¯ÙĤ": 2673,
      "ĠÙħÛĮØ±Ø²Ø§ÛĮÛĮ": 2674,
      "ĠÙģÙĦØ³ÙģÛĢ": 2675,
      "ĠÙħÙĪØ¶ÙĪØ¹ÛĮ": 2676,
      "Ø§ÙĪØ±ÛĮ": 2677,
      "ĠØŃÙĪØ²ÛĢ": 2678,
      "ĠÙģÙĪÙĦ": 2679,
      "ĠÙģÙĤÛĮÙĩ": 2680,
      "ĠØ±Ø§ÛĮ": 2681,
      "ĠØ¬ÛĮ": 2682,
      "ĠØµÙĪÙģÛĮ": 2683,
      "ĠÚ©Ø§Ø±ÙĨØ§ÙħÙĩ": 2684,
      "ĠÙĤØ·Ø¨": 2685,
      "ĠØ¢Ø³ÙħØ§ÙĨ": 2686,
      "ÙĦÙĪÙħ": 2687,
      "Ø¯Ú¯ÛĮ": 2688,
      "Ø³ÙĪ": 2689,
      "Ø¨ÙĨØ¯ÛĮ": 2690,
      "Ú¯Ùĩ": 2691,
      "ĠØªØ±ÛĮ": 2692,
      "ĠØ´Ø±ÙĪ": 2693,
      "ĠÙĨØ¸Ùħ": 2694,
      "ĠØ¨ÙĦØ®ÛĮ": 2695,
      "ĠÙħØ°Ø§ÙĩØ¨": 2696,
      "ĠØ³ÙĩÛĮÙĦØ§": 2697,
      "ĠØŃÙħØ¯": 2698,
      "Ø§ÙĩØ±ÛĮ": 2699,
      "ĠÙĩÙħÚ©Ø§Ø±": 2700,
      "ĠØ³ÙĦÙħØ§ÙĨ": 2701,
      "Ø¬ÛĮØ¨": 2702,
      "ĠØ³ØªØ§Ø¯": 2703,
      "ĠØ§Ø±Ø¯Ø¨ÛĮ": 2704,
      "ÙĤÛĮÙĨ": 2705,
      "ÙĤØ§Ø³Ùħ": 2706,
      "Ø§Ø±Ø¯": 2707,
      "ØªØ±Ø§": 2708,
      "Ø¨Ø±Ø²": 2709,
      "ĠÛ³Û": 2710,
      "ĠØ³Ø¹Ø§Ø¯Øª": 2711,
      "ĠØ¨Ø§Ø¨Ø§": 2712,
      "Ø¯Ø§Ø±Ø§ÙĨ": 2713,
      "ĠÙĨØ´Ø±ÛĮ": 2714,
      "ĠØµÙĨØ§ÛĮØ¹": 2715,
      "ĠÙħØ«ÙĦ": 2716,
      "ĠØ®Ø§Ø±Ø¬ÛĮ": 2717,
      "ĠÙ¾Ø±ÙĪØ§ÙĨÙĩ": 2718,
      "Ø§ÙģØ±": 2719,
      "Ø§ÛĮÙģ": 2720,
      "ÛĮØ±Ø§ÙĨ": 2721,
      "ĠÙħÙĪØŃØ¯": 2722,
      "ÙħØ§ÛĮÙĩ": 2723,
      "ĠØ³Ù¾ÛĮØ¯Ùĩ": 2724,
      "ĠÚĨÙĩØ§Ø±Ø¯Ùĩ": 2725,
      "ĠÙĪØ¶": 2726,
      "ĠÙĨØŃ": 2727,
      "ĠØ¹Ø¸ÛĮÙħ": 2728,
      "ĠØŃØ§Ú©": 2729,
      "Ø§Ø¨Ø±": 2730,
      "Ø«ÛĮØ±": 2731,
      "ĠØ´ÛĮØ¹ÛĮ": 2732,
      "ĠØŃÚ©Ùħ": 2733,
      "ĠØ´Ø§ÙħÙĦÙĪ": 2734,
      ".ØĮ": 2735,
      "Ø§ÙĨØª": 2736,
      "Ø´Ø§ÙĨ": 2737,
      "ĠÙģÚ©Ø±": 2738,
      "ĠØ¢ÛĮÙĨÙĩ": 2739,
      "ĠØ¨Ø§Ø¨Ø§ÛĮÛĮ": 2740,
      "ĠÙħØ³Ø¹ÙĪØ¯ÛĮ": 2741,
      "ĠØ§Ø±Ø¯Ø´ÛĮØ±": 2742,
      "ĠØ¬ÙĪØ§ÙĨØ§ÙĨ": 2743,
      "ĠÙ¾ÚĺÙĪØ´": 2744,
      "ĠÙģØ±Ø§ÙħØ±Ø²": 2745,
      "ĠØ³ÙħÛĮÙĨØ§Ø±": 2746,
      "Ø¨Ø§Ø³ÛĮ": 2747,
      "ĠØ¯ÙĨÛĮØ§": 2748,
      "ĠØ³Ø§ÙĪ": 2749,
      "ĠØŃØ§Øª": 2750,
      "ĠØ§Ø¨Ø±": 2751,
      "Ø§Ø´ÙĨØ§Ø³ÛĮ": 2752,
      "ĠØºØ±": 2753,
      "ĠØ´Ø¹Ø¨Ø§ÙĨÛĮ": 2754,
      "Ø¨ÙĪØ·": 2755,
      "ĠØ§ØªØŃØ§Ø¯ÛĮÙĩ": 2756,
      "ĠØ±ÙħØ¶Ø§ÙĨ": 2757,
      "ĠØ§Ø±ØªØ¨Ø§Ø·Ø§Øª": 2758,
      "ĠØªØ®ØµØµÛĮ": 2759,
      "ÙħÙĪØ²": 2760,
      "ĠØ¨ÛĮØª": 2761,
      "Ø§ÙĨÛĮÙĩ": 2762,
      "ĠÙĩÙħÙĩ": 2763,
      "ĠØ´Ø±Ùģ": 2764,
      "ĠØ´ÙĩØ±Ø³ØªØ§ÙĨ": 2765,
      "ĠÙĨÙĪØ±ÙĪØ²ÛĮ": 2766,
      "ĠÚ¯ÙĪÙĩØ±": 2767,
      "ĠØ¹Ø²Øª": 2768,
      "ØªØ£": 2769,
      "ĠØ¯Ø§ÛĮ": 2770,
      "Ø±ÛĮÙģ": 2771,
      "ĠØŃØ³Ø§Ùħ": 2772,
      "Ø¢Ø«Ø§Ø±": 2773,
      "ĠØªØ§Ø±ÛĮØ®ÚĨÙĩ": 2774,
      "Ø¤ÙħÙĨ": 2775,
      "ĠØ§Ø±ØªØ´": 2776,
      "ĠÙħØ´ØªÙħÙĦ": 2777,
      "ÙħØŃÙħØ¯ÛĮ": 2778,
      "Ú©Ø²": 2779,
      "ÙĤØ§Øª": 2780,
      "ÙĤØ¶": 2781,
      "ĠØ±Ø¤": 2782,
      "Ø§Ø¨Ø§Ø¯ÛĮ": 2783,
      "Ø¨ÙĩØ§ÙĨÛĮ": 2784,
      "ĠØ¯Ø§ÙĨØ´Ú¯Ø§ÙĩÛĮ": 2785,
      "ĠØ§ÙĦØŃÙĤ": 2786,
      "ĠØ³ÛĮØ±Ùĩ": 2787,
      "ĠÙħØ¹ØµÙĪÙħ": 2788,
      "ĠØµØ¯ÛĮÙĤÙĩ": 2789,
      "ĠÙĨÙħØ§ÛĮØ´ÙĨØ§ÙħÙĩ": 2790,
      "ĠÚ©ÙĪÚĨÚ©": 2791,
      "ĠØ¹Ø³Ú©Ø±ÛĮ": 2792,
      "ĠÙĦØ·ÛĮ": 2793,
      "Ù¾ÚĺÙĪÙĩÛĮ": 2794,
      "ĠÚ©Ø´Ø§ÙĪØ±Ø²": 2795,
      "ĠØ§ÙĦØ³ÙĦØ·ÙĨÙĩ": 2796,
      "ĠØ§Ø¶Ø§ÙģØ§Øª": 2797,
      "Ø±Ø§ÛĮÛĮ": 2798,
      "ĠÙĨÙĤÛĮ": 2799,
      "ØµØ±ÛĮ": 2800,
      "Ø§Ø¨ÙĦÙĩ": 2801,
      "ĠØ§ÙĨØ³Ø§ÙĨÛĮ": 2802,
      "Ø§Ú©Ø±": 2803,
      "ĠØªØ¹ÙĦÛĮÙħ": 2804,
      "ĠÚ©Ø§ÙħØ±Ø§ÙĨ": 2805,
      "ĠØ´Ø¬Ø§Ø¹ÛĮ": 2806,
      "ÙħØ¤": 2807,
      "Ø¯Ø±ÛĮ": 2808,
      "Ø¯Ø§ÙĨØ´": 2809,
      "ĠÙħØ§ÙĦÚ©": 2810,
      "ĠÙħÚĺÚ¯Ø§ÙĨ": 2811,
      "ĠØ±Ø¨Ø§ÙĨÛĮ": 2812,
      "ĠØ§ÙĦØ¹ÙĦÛĮ": 2813,
      "ĠÙ¾ÙĦ": 2814,
      "ĠÙ¾Ø§Ø¯": 2815,
      "Ø«ÙĦ": 2816,
      "ĠÙħØµØ¨Ø§ØŃ": 2817,
      "ĠØ¨ÙĦÙĨØ¯": 2818,
      "ĠØ¯Ø§ÙĪØ±ÛĮ": 2819,
      "ĠÙħÙĨØªØ¸": 2820,
      "ĠØ¨ØŃØ±Ø§ÙĨ": 2821,
      "ĠØ³Ø§Ø®ØªØ§Ø±": 2822,
      "ĠÙĤØ±Ø§Ø±Ø¯Ø§Ø¯": 2823,
      "ĠÙħÛĮØ«Ùħ": 2824,
      "ÙħØ´": 2825,
      "ĠÙħÙĨÛĮ": 2826,
      "ĠØ¨ÙĤ": 2827,
      "Ú¯Ø²": 2828,
      "ĠØ¯ÙĨÛĮ": 2829,
      "ĠØªØ´ÛĮ": 2830,
      "ĠØ³ÙĨØ¬": 2831,
      "ĠÙħØŃØ¨": 2832,
      "ĠÙħØŃÙħØ¯Ø¹ÙĦÛĮ": 2833,
      "ĠÚ¯ÙĪØ´": 2834,
      "ĠØ³ÛĮØ¯Ùĩ": 2835,
      "ĠÚ¯Ø²ÛĮØ¯": 2836,
      "Ø®ÙĪØ§ÙĨÛĮ": 2837,
      "ĠØ§Ø³ÙģÙĨØ¯ÛĮ": 2838,
      "ĠÙħØŃØ¨ÙĪØ¨Ùĩ": 2839,
      "ÙĪÙĩØ§ÛĮ": 2840,
      "ÙĤØª": 2841,
      "ĠÙħØ¬ÙĦÙĩ": 2842,
      "ĠÛ¸": 2843,
      "ĠØºÙĦØ§ÙħÛĮ": 2844,
      "ĠÙħØ¸ÙģØ±ÛĮ": 2845,
      "Ù¾ÙĨØ§Ùĩ": 2846,
      "ĠØ±Ø§Ø´": 2847,
      "ĠØ§ÙĦØŃØ³ÛĮÙĨÛĮ": 2848,
      "ĠØ¢Ø´": 2849,
      "ĠØ²Ø§Ø¯": 2850,
      "ĠÙħØ³ÙĦÙħ": 2851,
      "ĠØ´ÙħØ³ÛĮ": 2852,
      "ĠØ®ÛĮØ§Ùħ": 2853,
      "ĠÙ¾ÙĨØ§ÙĩÛĮ": 2854,
      "ĠØ§ÙĦØ±Ø³": 2855,
      "Ø§ÙĦØ¹Ø§Ø¨Ø¯ÛĮÙĨ": 2856,
      "ĠÙĨÛĮÙĦÙĪÙģØ±": 2857,
      "ĠØªØ®": 2858,
      "ĠØªØ§Ø¬ÛĮ": 2859,
      "Ù¾Ø§ÛĮ": 2860,
      "ĠÙģÙĦ": 2861,
      "ĠØªØŃØ±": 2862,
      "ĠÙĦÙĪ": 2863,
      "Ú©Ø±Ø¯ÛĮ": 2864,
      "ĠØ±ÛĮØ´Ùĩ": 2865,
      "ĠÙĨÙĩØ§Ø¯": 2866,
      "ĠØ¨Ø§ÙĨÚ©": 2867,
      "ĠØ¨ØŃØ«": 2868,
      "ĠØ·Ø¨ÛĮØ¹ÛĮ": 2869,
      "ĠÙģØ±Ø§ÙĨØ³Ùĩ": 2870,
      "Ø²ÙĨ": 2871,
      "ĠØ§ÙĦÙģØª": 2872,
      "ĠØ¢ÙĪØ§Ø²": 2873,
      "ĠØ§ÙĦÙħÙĦÚ©": 2874,
      "ĠÙ¾ÙĨØ¬Ø§Ùĩ": 2875,
      "ĠØ®Ø³Ø±ÙĪØ´": 2876,
      "ĠØ§Ø´Ú©ÙĪØ±ÛĮ": 2877,
      "ĠØ®ÙĦØ§ØµÙĩ": 2878,
      "ÙĪØ¨ÛĮ": 2879,
      "ĠØªÙĪØ±": 2880,
      "ĠØ´ÙĪØ´": 2881,
      "ĠØ§ÙĦØ¨": 2882,
      "ĠÙ¾Ø¯ÛĮØ¯": 2883,
      "ĠØ¬Ø±ÛĮØ§ÙĨ": 2884,
      "ĠØ¢Ø¯Ùħ": 2885,
      "ĠÙĩØ±Ùħ": 2886,
      "ĠØ¨ÙĩÙĨØ§Ùħ": 2887,
      "Ø§ØŃÙħØ¯": 2888,
      "ĠØ§ÙģÚ©Ø§Ø±": 2889,
      "ĠØ§ÙĦÙħØ¹": 2890,
      "ĠØŃÙħÛĮØ¯Ø±Ø¶Ø§": 2891,
      "ĠÙĨÙĪØ±ÙĪØ²": 2892,
      "ĠØ³Ø¨Ú©": 2893,
      "ĠØµÙĨØ¹Øª": 2894,
      "ĠÛĮØ²Ø¯Ø§ÙĨÛĮ": 2895,
      "ĠØ°Ø¨ÛĮØŃ": 2896,
      "Ø§ÙĩØ¯ÛĮ": 2897,
      "ĠØ®ÙĪØ²": 2898,
      "Ø§Ø¨Øª": 2899,
      "ĠÙģØ±Ø²Ø§Ø¯": 2900,
      "ĠØ´Ú©ÙĪÙĩ": 2901,
      "ÙĤØ¯": 2902,
      "ĠØ³ÙħÛĮ": 2903,
      "ĠÚ©Ø¨Ø±ÛĮ": 2904,
      "ĠØ´Ø§ÛĮ": 2905,
      "ĠØ±Ø¨ÛĮ": 2906,
      "ĠØ¢Ø±ÛĮØ§ÙĨ": 2907,
      "ĠØ·Ùĩ": 2908,
      "ĠØ·Ø±ÛĮ": 2909,
      "ØªÛĮØ§ÙĨ": 2910,
      "ĠØ¯Ø§ÙĨØ´ÙĨØ§ÙħÙĩ": 2911,
      "ĠØ¨ÛĮÙĩ": 2912,
      "ĠÚ©ÛĮÙĪØ§ÙĨ": 2913,
      "ĠØ¢Ø±Ø§Ùħ": 2914,
      "ĠÚ¯ÙģØªÙħØ§ÙĨ": 2915,
      "ĠØ¯ÙĩÙĤØ§ÙĨ": 2916,
      "ĠØ¬Ø§ÙħØ¹ÙĩØ´ÙĨØ§Ø³ÛĮ": 2917,
      "ĠØ§Ø±Ø¯Ú©Ø§ÙĨÛĮ": 2918,
      "ÙĤØ§ÛĮØ¯": 2919,
      "ĠØ¨ÙĦÙĪÚĨ": 2920,
      "Ø¬ÙħÙĩÙĪØ±ÛĮ": 2921,
      "ĠÙħØ§Ø¬": 2922,
      "ØĮ.": 2923,
      "Ø³Ø§Ø±": 2924,
      "ĠÙ¾Ø§ÙĨ": 2925,
      "ĠØ¨Ø±ÙĩØ§ÙĨ": 2926,
      "ĠÙħÙĩÙĨØ§Ø²": 2927,
      "ĠØ³ÛĮØ§ÙĪØ´": 2928,
      "ĠØ§Ø¯Ø§Ø±ÛĢ": 2929,
      "ĠØ§ØµÙĦØ§ØŃ": 2930,
      "ĠÚ©Ø±Ø¯ÛĮ": 2931,
      "ĠØºØ²ÙĨÙĪÛĮ": 2932,
      "ĠÙĨØ³Ø®ÛĢ": 2933,
      "ĠØ¹Ø¨Ø¯Ø§ÙĦØŃØ³ÛĮÙĨ": 2934,
      "ÙĪÙĦÛĮØª": 2935,
      "ĠØ¨Ø±ÙĨØ§ÙħÙĩØ±ÛĮØ²ÛĮ": 2936,
      "ĠØ±ÙĨØ¬Ø¨Ø±": 2937,
      "ĠØ§Ø³ØŃØ§ÙĤ": 2938,
      "ĠÚ¯ÙĪØ¯Ø±Ø²ÛĮ": 2939,
      "Ø¯Ú©": 2940,
      "ÙģØ¶ÙĦ": 2941,
      "Ø¨Ø®Øª": 2942,
      "Ú¯Ø§ÙĨÙĩ": 2943,
      "ĠØ´Ø¯": 2944,
      "ĠØ¢Ø´ØªÛĮ": 2945,
      "ĠØ¨ÙĩØ§Ø¦ÛĮ": 2946,
      "ĠÙģØ±ÙĪØ²": 2947,
      "ĠÙħØ¬ÙĦ": 2948,
      "ĠØ²ÙĨØ¯Ø§ÙĨ": 2949,
      "ĠÙħØ¯Ø§Ø±Ú©": 2950,
      "ĠØ³ÙĦÛĮÙħÛĮ": 2951,
      "ĠØªÙĤÙĪÛĮ": 2952,
      "ĠØ§ÙĦØ±ØŃÛĮÙħ": 2953,
      "ĠØ¹Ø§Ø´ÙĤØ§ÙĨÙĩ": 2954,
      "ĠØªØ§Ø±": 2955,
      "ÛĮÙĨØ¯": 2956,
      "Ø§ÙĦØ«": 2957,
      "Ø·ÛĮ": 2958,
      "Ø§Ø¦Ø±": 2959,
      "ĠØ§ØŃÛĮ": 2960,
      "Ú¯Ø§ÙĩÛĮ": 2961,
      "ĠØ³Ø±ÙĪØ±": 2962,
      "Ø´ÙĨØ³ÛĮ": 2963,
      "ĠØ§ÙħÛĮØ±Ø§ÙĦÙħ": 2964,
      "ĠØµØ¯ÛĮÙĤÛĮ": 2965,
      "ĠØ¢ÙģØ±ÛĮÙĨØ´": 2966,
      "ĠØ§Ø¦": 2967,
      "ĠØ±Ùģ": 2968,
      "ĠØªØ±Ø¨ÛĮØªÛĮ": 2969,
      "ĠÙĦÙĨÚ¯": 2970,
      "ÛĮØ±ÛĮÙĩ": 2971,
      "ÙħÙĨØ¯Ø§ÙĨ": 2972,
      "ĠÙĤÙĩØ±ÙħØ§ÙĨ": 2973,
      "ĠÙĦØ±Ø³ØªØ§ÙĨ": 2974,
      "ĠÙĨÛĮØ´Ø§Ø¨ÙĪØ±ÛĮ": 2975,
      "ĠØ¨Ø±ÛĮ": 2976,
      "Ø§ÙħØª": 2977,
      "ĠØ´Ø¨Ùĩ": 2978,
      "ĠØ±Ø§Ø³Øª": 2979,
      "ĠØ¯Ø±ÙĪÛĮØ´": 2980,
      "Ø§Ø¨ÙĤ": 2981,
      "ĠØªÙĪØŃÛĮØ¯": 2982,
      "ĠÙĩØ´ØªÙħ": 2983,
      "ĠØªØ´ÛĮØ¹": 2984,
      "ÙĩÙĩ": 2985,
      "ĠØ³Ø¯Ùĩ": 2986,
      "Ø¬ÙĨ": 2987,
      "ĠØ®Ø¯ÛĮ": 2988,
      "ĠÙĩØ³Øª": 2989,
      "ĠØªØ±Ø§Ø¨ÛĮ": 2990,
      "ÙĪÙħÙĨ": 2991,
      "ÙģØ±Ø§ÙĨØ³": 2992,
      "ÛĮÙĦØ§": 2993,
      "ĠÙħÛĮØªØ±Ø§": 2994,
      "ĠØ¹ÙħÙĦ": 2995,
      "ĠÙħØ±ØªØ¶": 2996,
      "ĠØ«Ø¨Øª": 2997,
      "ĠØ§Ø¨ÙĪØ§ÙĦÙĤØ§Ø³Ùħ": 2998,
      "ĠÙħØ³ÛĮØŃÛĮ": 2999,
      "ĠØ¯ÛĮØ¨Ø§ÚĨÙĩ": 3000,
      "ĠØ¨ÙĨÚ¯": 3001,
      "ĠÙĨØ§Ø¯Ø±ÛĮ": 3002,
      "ĠØ¹ÙĤØ§ÛĮØ¯": 3003,
      "ĠØ®Ùħ": 3004,
      "Ø³ÛĮÙĪÙĨ": 3005,
      "ĠØµÙĦØ§ØŃ": 3006,
      "ĠØ¹Ø¨Ø¯ÛĮ": 3007,
      "ĠØ§Ø¯ÛĮØ¨": 3008,
      "ĠØ§ÙĦÙħØ³ÙĦÙħÛĮÙĨ": 3009,
      "ĠØ¨ÛĮÚ¯ÛĮ": 3010,
      "ĠÚ©Ø´Ùģ": 3011,
      "ĠØ¯ÙĪÙĦØªÛĮ": 3012,
      "ĠÙħØ°ÙĩØ¨ÛĮ": 3013,
      "ĠØ¨Ø±ÙĪØ¬Ø±Ø¯ÛĮ": 3014,
      "ØªØŃ": 3015,
      "ĠØ¨Ø³ÛĮ": 3016,
      "ØºØ±ÛĮ": 3017,
      "ĠØ¯Ú©Øª": 3018,
      "ĠØªØµÙĪÙģ": 3019,
      "ĠØ¶Ø±": 3020,
      "ĠØ¯ÛĮÙ¾ÙĦÙħ": 3021,
      "ĠØ®Ø³Ø±ÙĪØ´Ø§ÙĩÛĮ": 3022,
      "\"--": 3023,
      "ĠØ¨ØªØµØŃÛĮØŃ": 3024,
      "ĠØªÙĪÙĦ": 3025,
      "ĠØ±ÙģÛĮØ¹": 3026,
      "ĠØ§ÙĦÙĦ": 3027,
      "ĠÙ¾ÛĮØ¯": 3028,
      "ĠÙĤÙĪÙĩ": 3029,
      "Ø·Ø±": 3030,
      "ĠÙħÙĨÛĮØ±": 3031,
      "ĠØ§ÙĨØªØ´Ø§Ø±": 3032,
      "ĠØ±Ø³ÙĪÙĦÛĮ": 3033,
      "Ø³ÙĨØª": 3034,
      "ĠØ¯Ø§Ø¯Ú¯": 3035,
      "ĠÙħÙģØ§ÙĩÛĮÙħ": 3036,
      "Ø®ÙĦØµ": 3037,
      "ĠØ¨Ø§ÛĮ": 3038,
      "ĠØ¨ÙĪØ´": 3039,
      "ĠÚ©ÙĪØ´": 3040,
      "ĠÚ©ÙĦÙħ": 3041,
      "ĠØ¢Ø®Ø±": 3042,
      "ĠØ®ØµÙĪ": 3043,
      "ĠÙħÙĤØ§Ø¨ÙĦÙĩ": 3044,
      "ĠØªØ±ØªÛĮØ¨": 3045,
      "ÙħÙĨØ´": 3046,
      "ĠØ£ØŃÙħØ¯": 3047,
      "ĠØ³ÛĮÙĨÙħØ§": 3048,
      "ĠØ¹Ø³Ú¯Ø±ÛĮ": 3049,
      "ĠÚ©ÙħÛĮØªÙĩ": 3050,
      "ĠØ²ÙħÛĮÙĨÙĩ": 3051,
      "ĠØµØ§Ø¨Ø±ÛĮ": 3052,
      "ĠÙħØŃØ±": 3053,
      "Ø§ÙĩÛĮØ±": 3054,
      "ĠÙĩØ§": 3055,
      "ĠØµØ±": 3056,
      "ĠÙħØ±Ø¨ÙĪØ·": 3057,
      "ĠÙģØ±ÙĩÙĨÚ¯Ø³ØªØ§ÙĨ": 3058,
      "ĠØ®Ø§ÙĨØ¯Ø§ÙĨ": 3059,
      "ĠÛĮØ²Ø¯Ø§ÙĨ": 3060,
      "ĠÚ©ÙĨÙģØ±Ø§ÙĨØ³": 3061,
      "ĠÙħØµØ·ÙģÙĪÛĮ": 3062,
      "ĠÙħÙĪØ±": 3063,
      "Ú©Ø§Øª": 3064,
      "Ø¨Ø§Ø±ÛĮ": 3065,
      "Ø¨Ø¯ÛĮ": 3066,
      "ĠÙĨØ¬ÛĮØ¨": 3067,
      "ĠØ´Ø§Ø®": 3068,
      "ĠØ§ÙĦØªÙĪ": 3069,
      "ĠØ®Ø´": 3070,
      "Ø¶ÙĦÛĮ": 3071,
      "ĠÙĩØ³ØªÛĮ": 3072,
      "ĠÙģØ±ØŃ": 3073,
      "ĠÙĦØ´": 3074,
      "ĠÙĦØ§Ùĩ": 3075,
      "ÙĤÙĪØ·": 3076,
      "ĠÙĦÛĮÙĦÛĮ": 3077,
      "ĠØ¢ÙĩÙĨÚ¯": 3078,
      "ĠØªÙĪØµÛĮÙģÛĮ": 3079,
      "Ø¤ÙħÙĨÛĮÙĨ": 3080,
      "ÙĪÙĤÛĮ": 3081,
      "ÙĪÙĨØ¯ÛĮ": 3082,
      "ĠÙħÙħ": 3083,
      "Ø´Ø§Ø±": 3084,
      "ĠØ¨Ø¹": 3085,
      "ĠÚ©Ø³Ø±": 3086,
      "ĠØ´Ø´Ùħ": 3087,
      "ĠØ¨ÙĩØ´Øª": 3088,
      "ĠØ¨Ø±Ø®ÛĮ": 3089,
      "Ú¯Ø±Ø§ÙģÛĮ": 3090,
      "Ø´ÙĨØ§Ø®ØªÛĮ": 3091,
      "ĠÛ¶": 3092,
      "ĠØ´ÙĩÙĦØ§": 3093,
      "ĠÙĨÙĤØ´Ùĩ": 3094,
      "ĠÛ±Û³Û³Û": 3095,
      "ĠØ¨Ø§Ø²Ø±Ú¯Ø§ÙĨÛĮ": 3096,
      "ĠØ®ÙĪØ§Ø±": 3097,
      "ĠÚĨÙĩØ±Ùĩ": 3098,
      "ÙħØ§ÙĦ": 3099,
      "ĠØ³ÙĤÙĪØ·": 3100,
      "ĠØ®ÙħÛĮÙĨÛĮ": 3101,
      "ĠÙħÙĨØ´ÛĮ": 3102,
      "Ø¢ÙĪØ±ÛĮ": 3103,
      "Ø²ÛĮÙĩ": 3104,
      "ĠØ§ÙĦÙħØ¬ÛĮØ¯": 3105,
      "ĠØ§Ø±Ùħ": 3106,
      "ĠØ®Ø§Ø·Ø±Ùĩ": 3107,
      "ĠØ¶ÙħÛĮÙħÙĩ": 3108,
      "ÙĨØ§ÙħÙĩÛĮ": 3109,
      "ĠÙħØ³ØªÙĨØ¯": 3110,
      "ĠA": 3111,
      "Ø§ÙģØª": 3112,
      "ĠÙħØ§ÙĩÛĮ": 3113,
      "ĠØ¬Ø§": 3114,
      "Ø§Ø¨Ø§ÙĨ": 3115,
      "ĠÙĨÙĪÛĮØ¯": 3116,
      "ĠØ¢Ø±ÙħØ§ÙĨ": 3117,
      "ĠÙĨØ¨ÙĪÛĮ": 3118,
      "ĠØ¯Ø§Ø¦Ø±Ùĩ": 3119,
      "ĠÙħÙģØª": 3120,
      "Ø§ÙĨÛĢ": 3121,
      "ĠØ·ÙĩÙħ": 3122,
      "ĠØ§ÙĨØªØ´Ø§Ø±Ø§ØªÛĮ": 3123,
      "ĠÙĤØ±Ùĩ": 3124,
      "ĠÙħØµÙĦØŃ": 3125,
      "ĠØŃÙħØ§Ø³Ùĩ": 3126,
      "ĠÙĤØ§Ø¬Ø§Ø±ÛĮÙĩ": 3127,
      "ĠØ§Ø¹ØªÙħØ§Ø¯": 3128,
      "ĠÙĨØ§Øª": 3129,
      "Ø¬Ø§Ùħ": 3130,
      "ĠÚ©Ùģ": 3131,
      "ĠØŃØ±Ùģ": 3132,
      "ÙħÛĮØ§ÙĨ": 3133,
      "ĠØ§ÙħØ§ÙĨ": 3134,
      "ĠÙĦØ§ÙĦÙĩ": 3135,
      "Ø§Ø®ØªÙĩ": 3136,
      "ĠØ¯ÙĩÙĤØ§ÙĨÛĮ": 3137,
      "ĠØ³ØªØ§Ø±Ùĩ": 3138,
      "ĠÙħØ®ØªØ§Ø±ÛĮ": 3139,
      "ĠØªÙĪØ¶ÛĮØŃØ§Øª": 3140,
      "ĠÙĤÙĪØ§Ø¹Ø¯": 3141,
      "Ú©ØªØ§Ø¨": 3142,
      "ĠØ¯Ø¨": 3143,
      "ĠÙģÙĨ": 3144,
      "ĠÙģØ³": 3145,
      "ĠÙħØŃÙĦÛĮ": 3146,
      "ĠØ³Ø±Ø§Ø¬": 3147,
      "ĠØ¢Ø±Ø²ÙĪ": 3148,
      "ĠÙĨÙħÙĪÙĨÙĩ": 3149,
      "ĠÙħÙĨØ¸ÙĪÙħÙĩ": 3150,
      "ĠØ®Ø§Ø±Ø¬": 3151,
      "ĠÙħØ·Ø¨ÙĪØ¹Ø§ØªÛĮ": 3152,
      "ĠØ§ÙĨØªØ®Ø§Ø¨Ø§Øª": 3153,
      "ĠØ±ÙĪØ³ØªØ§ÛĮÛĮ": 3154,
      "ÙħØ¬ÙħÙĪØ¹Ùĩ": 3155,
      "ĠØ¨Ùħ": 3156,
      "ĠØªØ§Ø±ÛĮ": 3157,
      "ĠØªØ§Ø²Ùĩ": 3158,
      "Ø§Ø¯ÙĨ": 3159,
      "ĠØ¯Ø±Ø®Øª": 3160,
      "ĠÙĤØ§Ø¯Ø±ÛĮ": 3161,
      "ĠØ²ÙĨØ¯Ùĩ": 3162,
      "ÙĪÙĩØ§Ø¨": 3163,
      "ĠÙĤØ±Ø¨Ø§ÙĨ": 3164,
      "ĠØ±Ø³Ø§ÙĨÙĩ": 3165,
      "ĠÙĨÙĪØ¨Øª": 3166,
      "ĠØ§Ø¬Ø±Ø§ÛĮ": 3167,
      "Ø²ÙĪØ§Ø±ÛĮ": 3168,
      "ĠØªØ´Ú©ÛĮÙĦ": 3169,
      "ÙĪÙĦÙĪÚĺÛĮ": 3170,
      "Ø±ÛĢ": 3171,
      "Ú©Ø³": 3172,
      "ĠØ¨Ø§Ùħ": 3173,
      "ĠÙĨØ³ÛĮÙħ": 3174,
      "Ø§ÛĮØ¨": 3175,
      "ÙĦÛĮÙħ": 3176,
      "ÙĦÙĩÛĮ": 3177,
      "ĠÙħØ¹ÙĦÙħ": 3178,
      "ĠØ³ÛĮØ§Ùħ": 3179,
      "ĠÛ±Û³": 3180,
      "ĠØ³Ø¹Ø¯": 3181,
      "Ø®Ø´Ø§ÙĨ": 3182,
      "ĠØ¯ÙĩÙĦÙĪÛĮ": 3183,
      "ĠØ±ÛĮØŃ": 3184,
      "ĠÙĨØ´Ø±ÛĮÙĩ": 3185,
      "ĠØ¹Ø§Ø¯ÙĦ": 3186,
      "ĠÚ¯Ø²ÛĮÙĨØ´": 3187,
      "ĠØ¯Ø´Øª": 3188,
      "ĠÙĨÙģØ³": 3189,
      "ĠØ±Ø§Ø¯ÛĮ": 3190,
      "ĠÙĩÙħÛĮ": 3191,
      "ĠØ´ÙĩØ§Ø¯Øª": 3192,
      "ĠØ³Ø¨Ø²ÙĪØ§Ø±ÛĮ": 3193,
      "ĠÙĪÛĮÚĺ": 3194,
      "ĠÙĤÙĦÙħØ±ÙĪ": 3195,
      "ĠØ³ÙħÛĮØ±Ø§": 3196,
      "ĠØ¬Ø´ÙĨÙĪØ§Ø±Ùĩ": 3197,
      "ĠØ²Ø§Ø±Ø¹ÛĮ": 3198,
      "ĠØ®Ø±Ø¯Ø§Ø¯": 3199,
      "Ø²ÙħØ§ÙĨ": 3200,
      "ĠÚ©Ø§ÙĪ": 3201,
      "ĠØŃØ§ÙĦ": 3202,
      "ĠÙģÙĨØ§": 3203,
      "ĠÙĤØ§Ø¦Ùħ": 3204,
      "ĠØ§Ø³Ø§Ø·": 3205,
      "ĠÙħÙĤØ§ÛĮ": 3206,
      "Ø«Ø§ÙĦ": 3207,
      "ĠÙħØ³Ú©ÙĨ": 3208,
      "ĠØ´ÙĩØ¨Ø§Ø²ÛĮ": 3209,
      "ĠØ¬ÙħØ¹Ùĩ": 3210,
      "ĠØŃÙħÛĮØ¯ÛĮ": 3211,
      "ĠÙħØ´ÙĩÙĪØ±": 3212,
      "ĠØ±Ø§ÙħÛĮÙĨ": 3213,
      "ĠÙ¾Ø§Ø±ÛĮØ²ÛĮ": 3214,
      "ĠØ¯ÙĨÛĮØ§ÛĮ": 3215,
      "ÙĦØª": 3216,
      "ÙģØ§Ø±Ø³ÛĮ": 3217,
      "ĠÙĨØ§Ú¯": 3218,
      "ĠØ®ÙĪØ§Ùĩ": 3219,
      "ĠØ§ÙĪÙĦÛĮ": 3220,
      "ĠØ´Ú©ÙĪÙĩÛĮ": 3221,
      "Û±Û³Û¸Û": 3222,
      "ĠØ¬ÙĨÚ¯ÙĦ": 3223,
      "ĠØ²ÛĮØ¨Ø§": 3224,
      "ĠØ¹Ø§Ø´ÙĪØ±Ø§": 3225,
      "ĠÙĨÙģÛĮØ³ÛĮ": 3226,
      "Ø±Ø§Ø¦ÛĮ": 3227,
      "ĠÙħØ¨": 3228,
      "ĠÙĪØ«": 3229,
      "ÙĦÛĮØª": 3230,
      "Ø§Ø¯Ø«": 3231,
      "ĠØŃÚ©ÛĮ": 3232,
      "Ø¢ÙĪØ±ÙĨØ¯Ùĩ": 3233,
      "Û±Û²Û": 3234,
      "ĠÙ¾ÚĺÙĪÙĩØ´Ú©Ø¯ÛĢ": 3235,
      "ĠÚ¯Ø±Ø¯ÙĪØ±ÛĮ": 3236,
      "ĠÚ¯Ø±Ø¯ÙĪØ±ÙĨØ¯Ùĩ": 3237,
      "ĠØ¢Ø±Ø§ÛĮ": 3238,
      "ĠØ§Ú©Ø§Ø¯ÙħÛĮ": 3239,
      "ĠØ«Ø§ÙĦØ«": 3240,
      "ĠÚ©ÙĦØ§ÙĨ": 3241,
      "ĠØ§ÙĦØŃÙħÛĮØ¯": 3242,
      "ĠØ¬ÙĨÙĪØ¨": 3243,
      "ĠØªÙĪØ³Ø¹ÛĢ": 3244,
      "ĠØ³Ù¾Ùĩ": 3245,
      "ĠØ³Ù¾ÙĩØ±ÛĮ": 3246,
      "ĠÙģØªØŃÛĮ": 3247,
      "ĠØ¯ÙĪÙħÛĮÙĨ": 3248,
      "ĠØ§Ø³ØªØ±Ø§ØªÚĺÛĮÚ©": 3249,
      "ĠÙħØ§ÙĨØ¯": 3250,
      "ØªÙĩÛĮÙĩ": 3251,
      "Ø´ÛĮØ±ÛĮ": 3252,
      "ÛĮØ±Ø§Øª": 3253,
      "ĠÚ©Ø§Ø±ÛĮ": 3254,
      "ĠÙ¾ÙĨÙĩ": 3255,
      "ĠØ¢Ø±ÛĮ": 3256,
      "ĠØ§ÙĨØ³Øª": 3257,
      "ĠØ§Ø¨Ø±ÛĮ": 3258,
      "ĠÛĮÚ©ØµØ¯": 3259,
      "ĠÙħÙĦØª": 3260,
      "ĠØ¢ÛĮÛĮÙĨÙĩ": 3261,
      "ĠØ±ÙĪÛĮØ§": 3262,
      "Û±Û³ÛµÛ": 3263,
      "ĠØ¨ÙĦØ®": 3264,
      "ĠÙ¾ÙĨØ§Ùĩ": 3265,
      "ĠÙħÙģØ§Ø®Ø±": 3266,
      "ĠØ±ÙħØ¶Ø§ÙĨÛĮ": 3267,
      "ĠØ¹Ø«ÙħØ§ÙĨÛĮ": 3268,
      "ĠÙ¾Ø±Ø³Ø´": 3269,
      "ĠØ±Ø¨Ø§Ø¹ÛĮØ§Øª": 3270,
      "ĠØªØ¦Ø§ØªØ±": 3271,
      "ĠØ¯Ø§Ø¯Ú¯Ø³ØªØ±ÛĮ": 3272,
      "ĠS": 3273,
      "ĠØ¹ÛĮÙĨ": 3274,
      "ĠÚ©Ø§ÙĦ": 3275,
      "ØµØª": 3276,
      "Ø¶Ùĩ": 3277,
      "ĠÙĤØ§Ø¦": 3278,
      "ĠÙĩÙĦ": 3279,
      "ĠÙ¾ÚĺÙĪÙĩÛĮ": 3280,
      "ĠÙħØ¬Ø§ÙĩØ¯": 3281,
      "ĠÛ·": 3282,
      "ĠØ§Ø±Ø³": 3283,
      "ĠÚ©Ø±Ùħ": 3284,
      "ĠØ´ÙĩÛĮØ¯ÛĮ": 3285,
      "ĠÛ±Û¹Û·Û": 3286,
      "ĠØ·Ø§ÙĦØ¨": 3287,
      "ĠÛĮØ¹ÙĤÙĪØ¨ÛĮ": 3288,
      "ĠØ·ÛĮØ¨Ùĩ": 3289,
      "ĠØ´ÙĪØ´ØªØ±ÛĮ": 3290,
      "ĠØ®ÙĪØ²Ø³ØªØ§ÙĨ": 3291,
      "ĠØ¨ÛĮÙĩÙĤÛĮ": 3292,
      "ĠØ¢Ø´ØªÛĮØ§ÙĨÛĮ": 3293,
      "\"ØĽ": 3294,
      "Ø¯ÙģØªØ±": 3295,
      "ĠØ¨Ø§Ø±ÛĢ": 3296,
      "ĠØ³ÙĪÛĮ": 3297,
      "ĠÙģØ¹Ø§ÙĦÛĮ": 3298,
      "ĠÙĤÙĩ": 3299,
      "ĠØ¨ÙĩØ¨ÙĩØ§ÙĨÛĮ": 3300,
      "ĠØµÛĮ": 3301,
      "ĠØ¨Ø§ÙĪØ±": 3302,
      "Ø§Ø¬ØªÙħØ§Ø¹ÛĮ": 3303,
      "ĠÙħØ¬ÙħÙĪØ¹ÙĩÛĮ": 3304,
      "ĠÙħÙĦÙĦ": 3305,
      "ĠÚ¯ÛĮÙĦØ§ÙĨÛĮ": 3306,
      "ĠØ§Ø¨ÙĪØ§ÙĦÙģØ¶ÙĦ": 3307,
      "Ø¹ÙħÙĪÙħÛĮ": 3308,
      "ĠØ§Ø´Ø±ÙģÛĮ": 3309,
      "an": 3310,
      "Ú¯ÙĦ": 3311,
      "Ø§ÙħØ§ÙĨ": 3312,
      "Ø§Ø³Ø¨": 3313,
      "ĠØ¬Ø±Ø§ÛĮ": 3314,
      "ĠÙĤØ¨ÙĦ": 3315,
      "ÙĨÛĮÙĩ": 3316,
      "ĠØ·ÙĦÙĪ": 3317,
      "ĠÙĦØ·ÙģÛĮ": 3318,
      "ĠØ³Ø±Ø§ÛĮ": 3319,
      "ĠÙħÙĪØ§Ø¯": 3320,
      "ĠØ³ÙĦÙħÛĮ": 3321,
      "ĠØ´Ú©ÙĦ": 3322,
      "ĠØºØ²Ø§ÙĦÛĮ": 3323,
      "ĠØ³ÛĮÙħØ§": 3324,
      "ĠØ³ÙĦØ³ÙĦÛĢ": 3325,
      "ĠØ¬ÙħØ´ÛĮØ¯ÛĮ": 3326,
      "ĠÙħØ¨Ø§Ø±Ø²Ùĩ": 3327,
      "ĠÙĨØ§Ø¸Ø±": 3328,
      "ĠØ§Ø³Ú©ÙĨØ¯Ø±": 3329,
      "ĠÙĪØ·": 3330,
      "Ø¹ÙĪØ¯": 3331,
      "Ø§ÛĮØ±ÛĮ": 3332,
      "ĠÚ©Ø§ÙħÛĮ": 3333,
      "ĠØ§ÙĦØ§ÙĨ": 3334,
      "ĠÙ¾ÙĪØ±ÛĮ": 3335,
      "ĠÛĮØº": 3336,
      "ØªÛĮÚ©": 3337,
      "Ø§Ú©Ø±ÛĮ": 3338,
      "ĠÛ¶Û": 3339,
      "Ø§ÙĦÛĮØ³Ùħ": 3340,
      "ĠÙĨÙĤØ¯ÛĮ": 3341,
      "ĠØªÙĪÙģÛĮÙĤ": 3342,
      "Ø§ÙĪÙĦÛĮ": 3343,
      "ĠÙħØ´Ø§ÙĩÛĮØ±": 3344,
      "ĠØ®ÛĮØ§ÙĦ": 3345,
      "ÙĦÙĪØ§ÙĨ": 3346,
      "ØªØ¯ÙĪÛĮÙĨ": 3347,
      "ĠÙĨØ±": 3348,
      "ĠØ±ÙĤ": 3349,
      "Ø§ÙĦØŃ": 3350,
      "Ø®Ø·": 3351,
      "ĠØ²Ø§ÙĩØ¯ÛĮ": 3352,
      "ĠÙģØ±Ø³Øª": 3353,
      "ĠÙģØ±Ø§Ø²": 3354,
      "ĠØµÙħØ¯": 3355,
      "ĠØµÙģØ±ÛĮ": 3356,
      "Ø§Ø¯ÛĮØ«": 3357,
      "ØªØ´Ø§Ø±Ø§Øª": 3358,
      "ĠØªØ£Ø«ÛĮØ±": 3359,
      "Ø°Ø±ÛĮ": 3360,
      "ĠØ§ÙħØ§ÙħØª": 3361,
      "ĠØ°ÙĪ": 3362,
      "ĠØ¨Ø®Ø´ÛĮ": 3363,
      "ĠÙħØ¯Ø±Ø³ÛĮ": 3364,
      "ĠØ¬ØºØ±Ø§ÙģÛĮØ§ÛĮÛĮ": 3365,
      "ĠØ¨ÛĮØ¯Ø§Ø±ÛĮ": 3366,
      "ĠØ¹Ø§ÙħÙĦÛĮ": 3367,
      "ĠI": 3368,
      "ĠÙĨØ¯": 3369,
      "ÙħØ§ÙĨÙĩ": 3370,
      "ĠÙħÙĩÛĮÙĨ": 3371,
      "ÙĪÙħØ±": 3372,
      "Ø§ÙĤØ¨": 3373,
      "ĠØ´Ø§ÙĩÙĨØ´": 3374,
      "Ú©Ø±Ø§ÙĨ": 3375,
      "ĠÙĨØ³ÙĦ": 3376,
      "ĠØ¨Ø§Ø²ÙĨÙĪÛĮØ³ÛĮ": 3377,
      "ĠØ¬Ø¹ÙģØ±ÛĮØ§ÙĨ": 3378,
      "ĠØ¨Ø§ÙĨÙĪ": 3379,
      "ĠÛ±Û³ÛµÛ·": 3380,
      "ĠÙĨÙħØ§ÛĮØ´Ú¯Ø§Ùĩ": 3381,
      "ĠÙģÙĨØ§ÙĪØ±ÛĮ": 3382,
      "ÙħÙĪ": 3383,
      "Ú©Ø³ØªØ§ÙĨ": 3384,
      "ĠØ¨Øº": 3385,
      "ĠØ¯Ø±Ø¯": 3386,
      "Ø§Ø¬Ø¹": 3387,
      "ĠÙħÙĪØ¬ÙĪØ¯": 3388,
      "ÙĦØ³ÙĦ": 3389,
      "ÙħÙĨÙĩ": 3390,
      "ĠØŃØ¬Ø§Ø²ÛĮ": 3391,
      "ĠØ®Ø§ÙĦÙĤÛĮ": 3392,
      "ĠØªÛĮÙħÙĪØ±ÛĮ": 3393,
      "Ø¬ÙĦØ¯": 3394,
      "ĠØ¨Ø¯ÛĮØ¹": 3395,
      "ĠÙħØ¨Ø§Ø±Ø²Ø§Øª": 3396,
      "ĠÙĨØ´Ø±ÛĮØ§Øª": 3397,
      "ĠØ§ÙĨØ³ØªÛĮØª": 3398,
      "ĠØ´Ø§ÙĩÙĨØ´Ø§ÙĩÛĮ": 3399,
      "Ø¯Ø§Ø´": 3400,
      "ĠÙħØ§ÙĦ": 3401,
      "ĠØ³ÙĪØ±": 3402,
      "Ø¬ÙĪÛĮ": 3403,
      "Ø®ØªÙĩ": 3404,
      "ĠØ§ÙĦØ§Ø®": 3405,
      "ÛĮØ¯Ø±": 3406,
      "Ø§Ø±ÛĮØ§ÙĨ": 3407,
      "ÚĨÛĢ": 3408,
      "ÙĩØ±Ø§": 3409,
      "Ø§Ø¦ÛĮÙĨÛĮ": 3410,
      "ĠØ³ÛĮØ§ØŃ": 3411,
      "ĠØ³Ø±ÙĪÛĮØ±Ø§Ø³ØªØ§Ø±": 3412,
      "ĠØ±Ø¬Ø§ÙĦ": 3413,
      "ÙħØ±ÙĤ": 3414,
      "ĠÙħÙĨØ·ÙĤÙĩ": 3415,
      "ĠÙĪØ²ÛĮØ±ÛĮ": 3416,
      "ĠÚ©ÙĪØ±Ø´": 3417,
      "ĠÙģØ±ÙĪØºÛĮ": 3418,
      "ĠØ§Ø±ÙĪÙ¾Ø§": 3419,
      "ĠØ¹Ø§ÙĦÙħÛĮ": 3420,
      "ĠÙħÙĨØ§Ø³Ø¨Øª": 3421,
      "ĠØ§Ø³Ø·ÙĪØ±Ùĩ": 3422,
      "ĠÙ¾ÛĮØ¯Ø§ÛĮØ´": 3423,
      "ĠØ®ØµÙĪØµÛĮ": 3424,
      "Ø´Ø§Ø³ÛĮ": 3425,
      "Ø¹Ø±Ø¨ÛĮ": 3426,
      "ĠØŃØ´": 3427,
      "ĠÙħØŃÙĦ": 3428,
      "ĠØ®Ø¨Ø±": 3429,
      "ØªØ±Ú©": 3430,
      "ĠØ¨Ø±Ú¯Ø±": 3431,
      "ĠØ³ÛĮØ³ØªØ§ÙĨ": 3432,
      "Ú¯Ø±Ø§ÛĮÛĮ": 3433,
      "ĠÛ¸Û": 3434,
      "ĠÙĨØ´Ø±Ø§Øª": 3435,
      "ĠØ±ÙĪØ²Ø¨Ùĩ": 3436,
      "ĠØ«Ø±ÛĮØ§": 3437,
      "ĠØªØ¬Ø§Ø±ÛĮ": 3438,
      "Ú¯Ø°Ø§Ø±ÛĮ": 3439,
      "ĠØ¨ÛĮØ¯ÙĦ": 3440,
      "ĠÙģØ§Ø¶ÙĦÛĮ": 3441,
      "ĠÙģØµÙĦÙĨØ§ÙħÙĩ": 3442,
      "ÙħØ±Ø¯": 3443,
      "ÙĨØ±": 3444,
      "Ø¨Ø¹": 3445,
      "Ú¯Ø´": 3446,
      "ĠÙĨØ§Ø¯": 3447,
      "ĠØ¹Ø§ÙħÙĩ": 3448,
      "ĠØ²ÙĨØ¬": 3449,
      "ĠØ²Ø¯Ú¯ÛĮ": 3450,
      "Ø¯ÛĮØ´": 3451,
      "ĠØ¹ÙĦØ§Ø¡": 3452,
      "ĠØ³Ø±ÙħØ§ÛĮÙĩ": 3453,
      "ĠÙħØ¤Ø³Ø³": 3454,
      "ĠØ±Ø¶ÙĪØ§ÙĨÛĮ": 3455,
      "ĠØ¯ÙĪØ§Ø²Ø¯Ùĩ": 3456,
      "ĠÙħÙĩØ¯ÙĪÛĮØª": 3457,
      "ÙĨÙĪØ´ØªÙĩ": 3458,
      "ĠÙĤØ¯ÛĮÙħÛĮ": 3459,
      "ĠÙħÙĩØ§Ø¬Ø±": 3460,
      "ĠØ³Ú©ÙĪØª": 3461,
      "ĠÙĨÚ¯Ø±Ø´ÛĮ": 3462,
      "Ø§Ø³Ø±Ø§Ø±": 3463,
      "ĠØ²ÙĨÚ¯": 3464,
      "ĠÚ¯ÙĨ": 3465,
      "ĠØ·ÙĩØ±Ø§ÙĨÛĮ": 3466,
      "Ø£Øª": 3467,
      "ĠØªØ¬ÙĦÛĮ": 3468,
      "ĠØ³ÙģØ±ÙĨØ§ÙħÛĢ": 3469,
      "ĠÙĩÙħÚ©Ø§Ø±Ø§ÙĨ": 3470,
      "ĠÙģØ¹Ø§ÙĦÛĮØª": 3471,
      "¸Û°": 3472,
      "Û²": 3473,
      "ÙħÛĢ": 3474,
      "Ø¯Ø¯": 3475,
      "ĠÙĨØªØ§ÛĮ": 3476,
      "ĠØ±Ø¯": 3477,
      "Ø§Ø³Ø¨ÛĮ": 3478,
      "ĠÙ¾ÙĪ": 3479,
      "Ø·Ø§ÙĦØ¨": 3480,
      "ĠØµØ¯Ø§": 3481,
      "ÙĪÙĩØ§": 3482,
      "ĠÙħÙĪÙĤÙĪ": 3483,
      "ÙģØ³ÙĪØ±": 3484,
      "ĠÙĩÛĮØ§Øª": 3485,
      "ĠØ¹Ø§Ø·ÙģÙĩ": 3486,
      "ØªØ£ÙĦÛĮÙģ": 3487,
      "ĠÙĨØªØ§ÛĮØ¬": 3488,
      "ÙĨØ³": 3489,
      "ĠÙħÛĮÙħ": 3490,
      "ĠÙĨÙĤÙĦ": 3491,
      "Ø§ÙħÙĨ": 3492,
      "ĠÙĦØ§Ø±ÛĮ": 3493,
      "Ú¯Ø±Ø¯ÛĮ": 3494,
      "ĠØŃÙħØ§ÛĮØª": 3495,
      "ĠØ¬ÙħØ¹ÛĮØª": 3496,
      "ĠØ§Ø®Ø¨Ø§Ø±": 3497,
      "ĠÙĨÙĪØ´ØªÙĩÛĮ": 3498,
      "ĠØ§ÙĦÙĩÙĩ": 3499,
      "ĠÙħØ®ØªØ§Ø±": 3500,
      "ĠÙĨÚ¯Ùĩ": 3501,
      "ĠØªÙģÚ©Ø±": 3502,
      "ĠØ¹ÙĨØ§ÛĮØª": 3503,
      "ĠØŃØ§ØªÙħÛĮ": 3504,
      "ÙĤØ§ÛĮÛĮ": 3505,
      "ĠØ¨Ú©Ø±": 3506,
      "ĠØ¯Ø´ØªÛĮ": 3507,
      "ĠØŃÙĤÛĮÙĤÛĮ": 3508,
      "ĠØ§ÙĦØŃÛĮ": 3509,
      "Ø³ØªØ§": 3510,
      "ĠØµØŃÛĮ": 3511,
      "ĠÙħÙĤØµ": 3512,
      "Ø¢ÙĪØ±": 3513,
      "ĠØŃØ³ÙĨØ²Ø§Ø¯Ùĩ": 3514,
      "ĠÙħØ¬ØªÙĩ": 3515,
      "ĠÚ©ÛĮÙħÛĮ": 3516,
      "ĠØ§Ø¹ØªÙĤ": 3517,
      "ĠØ§ÛĮØ§ÙĨ": 3518,
      "ĠØ°Ú©Ø±": 3519,
      "ĠØ³Ù¾Ø§Ùĩ": 3520,
      "ĠÚ©ÙħØ§ÙĦÛĮ": 3521,
      "ĠØ§ÙĨÚ¯ÙĦÛĮØ³": 3522,
      "ĠØ§Ø³Ú©ÙĨØ¯Ø±ÛĮ": 3523,
      "ĠØ³ÙħÙĨØ§ÙĨ": 3524,
      "ĠÙħÙĨØ´ÙĪØ±": 3525,
      "ĠÙĩØ²Ø§Ø±Ùĩ": 3526,
      "ĠØ¯ÙħÙĪÚ©Ø±Ø§Ø³ÛĮ": 3527,
      "ĠØ§ÙĦÙĤØ±Ø¢ÙĨ": 3528,
      "ĠÙĦÙĨÚ¯Ø±ÙĪØ¯ÛĮ": 3529,
      "ĠÙ¾ÙĨÙĩØ§ÙĨ": 3530,
      "Ø³ÙħÛĮ": 3531,
      "ĠÙģÙĨÛĮ": 3532,
      "ĠÚ¯Ø³ØªØ±": 3533,
      "Ø¸Ùĩ": 3534,
      "Ø§Ø¯ÙĩØ§": 3535,
      "ĠØ±ÙĪØ§ÛĮØ§Øª": 3536,
      "ĠØ´ÛĮÙĪØ§": 3537,
      "ĠØ§Ø®ØªØ±": 3538,
      "ĠØ¢ÙĤØ§ÛĮÛĮ": 3539,
      "ĠØ³ØªÙĪØ¯Ùĩ": 3540,
      "ĠÙħØ¹ØµÙĪÙħÛĮ": 3541,
      "ĠÙĪØ²ÛĮØ±": 3542,
      "ĠÚ©ÙĪØ±ÙĪØ´": 3543,
      "ĠØ§ÙĦØ±Ø³ÙĪÙĦ": 3544,
      "ĠÙħÙģÙĩ": 3545,
      "ĠØ³ÙĪØ¯": 3546,
      "Ø§ÙħÛĮÙĨ": 3547,
      "ĠØ´Ú©ÛĮ": 3548,
      "ĠÙģØ§Ø¦": 3549,
      "ĠØ±Ø²Ùħ": 3550,
      "ĠÙ¾ÙĨØ¯": 3551,
      "ĠØ®ÛĮØ±": 3552,
      "ÙĨÚ¯Ø§Ø±": 3553,
      "ÙĨÚ¯Ø±ÛĮ": 3554,
      "ÙĪÙĨØª": 3555,
      "Ø§Ø·ÙĤ": 3556,
      "Ø°Ø§": 3557,
      "ĠØ§ÙģØ³Ø§ÙĨ": 3558,
      "ĠØ±Ø³Ø§Ø¦ÙĦ": 3559,
      "ĠØ¹Ø¨Ø§Ø³Ø¹ÙĦÛĮ": 3560,
      "ĠÙĩÛĮÚĨ": 3561,
      "ĠØµØ¯Ø±Ø§": 3562,
      "ĠÙħØ®ØªØµØ±": 3563,
      "ĠØ¹Ø§Ø¨Ø¯ÛĮÙĨ": 3564,
      "ĠØ®Ø§ÙħÙĨÙĩ": 3565,
      "ĠØ¹ØµÙħØª": 3566,
      "ĠØ³ÛĮØ§ÙħÚ©": 3567,
      "Ø§ÙĨØªØ´Ø§Ø±Ø§Øª": 3568,
      "ĠØªØ¨ÛĮ": 3569,
      "ĠØªØ¨Ø§Ø±": 3570,
      "ĠØªÙħØ§Ùħ": 3571,
      "ĠØ´Ø§Ù¾ÙĪØ±": 3572,
      "ĠÙģØ±Ø´": 3573,
      "ĠÙģØ±Ø´Ø§Ø¯": 3574,
      "ĠØµÙģØ±": 3575,
      "ĠØµÙħØ¯ÛĮ": 3576,
      "ĠØºØ¯ÛĮØ±": 3577,
      "ĠÛ±Û³Û´Û": 3578,
      "ĠÚ¯ÙĦÙ¾Ø§ÛĮ": 3579,
      "ĠÙħØ´Ø§Ø±": 3580,
      "ĠØ³Ù¾ÙĩØ±": 3581,
      "ĠØµØ¯Ø§ÛĮ": 3582,
      "Ú¯Ø°Ø±": 3583,
      "ĠØ³Ø®ÙĨØ§ÙĨ": 3584,
      "ĠØµØ¨ØŃ": 3585,
      "ĠØ³Ø§Ø³Ø§ÙĨÛĮ": 3586,
      "ĠÙħÛĮÙĦØ§Ø¯": 3587,
      "ĠØ¬Ø³ØªØ§Ø±ÙĩØ§ÛĮÛĮ": 3588,
      "ĠØ¨ÙĨÚ¯Ø§Ùĩ": 3589,
      "ĠØ¨ÙĪØ´ÙĩØ±": 3590,
      "ÙĪØ¦ÛĮ": 3591,
      "ĠØªØ¯": 3592,
      "ĠÙĨØº": 3593,
      "ĠÙ¾Ø§Ø´": 3594,
      "Ø§ÙĩØ¯ÛĮÙĨ": 3595,
      "ÚĨØ§Ù¾": 3596,
      "ĠÚĨÙĦ": 3597,
      "ĠØºØ±ÛĮØ¨": 3598,
      "ĠÙĦØº": 3599,
      "ĠØ³ØªØ§Ø±": 3600,
      "ĠØ·Ø§ÙĦØ¨ÛĮ": 3601,
      "ĠÚ©ÙĦØ§ÙħÛĮ": 3602,
      "ĠØ¨Ø®ØªÛĮØ§Ø±": 3603,
      "ĠÙĨÛĮØ±ÙĪÛĮ": 3604,
      "ĠØ§ØªØŃØ§Ø¯": 3605,
      "ĠÙħØ·ÙĦÙĤ": 3606,
      "ĠÙħÙĨÛĮÚĺÙĩ": 3607,
      "ĠÙĩØ±ÙħØ²": 3608,
      "ĠØ³ÙħÛĮØ¹ÛĮ": 3609,
      "ĠØŃØ´ÙħØª": 3610,
      "µÛ°": 3611,
      "ĠÙĪØ³": 3612,
      "ĠÙĪØ¸": 3613,
      "ĠØªÛĮØ±": 3614,
      "ĠÙĨØ¯Ø§": 3615,
      "ĠØ±ÙĤÛĮÙĩ": 3616,
      "ĠØ§ÙĦØŃØ³": 3617,
      "ĠÙ¾ÙĪÛĮØ§": 3618,
      "Ø§ÙĩØ§": 3619,
      "ÙĩÛĮÛĮ": 3620,
      "ĠÙħÙĩÙħ": 3621,
      "Û±Û³": 3622,
      "ĠØ¹ÙĦÙĦ": 3623,
      "ĠØ§ÙĦÙħØµ": 3624,
      "Ø¯ÙĪØ§Ø¬": 3625,
      "ĠÛµÛ": 3626,
      "ĠÛ´Û": 3627,
      "Ø¨ÙĩØ´Øª": 3628,
      "ĠØ´ÛĮÙĪÙĩ": 3629,
      "ĠØ¢Ø°Ø±ÛĮ": 3630,
      "ĠÙħØªØ±Ø¬ÙħØ§ÙĨ": 3631,
      "ĠÙ¾ÙĩÙĦÙĪØ§ÙĨ": 3632,
      "ĠÙĩÙģØªÙħ": 3633,
      "ĠØªÙĦØ®ÛĮØµ": 3634,
      "ĠØ¨Ø´Ø±ÛĮ": 3635,
      "ĠØ¬Ø±Ø§ÛĮÙħ": 3636,
      "ĠØ¨ÛĮÙħ": 3637,
      "ĠÙĪØŃÛĮ": 3638,
      "ĠØªØ®Øª": 3639,
      "ĠØ§ÙĦØ§Ø´": 3640,
      "ĠØ¢ØµÙģ": 3641,
      "ĠÙĩØ¯ÛĮ": 3642,
      "ĠÙħØ±Ø¬Ø§ÙĨ": 3643,
      "Ġ(ØĽ": 3644,
      "ĠÚĨÚ¯": 3645,
      "ĠØºÙĨÛĮ": 3646,
      "ĠÙĦØŃ": 3647,
      "ĠÙħØ³Ø¤": 3648,
      "ĠØ¬ÙħØ¹": 3649,
      "ĠØ±ÙĪØ§ÙĨØ´ÙĨØ§Ø³ÛĮ": 3650,
      "ĠØ³ÙħÙĨØ§ÙĨÛĮ": 3651,
      "ĠÚ©ÙĦÙħØ§Øª": 3652,
      "ĠØŃÚ©ÛĮÙħÛĮ": 3653,
      "ĠÙĦÙĩ": 3654,
      "Ø¯Ø®Øª": 3655,
      "ĠØ³Ú©Ùĩ": 3656,
      "ĠÚ©ÙĪÛĮØ±": 3657,
      "ĠÙģÙĪ": 3658,
      "Ø§ÙĦØ¯ÙĪÙĦÙĩ": 3659,
      "ĠØ§ÙĦØ§Ø¹": 3660,
      "ĠØ§Ø²Ø¯ÙĪØ§Ø¬": 3661,
      "ĠÙħØ±Ø¬Ø¹": 3662,
      "Û±Û¹": 3663,
      "ĠÙĦØ§ÙĩÛĮ": 3664,
      "ĠÛ¹Û": 3665,
      "ĠØ´Ø§ÙĩÛĮ": 3666,
      "ĠØ§Ø¬ØªÙħ": 3667,
      "ĠØ¬Ø§ÙħØ¹ÛĢ": 3668,
      "ĠØ¢ÙĨÙĩØ§": 3669,
      "ĠÙĪÛĮØ±Ø§Ø³ØªØ§Ø±Ø§ÙĨ": 3670,
      "ĠØ³ÙĩØ§ÙħÛĮ": 3671,
      "ĠØ¨ØŃØ±": 3672,
      "ĠÙħÚ©Ø§Øª": 3673,
      "ĠØ¹Ø«ÙħØ§ÙĨ": 3674,
      "ĠØ±ÙĩÙĨÙħØ§": 3675,
      "ĠØ§ÙħÛĮØ±Ø§ÙĦÙħØ¤ÙħÙĨÛĮÙĨ": 3676,
      "ĠØ¯ÛĮÙ¾ÙĦÙħØ§Ø³ÛĮ": 3677,
      "ĠØ¨Ø±Ú¯Ø±ÙģØªÙĩ": 3678,
      "ÙħØ³": 3679,
      "ĠÙħÙĤÛĮ": 3680,
      "ĠÙħØŃØ§Ú©": 3681,
      "Ø®Ø§Ø±ÛĮ": 3682,
      "ĠØ¢ÙĪØ§ÛĮ": 3683,
      "ĠÙģØ±Ø¯Ø§": 3684,
      "ĠØ§ÛĮØ±Ø§ÙĨØ´ÙĨØ§Ø³ÛĮ": 3685,
      "ÙĪØ²ÛĮØ§ÙĨ": 3686,
      "ĠÙħØ³ÙĦØŃ": 3687,
      "Ø§ÙĤØª": 3688,
      "ĠÙħØªØ®ÙĦØµ": 3689,
      "ĠÚ¯ÙĦÚĨ": 3690,
      "Ø§Ø¶ÛĮÙĩ": 3691,
      "Ù¾Ø±Ø³Øª": 3692,
      "ĠÙĨØ¨Ø±Ø¯": 3693,
      "ĠÛ²Û°Û°Û": 3694,
      "ĠØ³Ø±ÙĪØ¯ÛĢ": 3695,
      "ĠÙĨØµÛĮØ±Ø§ÙĦØ¯ÛĮÙĨ": 3696,
      "ĠÙ¾ÛĮØ´Ú¯ÙģØªØ§Ø±": 3697,
      "ĠØ²Ø±ØªØ´Øª": 3698,
      "ĠÙĪØ¶Ø¹ÛĮØª": 3699,
      "ĠØ¯Ú©ØªÙĪØ±": 3700,
      "ÙĨØ´Ø±": 3701,
      "Ø´Ú©": 3702,
      "ĠÙĨØ±Ø§ÙĤÛĮ": 3703,
      "Ø§ÛĮÙĨ": 3704,
      "ÙĦÛĮÙĩ": 3705,
      "ĠÚ©Ø§Ø¨": 3706,
      "ĠØ±Ø¶ÛĮ": 3707,
      "ĠØ¬Ø¨Ùĩ": 3708,
      "ĠÙĩØ±Ø§Øª": 3709,
      "Ø§Ø¯ÛĮØ§ÙĨ": 3710,
      "Ø²ÛĮØ²": 3711,
      "ĠØ³Ø±ÙĪ": 3712,
      "ĠÙħØªÛĮÙĨ": 3713,
      "ĠØ§Ø®ÛĮØ±": 3714,
      "ĠØ·Ø¨Ø¹": 3715,
      "ĠØ±ÛĮØ§Ø¶ÛĮ": 3716,
      "ĠÙģØ§Ø·ÙħÛĮ": 3717,
      "ĠØ°Ø®": 3718,
      "ĠØ³ÙĦÛĮÙħ": 3719,
      "ĠÙĪØ§ÚĺÚ¯Ø§ÙĨ": 3720,
      "ĠØ³ÙģÛĮØ¯": 3721,
      "ĠÙĨÛĮØ±ÙĪÙĩØ§ÛĮ": 3722,
      "ĠØ±Ø´ÛĮØ¯ÛĮ": 3723,
      "ĠØªÙĪØŃÛĮØ¯ÛĮ": 3724,
      "ĠÙĨØ§Ø´ÙĨ": 3725,
      "ĠÚ¯ÙĦÙ¾Ø§ÛĮÚ¯Ø§ÙĨÛĮ": 3726,
      "Ø±Ø³Ø§ÙĨÛĮ": 3727,
      "ĠØ¨Øª": 3728,
      "ĠØ¨Ø§Ø´": 3729,
      "ÙĦÛĮØ³ÛĮ": 3730,
      "ĠØ§ÙĦØ´ÛĮ": 3731,
      "ĠÙħØŃÙħØ¯Ø²Ø§Ø¯Ùĩ": 3732,
      "Ø¶Ø§Ø¹": 3733,
      "ĠØ²Ú©Ø±ÛĮ": 3734,
      "Ø·ÛĮÙĨ": 3735,
      "Û±Û²": 3736,
      "ĠØªØŃÙĤÛĮÙĤÛĮ": 3737,
      "ĠÙĩÙħØ§": 3738,
      "ĠØ§Ø¹ÙĦØ§Ùħ": 3739,
      "ĠØ±ÛĮØ§ØŃÛĮ": 3740,
      "ĠÙĨÙħØ§Ø²": 3741,
      "ÙħØ±Ú©Ø²": 3742,
      "ĠÙĤØ¶Ø§Ø¦ÛĮ": 3743,
      "ĠØ¨ÙĪØ¯Ø¬Ùĩ": 3744,
      "ĠÙħØ³ÛĮØŃ": 3745,
      "ĠØµØ§Ø¨Ø±": 3746,
      "ĠÚĨÚ©ÛĮØ¯Ùĩ": 3747,
      "ÙħØ²": 3748,
      "Ø¨Ø§Ùģ": 3749,
      "Ú¯ÛĮÙĦ": 3750,
      "ĠÙĤØ¨": 3751,
      "ĠÙħØ¹ÛĮÙĨÛĮ": 3752,
      "ĠØ§ØŃØ§Ø¯ÛĮØ«": 3753,
      "ĠÙħÙĩØ³Ø§": 3754,
      "ĠØ³Ø±Ùĩ": 3755,
      "ØªÙħÙħ": 3756,
      "ĠÛ¹": 3757,
      "ĠÙ¾Ø±Ø³Øª": 3758,
      "ĠØ¹Ø±Ø§ÙĤÛĮ": 3759,
      "ĠÙħÙĤØ§ÙĦØ§ØªÛĮ": 3760,
      "ĠØ¨Ø§Ø²Ø®ÙĪØ§ÙĨÛĮ": 3761,
      "ĠÛĮØ§Ø¯ÙĨØ§ÙħÙĩ": 3762,
      "ĠÛĮØ§Ø¯Ú¯Ø§Ø±": 3763,
      "ĠØ¯ÛĮØ¯Ø§Ø±": 3764,
      "ĠÛ±Û¹Û¸Û": 3765,
      "ĠØ¢ÙĦÙħØ§ÙĨ": 3766,
      "ĠØ¨Ø±Ú¯Ø²ÛĮØ¯ÛĢ": 3767,
      "ĠØ±ÙĪØ´ÙĨÙģ": 3768,
      "ĠØ¨ÛĮØ§ÙĨØ§Øª": 3769,
      "ĠØ¨Ø§Ø³ØªØ§ÙĨØ´ÙĨØ§Ø³ÛĮ": 3770,
      "Ø¯Ø§ÛĮÛĮ": 3771,
      "Ú¯ÙĨ": 3772,
      "ĠØªØºÛĮ": 3773,
      "ĠØ³ÙĦÙĪÚ©": 3774,
      "ĠØ¹Ø¶ÙĪ": 3775,
      "ĠÙģØ±ÙĨÚ¯ÛĮ": 3776,
      "ĠØ§ÙģØ¶ÙĦ": 3777,
      "ĠØ§ÙĦÙħØ¹Ø§Ø±Ùģ": 3778,
      "ĠÙħØµÙĪØ±": 3779,
      "ĠÛĮÚ©Ùħ": 3780,
      "ĠÙħØ´Ø§ÛĮ": 3781,
      "ĠÙģØªØ§ØŃÛĮ": 3782,
      "ĠÚ¯Ø°Ø´ØªÙĩ": 3783,
      "ĠØ§Ø±Ø¯Ø¨ÛĮÙĦÛĮ": 3784,
      "ĠØ¨ÙĦÙĪÚĨØ³ØªØ§ÙĨ": 3785,
      "ĠP": 3786,
      "ÙĨÙĤÛĮ": 3787,
      "Ø¯Ø³ØªÛĮ": 3788,
      "ÙģÙĪØ±": 3789,
      "âĢ¬": 3790,
      "ĠØ³Ø§ÛĮ": 3791,
      "ĠÚ©Ø§Ú©": 3792,
      "ĠØ±ÙģØªØ§Ø±": 3793,
      "ÙħÛĮÙĦ": 3794,
      "ĠØ§ÛĮØ±Ø§": 3795,
      "ĠØ¨Ø±Ùĩ": 3796,
      "ĠÙħØ±Ø¯ÛĮ": 3797,
      "ĠÚĨØ±Ø§": 3798,
      "ĠØªØŃÙģÙĩ": 3799,
      "ĠÛ±Û°": 3800,
      "ĠÙħØµØŃ": 3801,
      "ĠØ³Ø§ÙĦØ§Ø±": 3802,
      "ĠÛ±Û³Û²Û": 3803,
      "ØŁ:": 3804,
      "ĠØ¹ÙĦÛĮÙĩÙħ": 3805,
      "ĠÙ¾ÙĪÙĩÙĨ": 3806,
      "ĠØªÛĮÙħÙĪØ±": 3807,
      "ĠÚĨØ´ÙħÙĩ": 3808,
      "ĠÙħØ±ØªØ¶ÙĪÛĮ": 3809,
      "ÙĪÙħØ±Ø«": 3810,
      "ÙħØµ": 3811,
      "ĠÙħØ§Ø±": 3812,
      "Ø¨Ø§Ø´ÛĮ": 3813,
      "Ø²Ø§ÙĤ": 3814,
      "ĠØ±Ø§Ø¶ÛĮÙĩ": 3815,
      "Ø®Ø±ÛĮ": 3816,
      "Ø§Ø³Ø±ÛĮ": 3817,
      "ĠØ¬Ø¨Ø±": 3818,
      "Ø·Ùĩ": 3819,
      "Ø·ÙĪØ·": 3820,
      "Ø¯ÛĮÙħ": 3821,
      "ÙĪÙħÙĨØ¯": 3822,
      "ĠØºØ±Ø¨ÛĮ": 3823,
      "ĠØ§ÙĦÙħÙĨ": 3824,
      "ĠØ´Ø±ÙĤÛĮ": 3825,
      "ĠØ¬ÙħØ§ÙĦÛĮ": 3826,
      "ĠÚ©ÛĮÙĪÙħØ±Ø«": 3827,
      "ĠØ§ÙĨÙĤÙĦØ§Ø¨ÛĮ": 3828,
      "ĠÙĨØ¬Ø§Øª": 3829,
      "ĠØ°Ú©": 3830,
      "ĠØŃØ¬ØªÛĮ": 3831,
      "ĠÙĩÛĮØ£Øª": 3832,
      "ĠØ¹Ø·Ø§Ø¦ÛĮ": 3833,
      "ĠÙģÛĮØ±ÙĪØ²Ùĩ": 3834,
      "ĠØ³Ø§ÙĪØ§Ú©": 3835,
      "ĠØ¬Ø§ÙĪØ¯": 3836,
      "Ø±Ø¶": 3837,
      "ÙħØ§Ø±": 3838,
      "ÙĨØ¨": 3839,
      "Ø¨ÙĪØ¯": 3840,
      "ĠØ¨Ø´Ø±": 3841,
      "ĠØ¨ÚĨÙĩ": 3842,
      "ĠØ¯Ø´": 3843,
      "ĠÙĨØ§Ø¦ÛĮÙĨÛĮ": 3844,
      "ĠØ³ØŃ": 3845,
      "ĠÚ©Ø§Ø²": 3846,
      "ĠØ§ÙĦØ¯": 3847,
      "ĠÙ¾Ø§": 3848,
      "ĠÙĤØ¨Ø§Ø¯ÛĮ": 3849,
      "ĠØ²ÛĮØ¯": 3850,
      "ĠØ¨Ø±ÙĤ": 3851,
      "ĠØ§Ø¨Øª": 3852,
      "ĠØ±ÙĪØ§ÛĮØªÛĮ": 3853,
      "ĠØ§Ø³ÙĨØ§Ø¯ÛĮ": 3854,
      "ĠÙĨØ³Ø¨": 3855,
      "ĠØŃØ¶ÙĪØ±": 3856,
      "ĠØ¨Ø§Ø²Ø§Ø±": 3857,
      "ĠØ§ÛĮØ²Ø¯ÛĮ": 3858,
      "ĠØµÙģØ§": 3859,
      "ĠØŃÙĪØ§Ø¯Ø«": 3860,
      "ĠØ¢Ø¦ÛĮÙĨÙĩ": 3861,
      "ĠØ¢ÙħØ§Ø±Ú¯ÛĮØ±ÛĮ": 3862,
      "ĠÙħØ§ÙĨØ¯Ú¯Ø§Ø±": 3863,
      ".)": 3864,
      "¸Û±": 3865,
      "ÙĪÛĮØ±ÛĮ": 3866,
      "ĠØ¨Ø§ÛĮØ¯": 3867,
      "ĠÙĨÙĪØ³": 3868,
      "ĠØ³Ø§Ø±": 3869,
      "ĠØ³Ø§ØŃ": 3870,
      "ÛĮØ±Ø§Ø¯": 3871,
      "ĠØŃØ§Ø´ÛĮ": 3872,
      "Ø§ÙĦØ²ÙħØ§ÙĨ": 3873,
      "Ø§ÙĩØ§ÙĨ": 3874,
      "ĠØ¢ÛĮØ¯": 3875,
      "ĠØ§ÙĨÙĪ": 3876,
      "ĠØ§ÙĨÙĪØ§Ø±": 3877,
      "ĠÙħØ¬Ø§ÙĩØ¯ÛĮÙĨ": 3878,
      "ĠØ±ÙĪÛĮØ¯": 3879,
      "ĠØ´ÙĩØ±Ø³Ø§Ø²ÛĮ": 3880,
      "ĠØ¹ÙħØ±Ø§ÙĨ": 3881,
      "ĠØ®Ø§ÙĨÙħ": 3882,
      "Ú¯ÙĪÙĨÚ¯ÛĮ": 3883,
      "ĠÚ©Ø§Ø´Ø§ÙĨ": 3884,
      "ĠÙħØ³ØªÙĪÙģÛĮ": 3885,
      "ĠÚ©ÙĪÚĨÙĩ": 3886,
      "ĠÙģÙĩÛĮÙħÙĩ": 3887,
      "ĠØ±ÙĪØŃØ§ÙĨÛĮØª": 3888,
      "ĠÛĮØ§Ø³Ø±": 3889,
      "ĠÚ©Ø´Ø§ÙĪØ±Ø²ÛĮ": 3890,
      "ĠØ¨Ø±Ø²Ú¯Ø±": 3891,
      "ĠÙħÙĪÙĤÙĪÙģØ§Øª": 3892,
      "!:": 3893,
      "ÙĤØ¯Ø±": 3894,
      "ĠØ¨Ø´ÛĮØ±": 3895,
      "ĠØ¯Ø²": 3896,
      "ĠØªÙĪØ¯Ùĩ": 3897,
      "ĠÙĨØ§Ø¨": 3898,
      "ĠØ´Ø®": 3899,
      "ĠØ´Ø¯ÙĨ": 3900,
      "ĠØ±Ø´": 3901,
      "ĠØ±ÙģØ³": 3902,
      "ĠØ§ÙĦÙĪÙĩØ§Ø¨": 3903,
      "ĠØ®ÙĪØ¨": 3904,
      "ĠØ§ÙĨØ³": 3905,
      "ĠØ¹Ø¨Ø¯Ø§ÙĦÙħ": 3906,
      "Ø§Ø¬Ø±": 3907,
      "Ø´ÛĮØ§ÙĨ": 3908,
      "ĠÛ·Û": 3909,
      "ĠØ´Ø§ÙĩØ±ÙĪØ¯ÛĮ": 3910,
      "ĠÚ©ÛĮÙĩØ§ÙĨ": 3911,
      "ĠØ®Ø§Ø·Ø±Ø§ØªÛĮ": 3912,
      "ĠÙħØ´ØªØ±Ú©": 3913,
      "ĠØ«ÙĤ": 3914,
      "Ù¾ÚĺÙĪÙĩØ´": 3915,
      "ĠÙ¾ÚĺÙħØ§ÙĨ": 3916,
      "ĠØŃØ¯ÙĪØ¯": 3917,
      "ĠØ§ÙĦØªÙĪØ§Ø±ÛĮØ®": 3918,
      "ĠØªØ¨ÛĮÛĮÙĨ": 3919,
      "Ø¯ÙĨÛĮ": 3920,
      "ĠÙħÙĪÙĨ": 3921,
      "ĠÙħØ§Ø¯Ø±": 3922,
      "ĠØ¹Ø§ÙħÛĮ": 3923,
      "ĠØ¢Øª": 3924,
      "ØµÙĩ": 3925,
      "Ø·Ø§ÙĨ": 3926,
      "ĠÛĮØ§Ø²Ø¯Ùĩ": 3927,
      "ĠØ§ÙħØ«Ø§ÙĦ": 3928,
      "ĠØ¹Ø¨ÛĮØ¯": 3929,
      "ĠÙħÙĩØ´ÛĮØ¯": 3930,
      "ĠØ¯ÛĮØ§Ø±": 3931,
      "ĠØ§ØµØºØ±ÛĮ": 3932,
      "ĠØ³Ø§ÙĦÚ¯Ø±Ø¯": 3933,
      "ĠØ§Ø¹Øª": 3934,
      "ĠØ¨ÙĨÛĮØ§ÙĨ": 3935,
      "ĠØ¯ÙĩÙĩ": 3936,
      "ĠØªÙĪØ³ÙĦÛĮ": 3937,
      "ĠØ§ÙĦÙĤØ§Ø¯Ø±": 3938,
      "ĠÙ¾Ø§ÛĮÙĩ": 3939,
      "ĠØ´ÙĩØ±ÛĮÙĪØ±": 3940,
      "ĠÙħØ¸Ø§ÙĩØ±ÛĮ": 3941,
      "ĠÚ©Ø±ÙħØ§ÙĨØ´Ø§Ùĩ": 3942,
      "ĠØ¯Ø¨ÛĮØ±Ø®Ø§ÙĨÙĩ": 3943,
      "ĠØªÙĦØ®": 3944,
      "ĠØªØŃØ±ÛĮØ±": 3945,
      "ÙħØ±ÙĤÙĨØ¯ÛĮ": 3946,
      "\"ØĮ": 3947,
      "ĠØ§ÙĨÛĮ": 3948,
      "ÙĪØ§Ø¨Ø³ØªÙĩ": 3949,
      "Ø§ÙĨÚ¯ÛĮØ²": 3950,
      "Ø¹Ø§Ø¯": 3951,
      "Ø¹ÛĮØ¯": 3952,
      "ĠÙĨØ§Ø±": 3953,
      "Ø²Ø§Ø¨": 3954,
      "ÛĮØ±Øª": 3955,
      "ĠØ±ÙģØª": 3956,
      "ĠØ§ÙĦÚ¯ÙĪÛĮ": 3957,
      "ÙħÛĮØ§ÙĨÙĩ": 3958,
      "ĠØ¨Ø±Ø¬": 3959,
      "Ø°ÛĮØ±": 3960,
      "ĠØ´ÙĩØ¯Ø§ÛĮ": 3961,
      "ĠØ²ÙĨØ¯ÛĮ": 3962,
      "ĠÙ¾ÛĮØ´Ø±": 3963,
      "ĠØºÙĦØ§ÙħØ¹ÙĦÛĮ": 3964,
      "ĠÚ©ÙħÙĪÙĨÛĮ": 3965,
      "ĠØ·Ø¨ÛĮØ¨": 3966,
      "ĠØ³ÙĩØ±ÙĪØ±Ø¯ÛĮ": 3967,
      "ĠÙħØ·Ø¨Ø¹": 3968,
      "ĠÙħØ§Ø²ÙĨØ¯Ø±Ø§ÙĨÛĮ": 3969,
      "ĠØ¯Ø§ÙħØºØ§ÙĨÛĮ": 3970,
      "ĠØ§ÛĮÙħØ§ÙĨÛĮ": 3971,
      "ĠØ§ÛĮØ¯": 3972,
      "ĠØ¹Ø§Ø±": 3973,
      "ĠÚ©ÙĨØ¯": 3974,
      "ĠÙ¾Ø³Ø±": 3975,
      "ĠÙ¾Ø±Ø¯Ùĩ": 3976,
      "Ø§ÙĨÛĮØ§": 3977,
      "Ø§Ø¨Ø±ÛĮ": 3978,
      "Ø·Ø¨": 3979,
      "ĠØ§ÙĨØ´": 3980,
      "ĠÙħÙĩØªØ§Ø¨": 3981,
      "Ø¯ÛĮÙĨÙĩ": 3982,
      "ÛĮØªØ§": 3983,
      "Ø§ÙĤØ§ÙĨÛĮ": 3984,
      "ĠØ´Ø§ÙĩÛĮÙĨ": 3985,
      "ĠØ±Ø³ÛĮØ¯": 3986,
      "Ø§ÙĪØª": 3987,
      "ĠÙħØ´Ú©ÙĦ": 3988,
      "Ø§ØªÛĮÚ©": 3989,
      "ĠØ§ÙĪØ¶Ø§Ø¹": 3990,
      "ĠØ±ÙĩÙĨÙħ": 3991,
      "ĠØµØ¯Ø§ÙĤØª": 3992,
      "ĠØ¨ÛĮÚ¯Ø¯": 3993,
      "ĠØ´Ø¬Ø§Ø¹": 3994,
      "ĠØ§ÙĨØªØ¸Ø§Ø±": 3995,
      "ĠØ¹ÙĪØ§ÙħÙĦ": 3996,
      "ÙħØ§Ø¦ÛĮ": 3997,
      "Ø¨ÛĢ": 3998,
      "ĠØ¨ÙĨØ¯": 3999,
      "ĠØ¯ÙģØª": 4000,
      "Ø²ÙħÛĮ": 4001,
      "Ù¾Ùĩ": 4002,
      "ĠÙĩØ§Ø±": 4003,
      "ĠÚĨÚ¯ÙĪÙĨÚ¯ÛĮ": 4004,
      "ØªØ´Ø±": 4005,
      "ĠØ³Ø±ÙĨÙĪØ´Øª": 4006,
      "ĠÙ¾ÛĮÙĪÙĨØ¯": 4007,
      "ĠØ±ØŃÙħØ§ÙĨ": 4008,
      "Ú¯Ø°Ø§Ø±": 4009,
      "ĠÙĨØ¹ÙħØªÛĮ": 4010,
      "ĠØ·Ø§ÙĦÙĤØ§ÙĨÛĮ": 4011,
      "ĠÙĤØ²ÙĪÛĮÙĨ": 4012,
      "ĠØªØ±ÛĮØ®": 4013,
      "ĠÙħØ´Ø§Ø±Ú©Øª": 4014,
      "ĠM": 4015,
      "ÙħÛĮØ±ÛĮ": 4016,
      "ÙĪÚ©": 4017,
      "ÙĪØ¹": 4018,
      "ÙĩØ§Ø±": 4019,
      "ĠÙħØ¯ÛĮ": 4020,
      "ĠØ¨ÛĮÙħÙĩ": 4021,
      "ĠØ¯ÛĮÙĦ": 4022,
      "ĠØ³ÙĨÚ¯ÛĮ": 4023,
      "ĠØ´Ø§Ø¯ÛĮ": 4024,
      "ĠØ´ÙģÛĮØ¹": 4025,
      "ĠÙ¾Ø±Ø¯": 4026,
      "ĠÙģØ±Ø´ÛĮØ¯": 4027,
      "ĠÙħØ±Ø§ØºÙĩ": 4028,
      "Ø§Ø´Ø§Ø³ÛĮ": 4029,
      "Ø¢ÙģØ±ÛĮÙĨ": 4030,
      "ĠØ¨ÙĨÙģ": 4031,
      "ĠÙĩÙħØ³": 4032,
      "ĠÙħÙĪØ¹ÙĪØ¯": 4033,
      "ĠØ¬ÙĦÙĪÙĩ": 4034,
      "ĠØ¬ÙĪØ§ÙĩØ±": 4035,
      "ĠØ±Ø¶ÙĪØ§ÙĨ": 4036,
      "ĠØ§Ø®ØªÙĦ": 4037,
      "ØªØ±Ø¬ÙħÙĩ": 4038,
      "ĠÚĨØ±Ø§Øº": 4039,
      "ĠØ®Ø§ÙĪØ±ÙħÛĮØ§ÙĨÙĩ": 4040,
      "ĠÙħØºÙĪÙĦ": 4041,
      "ĠØ¯Ø§ÛĮØ±Ùĩ": 4042,
      "ĠÙĦØ´Ú©Ø±": 4043,
      "Ø¨Ø§ÛĮ": 4044,
      "ĠØªÙĪØ§ÙĨ": 4045,
      "Ø§Ø¯ÙĩØ§ÛĮ": 4046,
      "Ù¾Ø²Ø´Ú©ÛĮ": 4047,
      "ÙĨÚ¯Ø±": 4048,
      "ĠÚĨÙĪØ¨": 4049,
      "ÙħÙĩØ¯ÛĮ": 4050,
      "ĠØªØ±Ø§ÙĨ": 4051,
      "ĠØ¹ÙĦÙħØ§ÛĮ": 4052,
      "Ø²ÛĮØ³Øª": 4053,
      "ĠÛ±Û¸Û": 4054,
      "ĠÙħØµØ±": 4055,
      "ĠØ´Ø§ÙĩØ±Ø®": 4056,
      "ĠÚ¯ÙĦØ´ÙĨ": 4057,
      "ĠØ§ÙĦØ¯ÛĮÙĨÛĮ": 4058,
      "ĠØ§ÙĦØ¹ÙĦÙĪÙħ": 4059,
      "ĠØ³ÙĦØ¬ÙĪ": 4060,
      "ĠÙħØ´Ø§ÙĪØ±": 4061,
      "ĠØ§ÙģØ´Ø§Ø±ÛĮ": 4062,
      "ĠÙħØ¯Ø±ÙĨ": 4063,
      "ĠÙģØ±Ø²ÙĨØ¯": 4064,
      "ĠØ§Ø³Ø¯Ø§ÙĦÙĦÙĩ": 4065,
      "Ú¯ÙĨØ¬": 4066,
      "ĠØ¯ÙĦØ§": 4067,
      "ĠØªÚ©ÛĮÙĩ": 4068,
      "Ø§Ø¯Ùħ": 4069,
      "ĠØ±Ú©ÙĨ": 4070,
      "Ø®ÙĪØ§ÙĨ": 4071,
      "ØµØ§Ø±": 4072,
      "ĠÙĤØ±ÛĮ": 4073,
      "ĠØ¨ÙĩØ§Ø±Ùĩ": 4074,
      "ĠÙģØ±ÙĤÙĩ": 4075,
      "ÙĪØ´ÙĨ": 4076,
      "ĠØµØ§ÙģÛĮ": 4077,
      "ĠÙħØ¹Ø¬": 4078,
      "ĠØ³ÛĮØ³Øª": 4079,
      "ĠÙĦÙħ": 4080,
      "ĠÙĩÙħØª": 4081,
      "ĠØ±ÙĪÙħÛĮ": 4082,
      "ĠØ§Ø±Ø²ÛĮ": 4083,
      "ĠÙĨÙĪØ§Ø¨": 4084,
      "ĠÚ©Ø§Ø±Ú¯Ø±": 4085,
      "ĠØªÙĨÙĩØ§ÛĮÛĮ": 4086,
      "ĠØ¨Ø²Ø±Ú¯Ø§ÙĨ": 4087,
      "ÙĨÚ¯ÛĮØ²": 4088,
      "ĠØŃØ¬Ùĩ": 4089,
      "ĠÚ©Ø´ÙĪØ±ÙĩØ§ÛĮ": 4090,
      "ĠØ§Ø·ÙĦØ³": 4091,
      "ĠØ¬ØºØ±Ø§ÙģÛĮØ§": 4092,
      "ĠÙĨÚ¯ÛĮÙĨ": 4093,
      "ĠÙħÙĤØ§ÛĮØ³Ùĩ": 4094,
      "ĠÙħÙģÙĩÙĪÙħ": 4095,
      "·Û°": 4096,
      "Û²Û°": 4097,
      "ÙĨÙĪØ±": 4098,
      "Ø´Ø¯ÙĨ": 4099,
      "ĠÙĪØ§ØŃ": 4100,
      "Ú¯Ø´Øª": 4101,
      "ĠØ¢Ø¨Ø§Ø¯": 4102,
      "ĠØ®Ø¯Ø§Ø¯": 4103,
      "ĠÙĩØ®": 4104,
      "ĠÚ¯ÙĪØ±": 4105,
      "ÙĤÛĮØ§ÙĨ": 4106,
      "ĠÛĮÙĦ": 4107,
      "ĠÙħÙĨØ²": 4108,
      "Ø§ØµÛĮ": 4109,
      "ĠÚ¯Ø±Ø¯Ø§ÙĪØ±ÛĮ": 4110,
      "ĠÙĨÛĮØ§Ø²": 4111,
      "ÙĪØ·ÛĮ": 4112,
      "ĠØ³ÙĦØ·ÙĨØª": 4113,
      "ĠØ´ÙĨØ§Ø³": 4114,
      "ĠØ¢Ø³ÛĮØ§ÛĮ": 4115,
      "ĠØ®ÙĪØ±Ø´ÛĮØ¯ÛĮ": 4116,
      "ĠÙħÙĪØ¶ÙĪØ¹": 4117,
      "ĠØªØ°Ú©Ø±ÛĢ": 4118,
      "ĠÙĨÚ¯Ø±Ø´": 4119,
      "ĠÛĮÙĨ": 4120,
      "Ø¯ÙĩØ§ÛĮ": 4121,
      "ĠÙħØ§Ø´": 4122,
      "ØªÙĪÛĮ": 4123,
      "Ú©ÙĪØ¨": 4124,
      "ĠÚ©Ø§ÙĨ": 4125,
      "ĠÚ©Ø¬": 4126,
      "ĠØ§ÙĦØ§": 4127,
      "ĠÙ¾ÙĪÙĦ": 4128,
      "ĠØ¯Ø±Ùĩ": 4129,
      "ĠÙĤÙģÙĤ": 4130,
      "ĠÛĮÚ¯Ø§ÙĨÙĩ": 4131,
      "ĠØ¨ÛĮØ´": 4132,
      "Ú©ÛĮÙĦÛĮ": 4133,
      "ĠØ¨Ø§Ø¨Ø§Ø¦ÛĮ": 4134,
      "ĠØ´ÛĮØ®ÛĮ": 4135,
      "ĠØ¬ÙĨØ³ÛĮ": 4136,
      "ĠØ§Ø«Ø¨Ø§Øª": 4137,
      "ĠØ¹Ø§Ø±ÙģØ§ÙĨ": 4138,
      "ĠØ¢Ø®ÙĪÙĨØ¯": 4139,
      "ĠÙ¾Ø±ÛĮØ³Ø§": 4140,
      "ĠØ§ÙģØªØ®Ø§Ø±ÛĮ": 4141,
      "ĠØ§Ø³Ø§Ø·ÛĮØ±": 4142,
      "ĠØ§Ø¬ØªÙħØ§Ø¹": 4143,
      "Û²Û": 4144,
      "ÙĪÛĮÙĨ": 4145,
      "ÙĪØ¬": 4146,
      "Ú©Ø±ÛĮÙħ": 4147,
      "ĠØ±Ø´Ø¯": 4148,
      "Ø§ØªØŃ": 4149,
      "ĠØ¢Ø«": 4150,
      "ĠØ§ÙĨÙĪØ±ÛĮ": 4151,
      "ĠÙģØ±Ø³ÛĮ": 4152,
      "ĠÚĨÙ¾": 4153,
      "ĠØ§Ø±Ø²": 4154,
      "ĠØªØŃÙĤÛĮÙĤØ§ØªÛĮ": 4155,
      "ĠÙģÛĮØ¶ÛĮ": 4156,
      "ĠÙģÛĮØ§Ø¶": 4157,
      "ĠØ§ÙĦØŃØ¯ÛĮØ«": 4158,
      "ĠØ²ÛĮØ§Ø±Øª": 4159,
      "ĠÙ¾Ø±ÙĪØ§Ø²": 4160,
      "Ø¹ÙĦÙĪÙħ": 4161,
      "ĠÚ¯Ø°Ø±": 4162,
      "ĠØ·Ø±Ø§ØŃÛĮ": 4163,
      "ĠØ®Ø§ØªÙħÛĮ": 4164,
      "ĠÙħØ°ÙĩØ¨": 4165,
      "ĠÙģØ±ÙĪØ²Ø§ÙĨ": 4166,
      "ĠÙĦØ§ÙĩÛĮØ¬ÛĮ": 4167,
      "¶Û°": 4168,
      "ÙĦÙħÛĮ": 4169,
      "ÙģØ§ÙĨ": 4170,
      "ĠÙĪØ§ÙĦÙħ": 4171,
      "ĠÙĨØ§ÙħÛĮ": 4172,
      "ĠØ³ÙĦÙħ": 4173,
      "ĠØ´Ø§ÙĨ": 4174,
      "ĠØ´ÛĮØ¯": 4175,
      "ĠØ§ÙĦØ§ØŃ": 4176,
      "ĠØ¬Ø§Ø¯": 4177,
      "Ø³ØªÚ¯ÛĮ": 4178,
      "ĠÙħØ±Ø§": 4179,
      "ĠØ§ÙħØ±ÛĮÚ©Ø§": 4180,
      "ØªÛĮØ¨Ùĩ": 4181,
      "Ø§Ø¬Ø¯": 4182,
      "ĠØªØ£ÙħÛĮÙĨ": 4183,
      "Ø§ØµÙģÙĩ": 4184,
      "ĠÛ±Û¹": 4185,
      "ĠØ´Ø¹Ø¨Ø§ÙĨ": 4186,
      "ĠØ³Ø§ÙĦÙĩ": 4187,
      "ĠØ´Ø¹Ø±Ø§ÛĮ": 4188,
      "ĠØ§ÙĤØª": 4189,
      "ĠØ¯Ø±ÛĮØ§ÛĮÛĮ": 4190,
      "ĠØ¹Ø·Ø§": 4191,
      "ĠØ®ÙĪØ§Ø¬ÙĪÛĮ": 4192,
      "Ø³Ø§Ø²ÙħØ§ÙĨ": 4193,
      "ĠØ®Ø¯ÛĮØ¬Ùĩ": 4194,
      "ĠØ±ÛĮØŃØ§ÙĨÙĩ": 4195,
      "ÛĮØ³": 4196,
      "ÙħØ·": 4197,
      "ĠÙħØ§ÙģÛĮ": 4198,
      "ĠØ³ÙĪØ³": 4199,
      "Ø²Ø§": 4200,
      "Ø§ÙħØ¹": 4201,
      "ĠÙħØŃÚ©": 4202,
      "ĠØ§ÙĦØ§ÙĩÛĮ": 4203,
      "ĠØ®Ø§ÙĤØ§ÙĨÛĮ": 4204,
      "ĠÙĤØªÙĦ": 4205,
      "ÙĨØ¯ÛĢ": 4206,
      "Ø³ÛĮØ³": 4207,
      "ĠØ³ÛĮØ¨": 4208,
      "ĠÙħÙĩØ¯ÛĮÙĩ": 4209,
      "ĠØ±Ø³ÙħÛĮ": 4210,
      "ĠØ³Ø¹ÛĮØ¯Ùĩ": 4211,
      "ĠØ¨Ø§Ø²ØªØ§Ø¨": 4212,
      "ĠØ«Ø§ÙĨÛĮ": 4213,
      "ØµÛĮÙĦÛĮ": 4214,
      "ĠØ¹Ø¨Ø¯Ø§ÙĦØ±ØŃ": 4215,
      "ĠÙĨØµØ±ÛĮ": 4216,
      "ĠÛ±Û¹Û¶Û": 4217,
      "ĠØ¬ØºØ±Ø§ÙģÛĮØ§Ø¦ÛĮ": 4218,
      "ĠØ§ÙĦØ±Ø²Ø§ÙĤ": 4219,
      "ĠÙĨÙħØ§ÛĮØ´ÛĮ": 4220,
      "ĠØ´ÙģÙĤ": 4221,
      "ĠÙħØ¨Ø§Ø±Ú©": 4222,
      "Ø§ÙħÛĢØ²ÛĮ": 4223,
      "ĠØ®Ø§ÙħÙĨ": 4224,
      "ĠØ¨Ø´ÛĮØ±ÛĮ": 4225,
      "ĠØ¨ÛĮØ±Ø¬": 4226,
      "ĠÙ¾Ø§Ø±Ø³Ø§": 4227,
      "ĠÙĨÚ©ØªÙĩ": 4228,
      "ĠØ²ÙħØ³ØªØ§ÙĨ": 4229,
      "ĠØ¯ÛĮØ±ÙĪØ²": 4230,
      "ĠÙħÙĨØªØ¸Ø±ÛĮ": 4231,
      "ÙĨØ§Ø¯": 4232,
      "ÙĦØ±ÛĮ": 4233,
      "Ø¯Ø´Øª": 4234,
      "ĠÙħØ±ÛĮ": 4235,
      "ĠÙħÚ©Ø§Ø±": 4236,
      "Ø¨ÙĦØ§": 4237,
      "ĠÙĪÚ©ÛĮÙĦÛĮ": 4238,
      "Ø¬Øª": 4239,
      "Ø®ÙĨÙĩ": 4240,
      "Ø®Ø¯Ø§": 4241,
      "ØµÙģÛĮ": 4242,
      "ĠØ¨ÙĩÙħÙĨÛĮ": 4243,
      "ĠÚ¯Ø±ÛĮ": 4244,
      "ÚĨÛĮØ§ÙĨ": 4245,
      "ĠØ§ÙħÙĦ": 4246,
      "ĠØ·Ø§ÙĪ": 4247,
      "Ø§Ø¯ÛĮØ§Ø±": 4248,
      "ĠØ³ÛĮØ²Ø¯Ùĩ": 4249,
      "Ø¨Ø±Ú¯": 4250,
      "ĠÙħØ¤ÙħÙĨ": 4251,
      "Ø§Ú©ÙĨ": 4252,
      "ĠØ§ÙĦÙħØ«ÙĦ": 4253,
      "ĠÙħØ³ÙĦØ³ÙĦ": 4254,
      "ĠØ§Ø±Ø¯ÛĮ": 4255,
      "ĠØ§Ø®ØªÛĮ": 4256,
      "ÙĪØªÙĨ": 4257,
      "ĠÙĨÙĩÙħ": 4258,
      "ĠÙħØ®Ø·ÙĪØ·": 4259,
      "ĠØ§ÙħØ§ÙħÛĮÙĩ": 4260,
      "ĠØ§Ø³ÙģÙĨØ¯": 4261,
      "ĠØ³Ø§Ø³Ø§ÙĨ": 4262,
      "ĠÙģØ§Ø±Ø§Ø¨ÛĮ": 4263,
      "ØµÙĪØµ": 4264,
      "ĠÙħØ¬ÙĦØ³ÛĮ": 4265,
      "ĠØ±ÙģØ³ÙĨØ¬Ø§ÙĨÛĮ": 4266,
      "er": 4267,
      "Û³": 4268,
      "ĠØ¯Ø§Ø´": 4269,
      "ĠØ¯Ø§Ø®": 4270,
      "ĠØ³Ø§Ø¯Ùĩ": 4271,
      "ĠØŃØ§Ø¶": 4272,
      "ĠØ¨ÙĩØ±Ùĩ": 4273,
      "ÙģÛĮØ¸": 4274,
      "ĠØ·ÙĩØ±Ø§ÙĨ": 4275,
      "ĠØºÙħ": 4276,
      "ĠØ¯Ø§ÙĨØ´ÙĪØ±": 4277,
      "ĠÛ±Û´": 4278,
      "ĠØ¨ÛĮØ§ÙĨÛĮ": 4279,
      "ĠÙħÙĪØ¬": 4280,
      "Ø§ÙħÛĮØ§ÙĨ": 4281,
      "ĠÙĨÙĪØ´ÛĮÙĨ": 4282,
      "Ø§Ø®Ø§ÙĨÛĮ": 4283,
      "ĠÚ¯Ø±Ø¯Ø§ÙĪØ±": 4284,
      "ĠÙħØªØŃØ¯": 4285,
      "ĠØ§ÙĦØ¹ÙĦÙħ": 4286,
      "Û±Û³Û·Û": 4287,
      "ĠÙĪØ§Úĺ": 4288,
      "ĠÙħÙĩÙĨØ¯Ø³ÛĮ": 4289,
      "ĠØ²ÛĮØ¨Ø§ÛĮÛĮ": 4290,
      "ĠØ¹Ø±ÙĪØ¬": 4291,
      "ĠÙĤØ´ÙĤØ§ÛĮÛĮ": 4292,
      "ĠÙ¾Ø§Ø¯Ø´Ø§Ùĩ": 4293,
      "ĠØ§Ø±ÙħØºØ§ÙĨ": 4294,
      "ĠØ¯Ø²Ùģ": 4295,
      "ÙĪÛĢ": 4296,
      "Ø¯Ø³": 4297,
      "Ø¯Ø§Ø¯ÛĮ": 4298,
      "ĠÙħØ£": 4299,
      "Ø²ÛĮÙĨ": 4300,
      "ĠØ§ÙĦØ«": 4301,
      "ĠÙ¾ÛĮÙħ": 4302,
      "Ø§Ø¨Ø§ÙĨÛĮ": 4303,
      "ĠØ§ÙĨØ¯Ø±": 4304,
      "Ø¨ÛĮÚ¯ÛĮ": 4305,
      "ĠØµÙĦÛĮ": 4306,
      "ĠØµÙĪØ±Øª": 4307,
      "ĠÙħØ±Ø¯Ø§Ø¯": 4308,
      "ĠÙħØ¹Ø§ÙĨÛĮ": 4309,
      "ĠØ³ÛĮØ¯ÛĮ": 4310,
      "ĠÙĦÙĦÙĩ": 4311,
      "ĠØ¨ÙĨØ§ÙħÛĢØ²ÛĮ": 4312,
      "ĠØ§Ø¯ÛĮ": 4313,
      "ĠØ§Ø¯ÙĪØ§Ø±": 4314,
      "ĠØ§Ø±Ø¬": 4315,
      "ĠØ§Ø¬Ø±Ø§ÛĮÛĮ": 4316,
      "ĠØŃÙħÛĮØ¯Ùĩ": 4317,
      "ĠØ§ÙĪØ¬": 4318,
      "ĠØªØ¬Ø±": 4319,
      "ĠØªØ¬Ø¯Ø¯": 4320,
      "ĠØ¹Ø´Ø§ÛĮØ±": 4321,
      ")ØĽØĽ": 4322,
      "ĠÙ¾ÛĮØ±ÙĪØ²": 4323,
      "·Û³Û±": 4324,
      "ĠÙĨØ´Ø³Øª": 4325,
      "ĠÙ¾Ø±ÙĪÙģØ³ÙĪØ±": 4326,
      "ĠÚ¯Ø°Ø´Øª": 4327,
      "ĠØ§Ø¨ÙĪØ§ÙĦØŃØ³ÙĨ": 4328,
      "ĠØ®Ø§ØªÙĪÙĨ": 4329,
      "ĠØ§ÙĨØªØ¸Ø§ÙħÛĮ": 4330,
      "ĠØ¦": 4331,
      "ÙĦØ§Øª": 4332,
      "Ú©ÙĪÙĩÛĮ": 4333,
      "ĠÙĪÚ©ÛĮÙĦ": 4334,
      "ĠÙĨØ±Ùħ": 4335,
      "ĠÚ©ØªÛĮØ¨Ùĩ": 4336,
      "ĠØ±ÙĪØ³": 4337,
      "ĠØ±Ø§Ø¨Ø·": 4338,
      "ĠÙĤÙĪÚĨ": 4339,
      "Ø·ÙĪØ±": 4340,
      "ĠØ§ÙĨÙĪØ±": 4341,
      "ĠØ§ÙĨÙĪØ´": 4342,
      "ĠÛĮØ§ØŃ": 4343,
      "ĠØŃØ³ÛĮÙĨØ¹ÙĦÛĮ": 4344,
      "ĠÚ©ØªØ§Ø¨Ø®Ø§ÙĨ": 4345,
      "ĠÙĦÚ©": 4346,
      "ĠØ³Ø±Ø§Ø³Ø±ÛĮ": 4347,
      "ĠÙħØ³Ø§ÙģØ±": 4348,
      "ĠØ´ÙħØ§ÙĦ": 4349,
      "ĠÚ©ÛĮØ§": 4350,
      "ĠØªÙĨÙĩØ§": 4351,
      "ĠÚ¯Ø±Ø¯Ø¢ÙĪØ±": 4352,
      "ĠØ§ÛĮÙĦØ§Ùħ": 4353,
      "ĠØªÙĤÛĮØ²Ø§Ø¯Ùĩ": 4354,
      "ÙĦØ·ÙĨÙĩ": 4355,
      "ĠÙģØ±ÙħØ§ÙĨØ¯Ùĩ": 4356,
      "ÙĨØ¸Ø±": 4357,
      "ĠÙĪÙĩØ§Ø¨": 4358,
      "ÙħÛĮÙħÛĢ": 4359,
      "ĠØ§Ø³ÙģÙĨØ¯ÛĮØ§Ø±ÛĮ": 4360,
      "Ø¯Ú©ÙĨÛĮ": 4361,
      "ĠØ¨Ø³ÛĮØ¬": 4362,
      "ĠÙĪÛĮÚĺÚ¯ÛĮ": 4363,
      "ĠÙĪØ·ÙĨ": 4364,
      "Ø±ÙĪØ¯": 4365,
      "Ø³Ù¾": 4366,
      "ĠØ§ÙĤÙĪ": 4367,
      "Ø¹Ø¨Ø§Ø³": 4368,
      "ĠÚ©Ø¯Ú©ÙĨÛĮ": 4369,
      "ĠØŃÙĨÛĮÙģ": 4370,
      "ĠØ±Úĺ": 4371,
      "ĠØ§ÙĦØ§Ø±": 4372,
      "ĠØ¢ÙĪ": 4373,
      "ĠØ¨ÙĩØ²Ø§Ø¯ÛĮ": 4374,
      "ÙħÛĮØ²": 4375,
      "ĠÛĮÚ©ÛĮ": 4376,
      "ÙĪÙĩØ±ÛĮ": 4377,
      "ĠØ¯Ø§ÙĨØ´Ú©Ø¯ÛĢ": 4378,
      "ĠÙĩÙħØªÛĮ": 4379,
      "ĠØªØµÙĪÛĮØ±ÛĮ": 4380,
      "ĠØ´ÛĮØ±ÙĪØ§ÙĨÛĮ": 4381,
      "ĠÙħÙĪØ³Ø³ÛĢ": 4382,
      "ĠØ§ÛĮÙĪØ¨": 4383,
      "ĠØ«Ø±ÙĪ": 4384,
      "ĠØ´ÙĪØ±ÙĪÛĮ": 4385,
      "ĠØ§Ø±Ø¯ÙĪ": 4386,
      "ĠÙĨØµØ±Ø§ÙĦÙĦÙĩ": 4387,
      "ĠÙĤØ¯Ø³ÛĮ": 4388,
      "ĠÙĨÙħØ§ÛĮÙĨØ¯Ú¯ÛĮ": 4389,
      "ĠÚ¯Ø°Ø±ÛĮ": 4390,
      "ĠÛĮØ¯Ø§ÙĦÙĦÙĩ": 4391,
      "ĠØ´Ø§ÛĮØ³ØªÙĩ": 4392,
      "ĠØ¬Ø¨ÙĩÙĩ": 4393,
      "ĠÙĩØ®Ø§ÙħÙĨ": 4394,
      "ĠÙħÛĮØ¯": 4395,
      "ĠÙħØ´Øª": 4396,
      "ĠÙĪØ§Ø±": 4397,
      "Ú¯ÙģØª": 4398,
      "ĠÙĨØ²": 4399,
      "ĠØ¢ÙħØ¯": 4400,
      "ØµÛĮÙĦ": 4401,
      "ĠÙĩÙĪÙħÙĨ": 4402,
      "ĠÚ¯Ø±ÙĪ": 4403,
      "ĠØ¹ÙĦÛĮÙ¾ÙĪØ±": 4404,
      "Ø§Ø³ØªØ§": 4405,
      "Ø§Ø³ØªÙĩ": 4406,
      "ĠØ§ÙģÙĦ": 4407,
      "ĠØ§ÙĦÙħØŃ": 4408,
      "ĠØ´Ø±ØŃÛĮ": 4409,
      "Ø¨ÙĩØ´ØªÛĮ": 4410,
      "ÙĨØ¬ÛĮ": 4411,
      "ĠØ§Ø´Ø±Ø§ÙĤÛĮ": 4412,
      "ĠØ¹ÙħØ±Ø§ÙĨÛĮ": 4413,
      "ĠØ¨Ø§Ø²Ø±Ú¯Ø§ÙĨ": 4414,
      "ĠØ§ÛĮØ«Ø§Ø±": 4415,
      "ĠØ±ÙĪÛĮÚ©Ø±Ø¯ÛĮ": 4416,
      "ĠØ¸Ø±": 4417,
      "ĠØµØ¯Ø±ÛĮ": 4418,
      "ĠØ¹Ø§Ø´ÙĪØ±": 4419,
      "ĠÙĤÛĮØµØ±ÛĮ": 4420,
      "ĠÙĨÛĮÙħÙĩ": 4421,
      "ĠÙĩÙħØ¯Ø§ÙĨ": 4422,
      "ĠØ±Ø¦ÛĮØ³ÛĮ": 4423,
      "ĠØ¨Ø³Ø¹ÛĮ": 4424,
      "ĠÙĨØ§Ø²ÙĨÛĮÙĨ": 4425,
      "ĠØ§Ø¦ÙħÙĩ": 4426,
      "ĠÙĨÚ¯ÙĩØ¨Ø§ÙĨ": 4427,
      "ĠØ´Ø®ØµÛĮ": 4428,
      "ĠØªØ¬Ø±Ø¨Ùĩ": 4429,
      "ĠØªØ§ÛĮ": 4430,
      "ĠÙĨÙĪØ²": 4431,
      "ĠØ³Ø¯ÛĢ": 4432,
      "ĠØ³ÙħØ§ÙĨÙĩ": 4433,
      "Ø§ÙħØ¯ÛĮ": 4434,
      "ĠÙ¾Ø§Ù¾": 4435,
      "ØµØ§Ø¯": 4436,
      "Ø¶Ø±": 4437,
      "ĠØµØ§Ø¦Ø¨": 4438,
      "ĠØ¨Ø±ÙĪÙħÙĨØ¯": 4439,
      "ĠÙħØ±ÙĪØ§Ø±": 4440,
      "ÙģÛĮØª": 4441,
      "ØºÛĮØ¨": 4442,
      "ĠØ³ÛĮØ³ØªØ§ÙĨÛĮ": 4443,
      "ĠÙĩÙħØ³Ø±": 4444,
      "ĠØ§ÙĦÙħÙĦÙĪÚ©": 4445,
      "Ø¦ÛĮÙĨ": 4446,
      "ĠÙħÛĮÚ©": 4447,
      "ÙħØªÙĨ": 4448,
      "ĠØ¹ÙħÙĦÛĮØ§Øª": 4449,
      "ĠØ¢ÙħÙĪØ²Ùĩ": 4450,
      "ĠÙģÙĦØ³Ø·ÛĮÙĨ": 4451,
      "ĠÛĮØ§Ø¯ÙĨØ§ÙħÛĢ": 4452,
      "ĠØ¯Ø±ÛĮØ§ÛĮ": 4453,
      "ĠØªÙģØ³ÛĮØ±ÛĮ": 4454,
      "ĠØ³ÙģÛĮØ±": 4455,
      "ĠØ³ÙĪÙħÛĮÙĨ": 4456,
      "ĠÚ¯ÙģØªØ§Ø±ÙĩØ§ÛĮÛĮ": 4457,
      "ĠØ¯Ø¹Ø§ÛĮ": 4458,
      "ĠØ®Ø§ÙħÙĪØ´": 4459,
      "ĠØ¯Ø®ØªØ±Ø§ÙĨ": 4460,
      "ĠÙģÙĪÙĦØ§Ø¯": 4461,
      "ĠÙĦØ·ÛĮÙģ": 4462,
      "ĠÙħØŃØ¨ÙĪØ¨": 4463,
      "ĠÙĨØºÙħÙĩ": 4464,
      "ĠØ«ÙĤÙģÛĮ": 4465,
      "ĠØ¨ÛĮÚ¯Ø¯ÙĦÛĮ": 4466,
      "ĠÙħØ§Ø¯Ùĩ": 4467,
      "Ø³Ø±Ø§": 4468,
      "ĠØ¨Ø§Ø®": 4469,
      "ĠØ¨ÙĨØ¯Ø±": 4470,
      "ĠÚ©Ø§Ø®": 4471,
      "ĠÚ©ØªØ§ÛĮ": 4472,
      "ĠØ¬Ø¯": 4473,
      "ĠØ®Ø§Ø¯Ùħ": 4474,
      "ĠÙĤØ²": 4475,
      "ÙĨØ¯ÙĨ": 4476,
      "ĠÚ¯Ø§Ùĩ": 4477,
      "ĠÚ¯ÙħØ´": 4478,
      "ĠØµØ¨Ø§": 4479,
      "ĠÛĮØ§Ø±Ø§ÙĨ": 4480,
      "Ø§Ø¦ÙĤ": 4481,
      "ÙĪØ±ÛĮÙĩ": 4482,
      "ĠÙħØ¬ÙĨÙĪÙĨ": 4483,
      "ĠÙħØ³Ø£": 4484,
      "ĠØªØ±Ø¬ÙħÙĩÛĮ": 4485,
      "ĠØ¨ÛĮÚ©": 4486,
      "Ø±ÙĪØ¨": 4487,
      "ĠØ´Ø§ÙĩÙĨØ§ÙħÛĢ": 4488,
      "ĠÚ¯Ø±Ø¬ÛĮ": 4489,
      "ĠØ´ÙĩÛĮØ¯Ø¨ÙĩØ´ØªÛĮ": 4490,
      "Ú¯Ø±Ø¯Ø¢ÙĪØ±ÙĨØ¯Ùĩ": 4491,
      "ĠÙ¾Ø§ÛĮÚ¯Ø§Ùĩ": 4492,
      "Ø§ÙĦØ³ÙĦØ·ÙĨÙĩ": 4493,
      "ĠØ§ÙĨÚ¯ÙĦ": 4494,
      "ĠÙĪÙĦØ§ÛĮØªÛĮ": 4495,
      "ĠØ¨Ø§ÙĨØ¶ÙħØ§Ùħ": 4496,
      "ĠØ¨ÛĮØ³ØªÙħ": 4497,
      "ĠÙħÛĮÙĨÙĪ": 4498,
      "ĠÙģØ¯Ø§Ø¦ÛĮ": 4499,
      "ĠÚ¯Ø³ØªØ±Ø´": 4500,
      "ĠØŃØ§Ø´ÛĮÙĩ": 4501,
      "ĠÚ©ØªØ§ÛĮÙĪÙĨ": 4502,
      "Â»": 4503,
      "Ø§ÚĨ": 4504,
      "Ø§ÚĨÛĮ": 4505,
      "ÙħØ¹": 4506,
      "ÙĩØ§Ø¯ÛĮ": 4507,
      "ÙģØ§": 4508,
      "ÙĤØ¨": 4509,
      "ĠØ¨ÙĪÙħÛĮ": 4510,
      "ĠÙĪØ¬": 4511,
      "ĠØ§Ø°": 4512,
      "ĠØªÙģØ±": 4513,
      "ĠØªÙĤØ±": 4514,
      "ĠÚ©Ø²": 4515,
      "ĠØ¬Ø±ÛĮ": 4516,
      "ĠØ¢Ø±ÛĮØ§": 4517,
      "ĠÙĤØ¯Ùħ": 4518,
      "ĠØ§ØŃØ²Ø§Ø¨": 4519,
      "ÙģØ±ÙĪØ´": 4520,
      "Ø§Ø·Ø±": 4521,
      "ĠØ±ÙĪØ³ÛĮÙĩ": 4522,
      "Ø§ÙĤØ§Øª": 4523,
      "ĠÙħÛĮØ§ÙĨÙĩ": 4524,
      "ĠØ§ÙĤØªØ¨": 4525,
      "ĠÙĨÙĪØ±Ø¨Ø®Ø´": 4526,
      "ĠØ¯ÙĩÙħ": 4527,
      "ĠØ¯Ø³ØªÙĨÙĪÛĮØ³": 4528,
      "ĠÙħØ¬ÛĮØ¯ÛĮ": 4529,
      "ĠØ§ÙĦÙģÙĤ": 4530,
      "ĠØ³Ù¾ÛĮØ¯": 4531,
      "ĠÙħØ§ÙĩÛĮØª": 4532,
      "Ø¬ÙĪØ§Ø¯": 4533,
      "ĠØªØ·Ø¨ÛĮÙĤ": 4534,
      "ĠØ¯Ø§ÙĪØ¯ÛĮ": 4535,
      "ĠÙħØ³ÙĦÙħØ§ÙĨØ§ÙĨ": 4536,
      "ĠØ§ÙģØªØ®Ø§Ø±": 4537,
      "ĠØ§ÙĦØ§Ø³ÙĦØ§ÙħÛĮÙĩ": 4538,
      "ÙĤØ¶Ø§Ø¦ÛĮÙĩ": 4539,
      "ĠØ§ÙĦÙħØµØ·ÙģÛĮ": 4540,
      "ĠØ§ÙĨÙĪØ§Ø¹": 4541,
      "ĠÙĤÙģÙĤØ§Ø²": 4542,
      "Ø±Øº": 4543,
      "ÙħØ§ÙĦÛĮ": 4544,
      "ÙĪÙģÙĩ": 4545,
      "Ø³ÙĪÙģ": 4546,
      "ÙģØ§Ø±": 4547,
      "Ú©Ø§Ø¨": 4548,
      "ĠØªØ§Ø«": 4549,
      "ĠØ³Ø²": 4550,
      "ĠØŃØ³ÛĮ": 4551,
      "ĠØ¯Ø±ÙħØ§ÙĨ": 4552,
      "ĠÙĤÙĪÙħ": 4553,
      "ĠÙģØ±Ø®ÛĮ": 4554,
      "ØºØ§ÙĦ": 4555,
      "Ø§Ø¦Ùģ": 4556,
      "ĠÚĨØ±ÛĮÚ©": 4557,
      "Ø§Ø´Ø±Ùģ": 4558,
      "ĠØªØŃØª": 4559,
      "Ø°ÛĮ": 4560,
      "ĠØ³Ø±ØªÛĮ": 4561,
      "ĠÙħØ¤ÙħÙĨÛĮ": 4562,
      "Ø¯ÙĩÙħ": 4563,
      "ĠÚĨØ§Ù¾Ø®Ø§ÙĨÛĢ": 4564,
      "ĠØ·Ø¨Ø³ÛĮ": 4565,
      "ĠÚ¯Ø²ÛĮÙĨÙĩ": 4566,
      "ĠÚ©ÙĦÙĩØ±": 4567,
      "ĠÙ¾ÛĮØ±ÙĪØ²ÛĮ": 4568,
      "ĠØ¹Ø·Ø§Ø¡": 4569,
      "ĠÙĨØ´Ø§ÙĨÙĩ": 4570,
      "ĠÙĩÙģØªØ§Ø¯": 4571,
      "ÙĪØ´ÛĮØ¬": 4572,
      "ĠØ¬Ø³ØªØ§Ø±ÛĮ": 4573,
      "ĠÚ©ÙħÛĮØ³ÛĮÙĪÙĨ": 4574,
      "ĠØ¨Ø¯ÙĪÙĨ": 4575,
      "ĠØ¯Ø¹Ø§ÙĪÛĮ": 4576,
      "ĠÙģØ§Ø±ÙĪÙĤ": 4577,
      "ĠØ±Ø§Ø¯ÛĮÙĪ": 4578,
      "ĠØ§ÙĨØ³ØªÛĮØªÙĪØª": 4579,
      "ĠØ¢ÛĮØ¯ÛĮÙĨ": 4580,
      "ĠØŃØ§Ø¶Ø±": 4581,
      "Û³Û": 4582,
      "ÙĨØ§ÙĨ": 4583,
      "ĠÙħÙĪØ±Ø¯": 4584,
      "Ú©ÙĪÙĩ": 4585,
      "Ø¨Ø§ÙĤ": 4586,
      "ĠØ¯Ú¯Ø±": 4587,
      "ĠØ³ÙĪØ³ÛĮ": 4588,
      "ĠØ¹ÙĤÛĮ": 4589,
      "ÛĮÙĨØ§": 4590,
      "ĠØ´ÛĮØ¯Ø§": 4591,
      "ĠÙ¾Ø§Ø²": 4592,
      "ĠØ¬ÙĩØ±": 4593,
      "ĠØ¯Ø±Ú¯Ø°Ø±": 4594,
      "ĠÚ¯ÙĪÙĨÙĩ": 4595,
      "ĠØµØ§ØŃ": 4596,
      "ĠØ·Ø¨Ø±": 4597,
      "ÙĪØ±ÛĮØ§ÙĨ": 4598,
      "Û±Û°": 4599,
      "ĠØªØ£Ú©ÛĮØ¯": 4600,
      "ĠØ±ÙĪØ¶Ùĩ": 4601,
      "Ø§Ø²ÛĮØ§Ø±": 4602,
      "ĠØ±Ø³ÙĪÙħ": 4603,
      "ĠÚ©Ø±Ø§ÙħØª": 4604,
      "ĠÙģØ±ÛĮØ§Ø¯": 4605,
      "ĠÙħÙĩØ±Ø¨Ø§ÙĨ": 4606,
      "Ø³Ø±Ø§ÛĮ": 4607,
      "ĠØ£Ø¹": 4608,
      "ĠØ§ÙĦÚ©ØªØ§Ø¨": 4609,
      "ĠØ®Ø¯ÙħØª": 4610,
      "ĠÙħÛĮÙĦØ§ÙĨÛĮ": 4611,
      "ĠØ¬Ø§ÙĪÛĮØ¯Ø§ÙĨ": 4612,
      "ĠØ§Ø´Ø±Ø§ÙĤ": 4613,
      "ĠØ±Ø¤ÛĮØ§": 4614,
      "ĠØ®ÙĪØ§Ø±Ø²ÙħÛĮ": 4615,
      "ĠÙĩÙħÛĮØ´Ùĩ": 4616,
      "ĠC": 4617,
      "ÙĨØ§ÛĮ": 4618,
      "ÙĩØ§Ùħ": 4619,
      "ĠÙħØ§Ø²ÛĮØ§Ø±": 4620,
      "Ø§ÙĨÙĦÙĪ": 4621,
      "ÙģØ§ÙĦ": 4622,
      "Ø¨Ø·": 4623,
      "Ø§Ø±ÙħÛĮ": 4624,
      "ĠØ³ÙħØ±ÙĤÙĨØ¯ÛĮ": 4625,
      "ĠÚ©Ø³ÛĮ": 4626,
      "ĠØ±Ø®": 4627,
      "ĠÙħØŃØ±Ùħ": 4628,
      "ĠØ¯Ø±Ø®Ø´Ø§ÙĨ": 4629,
      "ĠÙĩØ°Ø§": 4630,
      "ÙĪÛĮÙĦ": 4631,
      "ĠØ²Ø§ÙĩØ¯": 4632,
      "ĠÚ¯Ø§Ùħ": 4633,
      "ĠÛĮÙĪØ´ÛĮØ¬": 4634,
      "ØºÙĨ": 4635,
      "Ø§Ø³ÛĮÙĪÙĨ": 4636,
      "ĠØ·Ø¨Ø±ÛĮ": 4637,
      "ĠÙģØ±ÙĩØ§Ø¯ÛĮ": 4638,
      "ĠØ§Ø¨Ø±Ø§Ø±": 4639,
      "ĠÙħÙĨØ§Ø¸": 4640,
      "Ø¢Ø±Ø§": 4641,
      "Ø¢ÙĤØ§": 4642,
      "Û±Û´": 4643,
      "ĠÙĦÙĦ": 4644,
      "ÙĤÙĦØ§ÙĦ": 4645,
      "Ø§ÙģØ¹": 4646,
      "ĠØºÙĦØ§ÙħÛĮÙĩ": 4647,
      "ÙħÛĮÙĨÙĩ": 4648,
      "ĠÚ©Ø§Ø±Ø¨Ø±Ø¯": 4649,
      "ĠØ§ÙĦØ¹Ø²ÛĮØ²": 4650,
      "ĠÙģØ±ÛĮØ¨Ø±Ø²": 4651,
      "ĠÙħÙĦÛĮØŃÙĩ": 4652,
      "ĠØ¢Ø±Ø§ÙĨÛĮ": 4653,
      "ĠØªØ¬Ø³ÙħÛĮ": 4654,
      "ĠØ°ÙĪØ§ÙĦ": 4655,
      "ĠØ§ÙĦØ³ÙĦØ§Ùħ": 4656,
      "ĠØ¹Ø¨Ø¯Ø§ÙĦÚ©Ø±ÛĮÙħ": 4657,
      "ĠÚ©Ø§Ø´ÙģÛĮ": 4658,
      "ÙĨØªÙĪÙĨ": 4659,
      "ÙĨÙĪÛĮØ³ÙĨØ¯Ùĩ": 4660,
      "ĠØ¯Ø§ÙĨØ´Ø¬ÙĪÛĮÛĮ": 4661,
      "ĠÙĪÙģØ§ÛĮÛĮ": 4662,
      "ĠÙħØ³Ø¦ÙĪÙĦÛĮØª": 4663,
      "ĠÙ¾Ø¯Ø±Ø§Ùħ": 4664,
      "ĠØ¹ÙħÙĦÚ©Ø±Ø¯": 4665,
      "ĠÙħÙģØªØ§ØŃ": 4666,
      "ĠØ³Ø±Ø§ÛĮÙĨØ¯Ùĩ": 4667,
      "ĠØ§ÙĦØŃØ³ÙĨÛĮ": 4668,
      "ĠÙĨØ§Ø´ÙĨØ§Ø®ØªÙĩ": 4669,
      "ĠØ¨ÙĨÙģØ´Ùĩ": 4670,
      "ĠÙħÚ©Ø§Ø±Ùħ": 4671,
      "ĠØ±ÚĺÛĮÙħ": 4672,
      "Ø±ÚĺÛĮ": 4673,
      "ÙĨÛĢ": 4674,
      "ÙģÙĪ": 4675,
      "Ø¨ÙĦÛĮ": 4676,
      "ĠØ¨ÙĪØ±": 4677,
      "ĠØªØ¯ÛĮÙĨ": 4678,
      "ĠÙĨØª": 4679,
      "ĠÙĨØ·": 4680,
      "Ø§ÛĮØŃ": 4681,
      "Ø²Ø¨Ø§ÙĨ": 4682,
      "ĠØ¹Ø¬": 4683,
      "Ø¬Ø±ÛĮ": 4684,
      "Ø¬ÙĪØ¨": 4685,
      "ĠÚ©Ø§ÙģÛĮ": 4686,
      "ĠØŃÙĨ": 4687,
      "ĠØ±ÙĪÙĨ": 4688,
      "ĠÙ¾Ø´": 4689,
      "ĠÙ¾Ø§ÛĮÛĮ": 4690,
      "Ø§Ø¨Ø§Ø¯": 4691,
      "ĠØ²Ø¹": 4692,
      "ĠÙħÙĨØªØ´Ø±": 4693,
      "ÙĪÙħØªÛĮ": 4694,
      "ĠØ§ÙĦÙħØ±": 4695,
      "ĠÙħØ¬ÙĦÛĢ": 4696,
      "ĠØ±ÙĪØŃÛĮ": 4697,
      "ĠØ§Ø³ØªØ¹Ùħ": 4698,
      "ĠÙ¾ÚĺÙĪÙĩØ´Ú¯Ø±Ø§ÙĨ": 4699,
      "ĠÙħÙĪØŃØ¯ÛĮ": 4700,
      "ĠØ§Ø´Ø§Ø±Ø§Øª": 4701,
      "ĠÚ©Ø±Ø¨ÙĦØ§": 4702,
      "ĠÛ±Û³Û°Û": 4703,
      "ĠØ§ÙĦØ¹Ø§Ø±Ùģ": 4704,
      "ĠØ¢ÛĮØªÛĮ": 4705,
      "ĠÙĤØµÛĢ": 4706,
      "ĠØ®ÙĦØ®": 4707,
      "ĠØ´ÙĩØ±ÛĮØ§Ø±ÛĮ": 4708,
      "ĠÙĨÛĮÚ©ÙĪ": 4709,
      "ĠÚ©Ø§ÙĪÛĮ": 4710,
      "ĠÚ¯ÛĮØªÛĮ": 4711,
      "ĠÙģØ¯Ø§ÛĮÛĮ": 4712,
      "ĠØ§ÙĦØŃÚ©ÙħÙĩ": 4713,
      "ĠØ¨Ø³Ø·": 4714,
      "ĠÚ©Ø§ØªØ¨": 4715,
      "ĠØ§Ø³ÙģÙĨØ¯ÛĮØ§Ø±": 4716,
      "ĠØ±Ø¨ÛĮØ¹": 4717,
      "ĠØ·ÙĩÙħØ§Ø³Ø¨ÛĮ": 4718,
      "ĠØ¹Ø§Ø¨Ø¯ÛĮÙĨÛĮ": 4719,
      "ĠÙĦØºØª": 4720,
      "ĠÙħØŃØ§Ú©Ùħ": 4721,
      "ĠØ§Ø±Ø¯ÛĮØ¨ÙĩØ´Øª": 4722,
      "ĠØ§ÙĤØªØ¨Ø§Ø³": 4723,
      "Ø±Ú¯ÛĮ": 4724,
      "ÙĪØ³ØªØ§ÙĨ": 4725,
      "ĠÙħØ¶": 4726,
      "ĠÙħØªØ±": 4727,
      "ĠÙħØ§Ø±Ú©": 4728,
      "ØŃØ§Øª": 4729,
      "Ø§ÛĮØ§": 4730,
      "Ø§ÙħØ§Øª": 4731,
      "ĠÚ©ÙĨÛĮ": 4732,
      "ĠØ±ÙĩÛĮ": 4733,
      "ĠØ±Ø§ØŃ": 4734,
      "ĠÙ¾Ø²Ø´": 4735,
      "ĠÚ¯ÛĮØª": 4736,
      "ĠÙģØ±ÙĤ": 4737,
      "ÛĮÙħØ§": 4738,
      "Ø§Ø¹Ø¯ÛĮ": 4739,
      "Ø«Ø±ÛĮ": 4740,
      "ĠÙħÙĨÙĩ": 4741,
      "ĠØªØ§Ú©ÛĮØ¯": 4742,
      "ĠÙ¾ÚĺÙĪÙĩØ´Ú¯Ø±": 4743,
      "ĠØ¹Ø±ÙĪØ³": 4744,
      "ĠØ±ÙĪØ²ÙĩØ§ÛĮ": 4745,
      "ĠØ·Ø¨ÙĤÙĩ": 4746,
      "ĠØ§ÙĦÙĩØ§Ø¯ÛĮ": 4747,
      "ĠØ®ÙĦØ¹Øª": 4748,
      "ĠÙ¾ÛĮØ´ÛĮÙĨÙĩ": 4749,
      "Ø¯Ø§ÙĨØ§": 4750,
      "ĠÚĺØ§ÙĦÙĩ": 4751,
      "ĠØ§ÙĦÙĩÛĮØ§Øª": 4752,
      "ĠÚ©ÙĨÚ¯Ø±ÛĢ": 4753,
      "ĠÙģØªØŃØ¹ÙĦÛĮ": 4754,
      "ĠÙĪÙĤÙģ": 4755,
      "ĠØ§ÙĦØŃÚ©Ùħ": 4756,
      "ĠØªØ±Ú©ÙħÙĨ": 4757,
      "ĠÙĪØµÛĮØª": 4758,
      "Ø¨Ø®ØªÛĮ": 4759,
      "ĠØ³ÙĨØ¬Ø´": 4760,
      "ĠÙħØ³ÛĮØŃÛĮØª": 4761,
      "ĠØ·ÙĦÙĪØ¹": 4762,
      "ĠØ¯ÙģØªØ±ÛĮ": 4763,
      "ĠØ§ÙĦØ¹Ø§Ø±ÙģÛĮÙĨ": 4764,
      "·Û±": 4765,
      "ÙĨØ§Ø³": 4766,
      "ÙĪØ§Ø±ÛĮ": 4767,
      "Ø´ÙĪØ¯": 4768,
      "ĠØ¨ÙĪÛĮ": 4769,
      "ĠØ¯ÙĦÛĮ": 4770,
      "ĠØ³Ø¹ÛĮ": 4771,
      "Ø²ÙĨÛĮ": 4772,
      "ĠÙģØ®Ø±ÛĮ": 4773,
      "ĠØ¯Ø±ÙĪÛĮ": 4774,
      "ĠÙĩÙĨØ¯ÛĮ": 4775,
      "ĠÙħØ¹Ø§Ø¯": 4776,
      "ÙĩÛĮÙħÛĮ": 4777,
      "ĠØ§ÙĨØªØ´Ø§Ø±Øª": 4778,
      "Ø§Ø·ÛĮ": 4779,
      "ĠØ±ÙĪÙĨØ¯": 4780,
      "ĠØ´Ø¹Ø¨Ùĩ": 4781,
      "ĠÙħÛĮÙĩÙĨ": 4782,
      "ĠÙħØ·Ø§ÙĦØ¹": 4783,
      "ĠØ§Ø¹ØªØµ": 4784,
      "ĠØµÙģØ§Ø¦ÛĮ": 4785,
      "ĠØ´Ú©Ø±ÛĮ": 4786,
      "ĠØ³ÙĨØ§Ø¦ÛĮ": 4787,
      "ĠØ³ÛĮÙĨÙħØ§ÛĮÛĮ": 4788,
      "ĠÙģØ±Ø²Ø§ÙĨ": 4789,
      "ĠÙģØ±Ø²ÛĮÙĨ": 4790,
      "ĠØ²ÙħØ§ÙĨÙĩ": 4791,
      "ĠÙĤÙĪØ§Ùħ": 4792,
      "ĠÙ¾ÙĪÙĩÙĨØªÙĪÙĨ": 4793,
      "ĠØŃÙģØ§Ø¸": 4794,
      "ĠØ³Ø§Ø³Ø§ÙĨÛĮØ§ÙĨ": 4795,
      "ĠØ²Ø¨Ø§ÙĨØ´ÙĨØ§Ø³ÛĮ": 4796,
      "ĠÙĤØ§ÙĨÙĪÙĨÛĮ": 4797,
      "ĠÙĪØ§Ø¹Ø¸ÛĮ": 4798,
      "ĠÚĨØ´ÙħØ§ÙĨ": 4799,
      "ĠÚ¯Ø²ÛĮØ¯ÙĩÛĮ": 4800,
      "ĠØ§ØŃÛĮØ§Ø¡": 4801,
      "ĠØ´Ø§Ø®Øµ": 4802,
      "Û±Û³ÛµÛ·": 4803,
      "ĠØ§ÙĨÚ¯ÙĦØ³ØªØ§ÙĨ": 4804,
      "Ø²ÛĮØ±": 4805,
      "ÙĦÛĮØ³": 4806,
      "Ø§Ø¯Ø±Ø§ÙĨ": 4807,
      "Ø§ÙĦÙģ": 4808,
      "Ø§Ø³Ø§ÙĨÛĮ": 4809,
      "ĠÙ¾Ø¯": 4810,
      "ÙĪØ±ØªÛĮ": 4811,
      "Ø¶Ø§ÛĮÛĮ": 4812,
      "ĠØ²Ùĩ": 4813,
      "ĠØ²Ø±Ø¯": 4814,
      "ĠÚ¯ÙĦÛĮ": 4815,
      "ĠØ§ÙĨØ±ÚĺÛĮ": 4816,
      "ĠÙħÙĨØ§Ø·ÙĤ": 4817,
      "ĠÙħØ·Ø§Ø¨ÙĤ": 4818,
      "ĠØ§Ø³ØªÙĤÙĦØ§ÙĦ": 4819,
      "ĠØ´Ø§ÙĩØ¯": 4820,
      "ĠÙ¾Ø±Ø§Ú©": 4821,
      "ĠÚ©Ø±Ø¨ÙĦ": 4822,
      "Ø§ÙĪÛĮØ±": 4823,
      "ĠØ´ÙĩØ±Ø²Ø§Ø¯": 4824,
      "ĠØ´ÙĩØ±Ø³ØªØ§ÙĨÛĮ": 4825,
      "ĠÙĨÚ¯Ø§Ø±ÙĨØ¯Ùĩ": 4826,
      "ĠÙħØ´ÛĮØ±ÛĮ": 4827,
      "ĠÙħÛĮØ±Ø²Ø§Ø¦ÛĮ": 4828,
      "ĠÚ©ÙĦØ¨Ø§Ø³ÛĮ": 4829,
      "ĠØ´Ú©ÙĪÙģÙĩ": 4830,
      "ĠØ²ÛĮØ³Øª": 4831,
      "ØªÙĪÚ¯Ø±Ø§ÙģÛĮ": 4832,
      "ĠÚĺÛĮÙĦØ§": 4833,
      "ĠÚ¯ÙģØªØ§Ø±ÙĩØ§ÛĮ": 4834,
      "ĠØ³Ø§ÙħØ§ÙĨ": 4835,
      "ĠÙĪÙĤØªÛĮ": 4836,
      "ĠØ§ÙĦØ§ÙħØ§Ùħ": 4837,
      "ĠÚ©Ø§ØªÙĪØ²ÛĮØ§ÙĨ": 4838,
      "ĠÚ¯ÙĪØ´Ùĩ": 4839,
      "ĠØªØ§Ø¬ÛĮÚ©Ø³ØªØ§ÙĨ": 4840,
      "ĠÚ©ÙĦØ§ÙĨØªØ±ÛĮ": 4841,
      "ĠÙħÙĤØµÙĪØ¯": 4842,
      "ĠØŃÙģØ§Ø¸Øª": 4843,
      "ÛĮÙģ": 4844,
      "Ø±ÙĪØ²": 4845,
      "ĠÙħØ§ÙĨÛĮ": 4846,
      "ĠÙħÚĺ": 4847,
      "Ú©Ø´ÛĮ": 4848,
      "Ø¨ÛĮÙĨÛĮ": 4849,
      "ĠÙĨØ§ÙĨ": 4850,
      "ĠØ¬ÙĪÛĮ": 4851,
      "ĠØ¢Ø¨Ø§ÙĨ": 4852,
      "ĠÙħØŃÙħØ¯ØŃØ³ÛĮÙĨ": 4853,
      "ĠÙĤÛĮÙħ": 4854,
      "ĠÚ¯Ø±Ú¯Ø§ÙĨÛĮ": 4855,
      "ÙĩØ§ÛĮØª": 4856,
      "ĠØ§ÙħÙ¾": 4857,
      "ĠÚĨØ§ÛĮ": 4858,
      "Ø¹ÙĩØ¯": 4859,
      "Ø¢ÙħÙĪØ²": 4860,
      "ĠØºØ±ÛĮ": 4861,
      "ĠØªØ£ÙħÙĦ": 4862,
      "ĠØ¯Ø§ÙĨØ´ÙĨØ§ÙħÛĢ": 4863,
      "ĠØ§ÙģØ¶ÙĦÛĮ": 4864,
      "Ú©ÛĮØ§ÙĨ": 4865,
      "ĠØ´ÛĮØ·Ø§ÙĨ": 4866,
      "ĠØ¹ÙħØ§Ø¯ÛĮ": 4867,
      "ĠÚ©Ø´Ú©": 4868,
      "ĠÙħØ¤ÙĦÙģÛĮÙĨ": 4869,
      "¹Û²": 4870,
      "ĠÛĮØ§Ø¯Ø§Ø´Øª": 4871,
      "Û±Û³Û¶Û": 4872,
      "ĠÙħÙģÛĮØ¯": 4873,
      "ĠØ¹Ú©Ø§Ø³": 4874,
      "ĠÙĪØ§ÙĤØ¹ÛĮØª": 4875,
      "ĠÙĤÙĦØ¹Ùĩ": 4876,
      "ĠÛĮÙĩÙĪØ¯ÛĮ": 4877,
      "ĠÙ¾ÙĪØ³ØªØ±": 4878,
      "ĠÙĪØ¸Ø§ÛĮÙģ": 4879,
      "ĠØ°Ø®Ø§Ø¦Ø±": 4880,
      "Ú¯ÙĨØ¬ÙĪÛĮ": 4881,
      "ĠÚ¯ÙħØ´Ø¯Ùĩ": 4882,
      "ÙĨÙĩÛĮ": 4883,
      "ÙĩØ§Ø¦ÛĮ": 4884,
      "ĠÙħØ§Ùħ": 4885,
      "Ø³ÛĮØ¯": 4886,
      "ĠØ¨Ø®Øª": 4887,
      "ĠÙĪÚ©": 4888,
      "ĠÙĨØ¯ÛĮ": 4889,
      "ĠØ³Ø§Ø¹Øª": 4890,
      "ĠØ±Ø§ÙĩÛĮ": 4891,
      "ĠØ¯Ø±Ø³ÛĮ": 4892,
      "ØµÙĪÙĦ": 4893,
      "ĠØ®ÙĪÛĮÛĮ": 4894,
      "ĠØ¨ÙĩØ¬Øª": 4895,
      "ÙħÙĩÙĩ": 4896,
      "Ø§Ø·ÛĮÙĨ": 4897,
      "ĠØ§ÙģÙĤ": 4898,
      "Ø±ÙĪÙĨÛĮ": 4899,
      "ĠØ´ÙĩÙĨØ§Ø²": 4900,
      "Ø´ÙĩØ¯": 4901,
      "ĠÙ¾Ø±ÙĨØ¯Ùĩ": 4902,
      "ĠØ±Ø³Ø§ÙĦØª": 4903,
      "ĠØ±ØŃÙħØªÛĮ": 4904,
      "ĠØªØ¬Ø§Ø±": 4905,
      "Ø§ÙĦÙħÙĦÚ©": 4906,
      "ĠÙĤØµØ§ÛĮØ¯": 4907,
      "ØŁ]:": 4908,
      "ĠØ§Ø±Ø¯Ø³ØªØ§ÙĨÛĮ": 4909,
      "ĠÚ©Ø±ÛĮÙħÛĮØ§ÙĨ": 4910,
      "ĠØ¯ÙĪÙĦØªØ¢Ø¨Ø§Ø¯ÛĮ": 4911,
      "ĠÚ©Ø§ÙĪØ´": 4912,
      "ĠØªØ±Ú©ÛĮÙĩ": 4913,
      "ĠÛ²Û°Û°": 4914,
      "ĠÙĨØ§Ø¸Ùħ": 4915,
      "ĠØ§ÙĦØ·Ø¨": 4916,
      "ĠØ§ÙĦØ³ÙĦØ·Ø§ÙĨ": 4917,
      "ĠÙĪÛĮØ±Ø§Ø³ØªØ§Ø±ÛĮ": 4918,
      "ĠÙĨØ§Ø´Ø±": 4919,
      "ĠÙħØ§ÙĦÚ©ÛĮØª": 4920,
      "ĠØªÙĪÙĦØ¯": 4921,
      "ĠØµÛĮØ§Ø¯": 4922,
      "ĠÙħØ´Ø§ÛĮØ®ÛĮ": 4923,
      "ĠÙħØ±ÙĪØ§Ø±ÛĮØ¯": 4924,
      "ĠD": 4925,
      "ÛĮØ²": 4926,
      "ÙģÙĤÛĮ": 4927,
      "Ú©ÙĪØ±": 4928,
      "Ø¨ÙĨØ¯": 4929,
      "Ø¨ØªÛĮ": 4930,
      "ĠØ¯Ø®Øª": 4931,
      "ĠÚ©Øª": 4932,
      "ĠØŃØ¨": 4933,
      "ĠØŃØ¯ÛĮ": 4934,
      "ĠØŃØ±ÙĪÙģ": 4935,
      "ĠØ´Ø§Ø±": 4936,
      "ÙħØ¯ÙĨÛĮ": 4937,
      "ĠØ§ÙĦÙĨØ¬": 4938,
      "ĠÙ¾Ú¯Ø§Ùĩ": 4939,
      "ĠØ¯Ø±ÙĪÙĨ": 4940,
      "ØµØ¯Ø±": 4941,
      "ĠØ®Ø¬": 4942,
      "ĠØ®ÙĦØ§": 4943,
      "ĠÙĤÙĦØ¨": 4944,
      "Ø³ØªÙĨÛĮ": 4945,
      "ÙģÛĮÙĩ": 4946,
      "ĠÚĨÛĮÙĨ": 4947,
      "ĠØ§Ø¨Ø·": 4948,
      "Û±Û·": 4949,
      "ĠØ¹Ø¨Ø¯ÙĦÛĮ": 4950,
      "ĠØ¯ÛĮÙĪØ§Ø±": 4951,
      "ĠØ´Ø¹ÙĦÙĩ": 4952,
      "ĠÙħÛĮØ²Ø§ÙĨ": 4953,
      "ĠØ§Ø¬ØªÙĩ": 4954,
      "ĠØ¹ÙĦÙħÛĮÛĢ": 4955,
      "ĠÙĩÙĨØ±ÙħÙĨØ¯Ø§ÙĨ": 4956,
      "ĠØ°Ø§Ú©Ø±": 4957,
      "ĠÛĮØ§Ø¯ÙħØ§ÙĨ": 4958,
      "ĠØ¬ÙĨØ§Ø¨": 4959,
      "ĠØ´Ú©Ø³Øª": 4960,
      "ĠÙĨØ¸Ø±ÛĮØ§Øª": 4961,
      "ĠØ³ÛĮÙħØ±Øº": 4962,
      "ĠÙ¾Ø±ÙĪÚĺÙĩ": 4963,
      "ĠØ®Ø·ÛĮØ¨ÛĮ": 4964,
      "ĠÚ©ÙĪØ¯ØªØ§ÛĮ": 4965,
      "ĠØ¹Ø§Ø´ÙĤØ§ÙĨ": 4966,
      "ĠØ§ÙĦÙĨØ¨ÛĮ": 4967,
      "ĠØ¹Ø§Ø¨Ø¯": 4968,
      "ĠØ¢Ø´ÙĨØ§Ø¦ÛĮ": 4969,
      "ĠÙģØ±Ø®Ø²Ø§Ø¯": 4970,
      "ĠØ¸ÙĩÛĮØ±": 4971,
      "Ø´ÙĨØ§Ø³Ø§ÙĨ": 4972,
      "ĠÙ¾Ø§Ø±ÛĮØ³": 4973,
      "ĠØŃØ§Ú©Ùħ": 4974,
      "ĠØªÙĪØ±Ø¬": 4975,
      "ĠÙ¾Ø§ÙĨØ²Ø¯Ùĩ": 4976,
      "ĠØ§ØŃÛĮØ§ÛĮ": 4977,
      "ĠÚ©Ø§Ø±ÛĮÚ©Ø§Øª": 4978,
      "ĠØ§ÛĮØ¯Ø¦": 4979,
      "ĠÙħØ®Ø·ÙĪØ·Ø§Øª": 4980,
      "in": 4981,
      "¶Û±": 4982,
      "Ø¯ÙĩØ§": 4983,
      "ÙģÙĤÛĮÙĩ": 4984,
      "ĠÙĨÛĮØ±ÛĮ": 4985,
      "ĠÙĨØ§Ø¬ÛĮ": 4986,
      "ĠÙģØ§ÙĨÛĮ": 4987,
      "ĠØ±Ø¦": 4988,
      "ĠØ±Ø´Øª": 4989,
      "ĠØ¢Ø²": 4990,
      "ĠÙĩØ§Ø¬Ø±": 4991,
      "ĠØ§Ø³Ø¹Ø¯": 4992,
      "ĠÙħØ±Øº": 4993,
      "ĠØŃØ³ÛĮÙĨØ²Ø§Ø¯Ùĩ": 4994,
      "Ø§Ø¹Ùĩ": 4995,
      "ĠÚĨØ§Ø±": 4996,
      "ĠØ§Ø¨Ø¹Ø§Ø¯": 4997,
      "ĠÙħÙĩÙħØ§ÙĨ": 4998,
      "ĠÙħÙĩØªÙħÙħ": 4999,
      "ĠØ§ÙģØºØ§ÙĨÛĮ": 5000,
      "ĠÙħØµÙĨ": 5001,
      "ĠÙĨÙĪØ§ÛĮÛĮ": 5002,
      "ĠÛ±Û³Û¹Û°": 5003,
      "ĠØ¨ÛĮÙĨØ´": 5004,
      "ĠÚ¯ÙģØªÚ¯ÙĪÛĮ": 5005,
      "ĠÚ¯Ø²ÛĮÙĨÛĢ": 5006,
      "ĠÙĨØ¬Ø§ØªÛĮ": 5007,
      "ØºØ±Ø¨ÛĮ": 5008,
      "ĠÙĤØµÛĮØ¯Ùĩ": 5009,
      "ĠØ´Ú©ÙĪØ±ÛĮ": 5010,
      "ĠÚ©ÙĨÙĪÙĨÛĮ": 5011,
      "ĠÙ¾Ø§ÛĮØ¯Ø§Ø±": 5012,
      "ĠÙĪÛĮÙĦÛĮ": 5013,
      "ĠØªØ¨ÙĦÛĮØº": 5014,
      "ĠØ±Ø³ØªÚ¯Ø§Ø±": 5015,
      "ĠØ¹Ø¯ÙĦ": 5016,
      "ĠØ§ÙĦØµÙħØ¯": 5017,
      "ĠØµØ¨ÙĪØ±ÛĮ": 5018,
      "ĠÙħØ¹ØªØ¨Ø±": 5019,
      "ĠÙħØ§ÙĨØ¯Ø§ÙĨØ§": 5020,
      "ĠÚ©ÛĮØ§ÙĨÙĪØ´": 5021,
      "ĠØ§Ø±Ø¯Ø¨ÛĮÙĦ": 5022,
      "ĠØµØŃÛĮÙģÙĩ": 5023,
      "ĠÚ¯Ø±Ø¯Ø§ÙĪØ±ÙĨØ¯Ùĩ": 5024,
      "ĠØ³Ø±ØªÛĮÙ¾": 5025,
      "Ø§Úĺ": 5026,
      "ĠØ§Ú¯Ø±": 5027,
      "ĠÙĪÙħ": 5028,
      "ĠÙĨØ§ÛĮ": 5029,
      "Ø±ÛĮØŃ": 5030,
      "ĠØŃÙĤØ§ÛĮÙĤ": 5031,
      "Ù¾ÙĪ": 5032,
      "ĠØ±ÙĩØ§": 5033,
      "ĠÙĤØ§Ø¯Ø±": 5034,
      "ĠÙĤØ³ÙħØª": 5035,
      "ĠØ§Ø³Ù¾": 5036,
      "ĠØ²Ø®": 5037,
      "ĠØ¨ÙĩØ§Ø¯Ø±": 5038,
      "Ø¨ÛĮØ²": 5039,
      "ĠØ·ÙĦØ¨": 5040,
      "ĠÙħØ¹Ø§ÙĪ": 5041,
      "Ø§Ø¬Ùħ": 5042,
      "ÚĺÙĪÙĩÛĮ": 5043,
      "ĠØªØ£ÙħÙĦÛĮ": 5044,
      "ĠÙħØ³ÛĮØ±": 5045,
      "ĠØ§Ø±Ø¬Ùħ": 5046,
      "Ø¨Ø§ÙĨÙĪ": 5047,
      "ĠÙ¾ÛĮÙĪØ³Øª": 5048,
      "ĠÚ©Ø§Ø±Ú¯Ø§Ùĩ": 5049,
      "ĠÚ©Ø´ÙĪØ±ÛĮ": 5050,
      "ĠØ§ÙĨØ¯ÛĮØ´Ùħ": 5051,
      "ĠØ±ØŃÙħÙĨÛĮ": 5052,
      "Ø§Ø«ÛĮ": 5053,
      "Û±Û³Û³Û": 5054,
      "ĠØ¨Ø®Ø§Ø±ÛĮ": 5055,
      "ĠØ£Ø¨ÙĪ": 5056,
      "ĠÙħØ®Ø¯Ø±": 5057,
      "ĠÙģÛĮÙĦØ³ÙĪÙģ": 5058,
      "ĠÚ¯ÛĮØ§ÙĩØ§ÙĨ": 5059,
      "ĠØ³ÙĩÛĮÙĦÛĮ": 5060,
      "ĠÙģØ±ÙħØ§ÙĨÙģØ±": 5061,
      "ĠÙĪØ§ÙĤØ¹ÛĮ": 5062,
      "Ø³Ø§ÙĦØ§Ø±": 5063,
      "ĠØ§ÙĦØ§ÙĨÙĪØ§Ø±": 5064,
      "ĠÙħØŃÙĦØ§ØªÛĮ": 5065,
      "ĠØ²Ú©Ø±ÛĮØ§": 5066,
      "ĠØ±Ø³ÛĮØ¯Ú¯ÛĮ": 5067,
      "Ġo": 5068,
      "Ø´ÙħÛĮ": 5069,
      "ĠØ¯Ø§Ú©": 5070,
      "ĠØ¯Ø§ÙĪØ±": 5071,
      "Ø§ÛĮØ§Ø±": 5072,
      "Ø±ÛĮØ³": 5073,
      "ĠÙħØŃØ¨ÛĮ": 5074,
      "ĠØ¯Ø±ÙĪØ³": 5075,
      "ĠÚ¯Ø³Øª": 5076,
      "ĠØ§ÙĨÚ©Ø´": 5077,
      "ĠØ·Ø±Ùģ": 5078,
      "ĠÙħØ¹Ø±Ùģ": 5079,
      "ĠÙħØ·ÙĩØ±": 5080,
      "ĠØ§Ø±Øº": 5081,
      "ĠØ³Ø§ÙĦØ§Ø±ÛĮ": 5082,
      "ĠÙħÛĮØ¨Ø¯ÛĮ": 5083,
      "ĠÚ©Ø±Ø¨Ø§Ø³ÛĮ": 5084,
      "ÙĦÙĪØ¨": 5085,
      "ĠØ§Ø®ØªØµ": 5086,
      "Ø²Ø§Ø¯Ú¯Ø§ÙĨ": 5087,
      "ĠØ±ÙĪØ²ÛĮ": 5088,
      "ĠÛĮØ§ÙĪØ±ÛĮ": 5089,
      "ĠØ±ÛĮØ§Ø¶": 5090,
      "ĠÚ©ÙĦÙħÙĩ": 5091,
      "ĠØ¢ÙĤØ§Ø¬": 5092,
      "ĠØ±Ø¬Ø§Ø¦ÛĮ": 5093,
      "ĠÙħÛĮÙĨÙĪÛĮ": 5094,
      "ĠÚ©ÙĪØ«Ø±": 5095,
      "ĠÙħØ¹ØªÙħØ¯ÛĮ": 5096,
      "ĠØ·ÙĦØ§ÛĮÛĮ": 5097,
      "ĠØ·Ø±Ø§ØŃØ§ÙĨ": 5098,
      "ĠØ¨ÛĮØªØ§": 5099,
      "ĠÙĨØ§Ú¯ÙģØªÙĩ": 5100,
      "ĠÙ¾ÙĪØ±ÛĮØ§": 5101,
      "ĠØ§Ø¹ØªÙĤØ§Ø¯ÛĮ": 5102,
      "ĠØªØ§Ø«ÛĮØ±": 5103,
      "ĠØ¬ÙĩØ±ÙħÛĮ": 5104,
      "°Û°": 5105,
      "ÙħÙĪØ¯": 5106,
      "ĠÙħØ§Ø³": 5107,
      "ĠÙħÙĪØ±Ø¯ÛĮ": 5108,
      "ÙĤÙĨ": 5109,
      "ĠØ¨ÙĪÛĮØ±": 5110,
      "ĠÙĪÛĮØ¯Ø§": 5111,
      "ĠØªÙĨÚ¯": 5112,
      "ĠØŃÙģÛĮØ¸": 5113,
      "ĠØ´Ø§Ú©Ø±ÛĮ": 5114,
      "ĠÙħØŃØ¨Øª": 5115,
      "Ø®ØªÛĮ": 5116,
      "Ø®Ø´ÛĮ": 5117,
      "ĠØ®ÙĦÙģ": 5118,
      "ĠÙĤØ¶Ø§": 5119,
      "ĠÚ¯Ùħ": 5120,
      "ĠÚ¯Ø±Ú¯": 5121,
      "ĠØ¯Ø§ÙĨØ´Ú¯Ø§": 5122,
      "Ø§ÙģØ¹ÛĮ": 5123,
      "..:": 5124,
      "Ú©Ø§Ø±ÙĩØ§ÛĮ": 5125,
      "ĠØŃØ¬Ø§Ø¨": 5126,
      "ĠØªÙĪØ³Ø·": 5127,
      "ĠØ®ÛĮØ§Ø¨Ø§ÙĨ": 5128,
      "ĠØ®Ø¯Ø§Ø¨": 5129,
      "ĠØ¬Ø²Ø§ÛĮ": 5130,
      "ĠØ¢Ø³ÛĮØ§": 5131,
      "ĠØ³ÙĪÚ¯": 5132,
      "ĠØºÙģÙĪØ±ÛĮ": 5133,
      "ĠØ®Ø§ØªÙħ": 5134,
      "ĠØ®Ø±ÙħØ´Ø§ÙĩÛĮ": 5135,
      "ĠÙģÛĮÙĦÙħÙĨØ§ÙħÙĩ": 5136,
      "ĠØŃØ§Ú©ÙħÛĮØª": 5137,
      "ĠÙĤØ±Ø§Ø±Ø¯Ø§Ø¯ÙĩØ§ÛĮ": 5138,
      "ĠØ±Ø¨ÛĮØ¹ÛĮ": 5139,
      "ĠØ·Ø±ÛĮÙĤ": 5140,
      "ĠÙħÚ©Ø§ØªØ¨Ø§Øª": 5141,
      "ĠØªØºÛĮÛĮØ±": 5142,
      "ĠØ³ÙĪØ³ÙĨ": 5143,
      "ĠÙħØ§ÛĮÙĦ": 5144,
      "ĠÙħØ¯ÛĮÙĨÙĩ": 5145,
      "ÙģØ§Ø¯Ùĩ": 5146,
      "Ø¨ÙĪÙĦ": 5147,
      "Ø¹Ø¯ÛĮ": 5148,
      "ĠØ³Ø·": 5149,
      "Ø§ÙħØ¨Ø±": 5150,
      "Ù¾Ø±Ø¯": 5151,
      "ĠØ´Ø§Ú©Ø±": 5152,
      "Ø®Ø§": 5153,
      "ĠÙ¾ÙĪÙĦÛĮ": 5154,
      "ĠØ¢ÛĮÙĨÛĢ": 5155,
      "ĠØ¯Ø±Ø¨ÛĮØ§ÙĨ": 5156,
      "ÙĪÛĮØ¬": 5157,
      "ĠÙģØ±ÙĪØ´": 5158,
      "ĠØµÙĦÙĪ": 5159,
      "ĠÛĮÚ©Øª": 5160,
      "Ø§Ø¦ÙĨ": 5161,
      "ĠÙħÙĩØ¯": 5162,
      "Û±Û¸Û": 5163,
      "ĠØ³ÛĮÙģÛĮ": 5164,
      "ØªÙħØ¹ÛĮ": 5165,
      "ĠÙĤØ±Ø§": 5166,
      "ÙĤÛĮÙĤÙĩ": 5167,
      "ĠØ§Ø±Øª": 5168,
      "Ø´ÙĩØ±ÛĮ": 5169,
      "Ø³ÙĨØªÛĮ": 5170,
      "ĠÚ¯ÙĦØ²Ø§Ø±": 5171,
      "ĠØ§ÙĦØ¹Ø±Ø¨ÛĮ": 5172,
      "ĠØ§Ø¹ØªØ±": 5173,
      "ÙĤØ±ÙĨ": 5174,
      "ĠØ¨Ø§Ø²Ø´ÙĨØ§Ø³ÛĮ": 5175,
      "ĠØ§ÙĪØŃØ¯ÛĮ": 5176,
      "ĠØ³ÛĮØ±ÛĢ": 5177,
      "Ø´ÙħØ§Ø±ÛĮ": 5178,
      "ĠØ¹Ø¨Ø¯Ø§ÙĦØŃ": 5179,
      "ĠÚ¯ÙĨØ¬ÛĮ": 5180,
      "ĠØ¹Ø·Ø±": 5181,
      "ĠÚ©ÙĦÛĮØ¯": 5182,
      "ĠØ®ÙĪØ´ÙĨÙĪÛĮØ³ÛĮ": 5183,
      "ĠØ¹Ú©Ø³ÛĮ": 5184,
      "ĠØ¹ÙĨÙĪØ§ÙĨ": 5185,
      "ĠÙ¾Ø§Ø³Ø¯Ø§Ø±Ø§ÙĨ": 5186,
      "ĠÛĮØ§Ø³ÛĮÙĨ": 5187,
      "ĠÙħÙĤØ§ÙħØ§Øª": 5188,
      "ĠÙĤØ§Ø¦ÙħÛĮ": 5189,
      "ĠÚ©Ø²Ø§Ø²ÛĮ": 5190,
      "ĠØ§Ø³ØªØ¹ÙħØ§Ø±": 5191,
      "he": 5192,
      "´Û°": 5193,
      "ĠH": 5194,
      "Ø§ÙĪÙĦ": 5195,
      "Ø§Ú¯Ø±": 5196,
      "ÙĨÙħØ§ÛĮ": 5197,
      "ÙĪÙĦÙĩ": 5198,
      "ĠÙħÚ©ÛĮ": 5199,
      "ĠÙħØ²Ø§Ø±": 5200,
      "Ø´Ø¨": 5201,
      "Ø¨Ø§ÛĮÛĮ": 5202,
      "ĠÙĪØ§Ú©": 5203,
      "ØŃØ¶": 5204,
      "ĠØ¯ÙĨØ´": 5205,
      "ĠØªØ§ÙĦ": 5206,
      "ĠØ³Ø§Ø¹Ø¯ÛĮ": 5207,
      "ĠØ¹ÙĤÙĦÛĮ": 5208,
      "Ø§Ø¯Ø§": 5209,
      "ĠØ±Ø¯ÛĮ": 5210,
      "ĠØ±ÙģÛĮÙĤ": 5211,
      "ĠØ¢Úĺ": 5212,
      "ĠØ®Ø§Ø¯ÙħÛĮ": 5213,
      "Ø³ÛĮØ§Ø³ÛĮ": 5214,
      "ĠÙģØ±ÙĩÚ¯": 5215,
      "ĠÙħÙĨØ§ÙĤØ¨": 5216,
      "ÙĪØ±ÛĮØª": 5217,
      "ĠÙĦÙĤ": 5218,
      "Ø°Ø§Ø±ÛĮ": 5219,
      "ĠÙĩÙħØ§Ùĩ": 5220,
      "Ø§Ú©Ø¨Ø±ÛĮ": 5221,
      "ĠÛ±Û²": 5222,
      "ĠÙħØ³Ø§ÛĮÙĦ": 5223,
      "ĠØŃÙħØ§Ø³": 5224,
      "ĠÙħØªÙģ": 5225,
      "ĠØ¯ÙĩØ®Ø¯Ø§": 5226,
      "ĠØ¨Ø²Ø±Ú¯ÙħÙĩØ±": 5227,
      "ĠÚ©ÙĨØ§Ø±": 5228,
      "ĠØ£ÙĪ": 5229,
      "ØŁ]": 5230,
      "ĠØ¹Ø¨Ø¯Ø§ÙĦØ±Ø¶Ø§": 5231,
      "ĠÙħØ¯Ø±ÙĨÛĮ": 5232,
      "ĠØªØ¨Ø¹ÛĮØ¯": 5233,
      "ĠØ¨Ø§ÙĨÚ©ÛĮ": 5234,
      "ĠÙħØ®Ø²ÙĨ": 5235,
      "Ø³ØªØ±ÙĨ": 5236,
      "ĠØ±ÙħØ²": 5237,
      "ĠÚ©Ø±ÙħØ§ÙĨØ´Ø§ÙĩÛĮ": 5238,
      "ĠÚ©Ø§ÙħØ¨ÛĮØ²": 5239,
      "ĠØ·Ø¨ÛĮØ¹Øª": 5240,
      "ÙĨÙĪÛĮØ³Ø§ÙĨ": 5241,
      "ĠØ®Ø§Ú©ÛĮ": 5242,
      "ĠÛ±Û³Û¸Û¸": 5243,
      "ĠÙħÙĨØªØ®Ø¨ÛĮ": 5244,
      "ĠØ®Ø§ÙĦØ¯": 5245,
      "ĠÙħÙĩØ§Ø¬Ø±Øª": 5246,
      "ĠØ§ÙĦØ²ÙĩØ±Ø§": 5247,
      "ĠØ´ÛĮØ¹ÛĮØ§ÙĨ": 5248,
      "ĠÚ©Ø³Ø±ÙĪÛĮ": 5249,
      "ĠØ³Ù¾ÙĩØ¨Ø¯": 5250,
      "ĠÚ©Ø§ÙħÛĮØ§Ø±": 5251,
      "ĠÚĨÚ¯ÙĪÙĨÙĩ": 5252,
      "ĠØ¹Ø§ÙħÛĮØ§ÙĨÙĩ": 5253,
      "ĠÙĪØ§ØŃØ¯ÛĮ": 5254,
      "ĠØ¢Ø«Ø§Ø±ÛĮ": 5255,
      "ÙħÙĪÙĨ": 5256,
      "Ø¯Ø§ÙĨÛĮ": 5257,
      "ĠÙħÙĪØ¯": 5258,
      "ÙģÙĦ": 5259,
      "Ø´ÙĪØ±": 5260,
      "ÙĤÙĪÙĦ": 5261,
      "ĠØªÙĩØ±": 5262,
      "ĠÙĨØ³ÛĮ": 5263,
      "ĠÚ©Ø³": 5264,
      "ĠÚ©Ø§Ø´ÛĮ": 5265,
      "Ø±ÛĮØ²": 5266,
      "ĠØ±Ø§Ø³": 5267,
      "ĠØ±Ø§Ø¨": 5268,
      "ÙħØ¯Ø§Ø±ÛĮ": 5269,
      "ĠØ¯Ø±Ø¨Ø±": 5270,
      "ÙħÛĮÙĦÛĮ": 5271,
      "ĠÙħØ±Ø¢": 5272,
      "ĠÙģØ±ÙĩÚ¯ÛĮ": 5273,
      "Ø§ÙĦÙĦÙĩÛĮ": 5274,
      "ĠØ§ÙģØ²": 5275,
      "ĠÙħØ·Ø§ÙĦØ¨": 5276,
      "ĠÚ¯Ø±Ø§ÙħÛĮ": 5277,
      "ĠØ±ÙĪØ²ÙĨØ§ÙħÛĢ": 5278,
      "ĠØ¯Ø³ØªÚ¯Ø§Ùĩ": 5279,
      "ĠØ¯Ø³ØªØºÛĮØ¨": 5280,
      "ĠÚ©ÙĨÙĪÙĨ": 5281,
      "ĠØ³ØªØ§ÛĮØ´": 5282,
      "ĠØ§ØªÙģ": 5283,
      "ĠÙ¾ÙĨØ¬Ø±Ùĩ": 5284,
      "ĠØ³ÙģØ§Ø±Øª": 5285,
      "ĠÙħØ¹ÙħØ§Ø±": 5286,
      "ĠÛĮØ±ÙĨÛĮ": 5287,
      "ÙĨØ´ÛĮÙĨ": 5288,
      "ĠØ¨ÛĮØ¯Ø§Ø±": 5289,
      "ĠØ¬Ø³ØªØ¬ÙĪÛĮ": 5290,
      "ĠØ¢Ø´ÙĨØ§": 5291,
      "ĠØªÙĤÙĪÛĮÙħ": 5292,
      "ĠØªØ§Ø±ÛĮÚ©ÛĮ": 5293,
      "ĠØ²ÙĨØ¬Ø§ÙĨ": 5294,
      "ĠÙħØµØŃØŃ": 5295,
      "ĠØ§ÙĤÙĪØ§Ùħ": 5296,
      "ĠØªÙģØ±Ø´ÛĮ": 5297,
      ".)ØĽ": 5298,
      "ÙħÙħ": 5299,
      "ÙĪØ«": 5300,
      "Ú©ÙĨÛĮ": 5301,
      "Ø¨ÙĪØ±": 5302,
      "ĠÙĪØ¬ÙĪØ¯": 5303,
      "Ø¹ÛĮÙĦ": 5304,
      "Ø¹Ø¨Ø¯": 5305,
      "ĠØ³ÙĨÛĮ": 5306,
      "ĠØ´ÙĤØ§ÛĮÙĤ": 5307,
      "ĠØ´ØµØª": 5308,
      "ĠÙģÙĤÛĮ": 5309,
      "ĠÙģÙĩÙħ": 5310,
      "ĠÙģÙĨÙĪÙĨ": 5311,
      "ĠØ±Ø§ÙĨ": 5312,
      "ĠØ§ÙĦØ¨Ø±Ø²": 5313,
      "ĠØ®Ø¶": 5314,
      "Ø¶Ø§ÛĮ": 5315,
      "ÙĪÛĮÙħ": 5316,
      "ĠÙģØ±ÙĪØ¯": 5317,
      "Ø³ÛĮØ§ÙĨ": 5318,
      "ĠØ¹Ø¨Ø§Ø¯ÛĮ": 5319,
      "ĠØ·ÙĦØ§ÙĤ": 5320,
      "ĠÙģØ±ÙĩÙĨ": 5321,
      "ĠÙħØ¹ÙĨÛĮ": 5322,
      "Ø§Ø³ØªØ§Ø¯ÛĮØ§Ø±": 5323,
      "ĠØ§Ø¨Ø§Ø°": 5324,
      "ĠÙĨÙĤØ§Ø´": 5325,
      "ĠÙħØ¯Ø§Ø±Ø³": 5326,
      "ĠÛ±Û³Û¹Û±": 5327,
      "ĠÚ©Ø§Ø±ØªÙĪÚ¯Ø±Ø§ÙģÛĮ": 5328,
      "ĠØ®Ø§ÙĨÛĢ": 5329,
      "ĠØµØ§Ø¯Ø±Ø§Øª": 5330,
      "ĠØ§ÛĮÙĦÛĮ": 5331,
      "ĠØ§ÛĮØ§ÙĦØ§Øª": 5332,
      "Û±Û³Û´Û": 5333,
      "ĠØ§Ø«Ø§Ø±": 5334,
      "ĠÚ¯Ø±ÙĪÙĩÛĮ": 5335,
      "ĠÙĩØ¯Ø§ÛĮØªÛĮ": 5336,
      "ĠÚ¯Ø²Ø§Ø±Ø´ÛĮ": 5337,
      "ĠØ¶ÛĮØ§ÛĮÛĮ": 5338,
      "ĠØ¬Ø²Ø§ÛĮØ±ÛĮ": 5339,
      "ĠØ¨ÙĪØ¯ÙĨ": 5340,
      "ĠÙĤØ·Ø¹Ø§Øª": 5341,
      "ĠÙħØ´ÙĩØ¯ÛĮ": 5342,
      "ĠØ³ÙĪØ§Ø¯": 5343,
      "ĠÙģØ±Ø§ÙħÙĪØ´": 5344,
      "Ø¨Ø±Ø¯Ø§Ø±ÛĮ": 5345,
      "ĠÙĨÙģÛĮØ³Ùĩ": 5346,
      "ĠÛ±Û²Û¸Û": 5347,
      "ĠØ±Ø§Ø´Ø¯": 5348,
      "ĠØ®ÙĪØ§ÙĩØ±Ø§ÙĨ": 5349,
      "ĠØ¨ÛĮØ±Ø¬ÙĨØ¯ÛĮ": 5350,
      "ĠØ¯Ø§Ø®ÙĦÛĮ": 5351,
      "ĠØ®ÙĦØ®Ø§ÙĦÛĮ": 5352,
      "ĠØ®ÙĦØ§ÙģØª": 5353,
      "ĠÙĪÛĮÙĦÛĮØ§Ùħ": 5354,
      "ÙĨØ§ÛĮÛĮ": 5355,
      "Ú©Ùħ": 5356,
      "Ú©ÛĮÙĨ": 5357,
      "Ø´ÙĩÛĮ": 5358,
      "ĠØ§ÙĪÛĮØ³ÛĮ": 5359,
      "ĠØ¯Ø§ÙĦ": 5360,
      "Ø¹ØµØ±": 5361,
      "ĠØ³Ø§ÙĨ": 5362,
      "ĠÚ©Ø¯": 5363,
      "ĠØ´Ú©Ø§Ø±": 5364,
      "Ø§Ø³Ø±": 5365,
      "ĠÙ¾ÚĺÙĩ": 5366,
      "ĠØ¬ÙĦÛĮÙĦÛĮ": 5367,
      "ĠØ¬ØªÙħØ¹ÛĮ": 5368,
      "ĠØ¢Ø±Ø§": 5369,
      "ØµØŃ": 5370,
      "Ø¯ÛĮØ´ÛĮ": 5371,
      "ÙĤÛĮØŃ": 5372,
      "ĠØ§ÙħØ§Ú©ÙĨ": 5373,
      "ĠØ¨Ø§ÙĤÛĮ": 5374,
      "Ø§Ø³ØªØ§Ø¯": 5375,
      "ĠØ§ØŃØ¯": 5376,
      "ĠØªØ±ÙĤÛĮ": 5377,
      "ÙĪÙħÙĨÛĮ": 5378,
      "ĠØªØŃØµÛĮÙĦ": 5379,
      "ĠÙĦÙĨ": 5380,
      "Ø´Ø±ØŃ": 5381,
      "Ø°Ùĩ": 5382,
      "Ø§ØµÙĦ": 5383,
      "ĠØ´ÙĩØ§Ø¨ÛĮ": 5384,
      "ĠØ§Ø±ÙĨ": 5385,
      "ĠØ´Ø¹Ø§Ø±": 5386,
      "ĠØ®Ø§ÙĨÙĦØ±ÛĮ": 5387,
      "ĠØŃØ³ÛĮÙĨÛĮØ§ÙĨ": 5388,
      "Ø¨Ø§Ø±Ø§ÙĨ": 5389,
      "ĠÙħÙĩØ±ÙĨÙĪØ´": 5390,
      "ĠØ®ÙĪØ¦ÛĮ": 5391,
      "ĠØ«Ø§Ø¨Øª": 5392,
      "ĠÙĨØ§ÙħØ¯Ø§Ø±": 5393,
      "ĠØ¯ÙĪÙĦØªØ´": 5394,
      "ĠØ³Ø¬Ø§Ø¯ÛĮÙĩ": 5395,
      "ĠØ¯ÙħÚ©Ø±": 5396,
      "ĠØªØ´Ø®ÛĮØµ": 5397,
      "ĠØ¨Ø§ÙĩÙĨØ±": 5398,
      "ĠÙģÙĩÛĮÙħ": 5399,
      "ĠØ³ÙĩÛĮÙĦ": 5400,
      "ĠÙħÛĮÙĦØ§Ø¯ÛĮ": 5401,
      "ÙĨÙħÙĩÙĩ": 5402,
      "ĠÙģØ±Ø§ÙĨÚ©": 5403,
      "ĠØªØ§Ø¨Ø³ØªØ§ÙĨ": 5404,
      "ĠØ±ÙĪØ¯Ú©ÛĮ": 5405,
      "ĠÙĨØŃÙĪÙĩ": 5406,
      "ĠØºØ±ÙĪÛĮ": 5407,
      "ÙħØ¤ÙĦÙģ": 5408,
      "Ø¯Ø§ÙĨØ´ÛĮØ§Ø±": 5409,
      "ĠØ¨ØŃØ«ÛĮ": 5410,
      "ĠÙħØµÙĦØŃØª": 5411,
      "Ø±Ø§Ø¦ÛĮÙĦ": 5412,
      "Ø¯Ø§Ø´ØªÛĮ": 5413,
      "ĠÚ¯ÙĦÚĨÛĮÙĨ": 5414,
      "ĠÙ¾Ø§ÛĮÛĮØ²": 5415,
      "ĠÚ¯ÛĮØªØ§Ø´ÙĨØ§Ø³ÛĮ": 5416,
      "ĠØ§Ø±Ø¬ÙħÙĨØ¯": 5417,
      "Ø§ÙĨÚ¯": 5418,
      "Ø³Ø§ÙĦÙĩ": 5419,
      "Ø´ÙħÙĩ": 5420,
      "ØŃÙĤÙĪ": 5421,
      "ĠØ¯ÙĨ": 5422,
      "âĢĮØĮ": 5423,
      "ĠÙĨØ³ØªØ±ÙĨ": 5424,
      "ĠØ³Ú©ÙĨØ¯": 5425,
      "Ø²Ø§Ø±ÛĮ": 5426,
      "ĠØ±ÙģØªÙĩ": 5427,
      "Ø®ÙĪØ±": 5428,
      "ÛĮØ¯ÙĨ": 5429,
      "ĠÙ¾ÙĪØ´": 5430,
      "Ø§ÙĩÛĮØªØ§": 5431,
      "ĠÙģØ±Ø§Ø±": 5432,
      "ĠØµÙĩÛĮ": 5433,
      "ĠØµØ¨Ø§ØŃ": 5434,
      "ĠÛĮØ§Ø±ÛĮ": 5435,
      "ĠØ§ÙħØ§ÙĨÛĮ": 5436,
      "Û±Û¸": 5437,
      "ĠØºØ¶": 5438,
      "ĠØªØµØ§ÙĪÛĮØ±": 5439,
      "ĠØ§Ø±Ø´": 5440,
      "Ø¦Ùĩ": 5441,
      "ĠÙ¾ÛĮØº": 5442,
      "ĠÙħØªØ¹Ø§ÙĦÛĮ": 5443,
      "Ø®Ø´Ø§ÙĨÛĮ": 5444,
      "ĠØ¨Ø§Ø²ÙĨÚ¯Ø±ÛĮ": 5445,
      "ĠÚ©ÙĦØ§Øº": 5446,
      "ĠØ´Ú©Ø³ØªÙĩ": 5447,
      "ĠÙħØ§ÙĩÙĨØ§ÙħÙĩ": 5448,
      "ĠØµØ¯ÙĤÛĮ": 5449,
      "ĠØªØ¹Ø¨ÛĮØ±": 5450,
      "ĠØºÙģØ§Ø±": 5451,
      "ĠØ³Ø§ÙħØ§ÙĨÛĮ": 5452,
      "ĠØŃØ¯Ø§Ø¯ÛĮ": 5453,
      "ĠØ²Ø¨Ø¯Ùĩ": 5454,
      "ĠÙĤÙĩØ±ÙħØ§ÙĨÛĮ": 5455,
      "ĠØ¨ØµÛĮØ±": 5456,
      "ĠÛĮÙĩÙĪØ¯": 5457,
      "ĠÙħÙĪØ±Ø®": 5458,
      "ĠÙħØ³Ø¤ÙĪÙĦÛĮØª": 5459,
      "ĠØ±ÙĪÛĮØ¯Ø§Ø¯ÙĩØ§ÛĮ": 5460,
      "ĠÙĤØ±ÛĮØ´ÛĮ": 5461,
      "ĠÙĩØ®Ø§ÙħÙĨØ´ÛĮ": 5462,
      "ĠØ§Ø¹ØªØµØ§ÙħÛĮ": 5463,
      "ÙĨØ³ÛĮ": 5464,
      "ÙĦØ§Ø¨": 5465,
      "ØªÙĤÛĮ": 5466,
      "ĠÙĪØ§ÙĨ": 5467,
      "ĠÙĪØ§ÙĦÛĮ": 5468,
      "ØŃÙħØ¯ÛĮ": 5469,
      "ĠÙĨØ¹ÛĮ": 5470,
      "ĠØ³ÙĪÙĦ": 5471,
      "ĠÚ©ÙĪÙĩÛĮ": 5472,
      "Ù¾ÙĪØ´": 5473,
      "ĠØ´Ø§ÙĨÙĩ": 5474,
      "ĠØ§ÙĦØ§Ø³Ø±Ø§Ø±": 5475,
      "ĠØ¬ÙĦÛĮ": 5476,
      "ĠØ¬ÙħÛĮ": 5477,
      "ĠØ¢ÙĪØ±": 5478,
      "ÙĪØ±Ø¯ÛĮÙĨ": 5479,
      "ĠØ®ÙĪÛĮ": 5480,
      "ĠØ®ÛĮØ±ÛĮÙĩ": 5481,
      "ĠÚ¯ÙĨØ§Ùĩ": 5482,
      "ĠØµÙĪØ±": 5483,
      "ĠØ¨Ø±Ø§Ùĩ": 5484,
      "ĠÙģØ±ÙĩÙħÙĨØ¯": 5485,
      "ĠÚĨÙħ": 5486,
      "ĠÙħÙĨØ³": 5487,
      "ÙĪØ§ÙĨØ¹": 5488,
      "ĠØ³ÛĮØ³ÛĮ": 5489,
      "ĠÙĦØ¨Ø®": 5490,
      "ĠØ§ÙĦÙħØª": 5491,
      "ĠØ¯ÛĮÙĪ": 5492,
      "ĠØ´ÙĩÛĮÙĨ": 5493,
      "ÙĦØ³ÙĦÙĩ": 5494,
      "Ø§ÙĪÙĨÛĮ": 5495,
      "ĠÚ©Ø´ÙģÛĮ": 5496,
      "ĠØ¬ÙĩØ§ÙĨØ¨Ø®Ø´": 5497,
      "ĠØ¢Ø±Ø´ÛĮ": 5498,
      "ĠØ¨Ø²Ø±Ú¯ÛĮ": 5499,
      "ĠØµÙģØ§ÛĮÛĮ": 5500,
      "ĠÙĨØ§ÙħÙĪØ±": 5501,
      "ĠØ§Ø±Ø¯ÙĦØ§ÙĨ": 5502,
      "ĠØ§ÙĦÚ©ØªØ±": 5503,
      "ĠØ§ØªØ§ÙĤ": 5504,
      "ĠÚ©ØªØ¨Ø®ÙĨÙĩ": 5505,
      "ĠØ¨Ø§ÙĨÙĪØ§ÙĨ": 5506,
      "ĠØ¶ÛĮØ§Ø¦ÛĮ": 5507,
      "ĠØ²ÙĨØ¯Ú¯ÛĮÙĨØ§ÙħÛĢ": 5508,
      "ĠØªØ±Ú©ÛĮØ¨": 5509,
      "ĠØºØ±Ø¨Øª": 5510,
      "Û±Û¹Û¸Û": 5511,
      "ĠØ³ÙĦØ§ÙħØª": 5512,
      "ĠØ§ÙĪØ±ÙĨÚ¯": 5513,
      "ĠÙħØ¹ØµÙĪÙħÛĮÙĨ": 5514,
      "ØªØŃÙĤÛĮÙĤ": 5515,
      "ĠØ¨Ø§ÙħØ¯Ø§Ø¯": 5516,
      "ĠÙĪØ«ÙĪÙĤÛĮ": 5517,
      "ĠØ§Ø¨Ø±ÛĮØ´ÙħÛĮ": 5518,
      "ĠØ±ÙĤØµ": 5519,
      "ĠÚ¯ÙĨØ§Ø¨Ø§Ø¯ÛĮ": 5520,
      "ĠØ³ÙĪØ¯Ø§Ø¨Ùĩ": 5521,
      "ĠÙĦØŃØ¸Ùĩ": 5522,
      "ĠØ§ÙĦØ´ÛĮØ¹Ùĩ": 5523,
      "Ú¯ÛĮÙĦÙĪÛĮÙĩ": 5524,
      "ĠØ§ÙĦÙħØ«ÙĦÙĩØ§ÛĮ": 5525,
      "ĠØ±Ø§Ø¨Ø·Ùĩ": 5526,
      "ÛĮÛĮÙĨ": 5527,
      "ÙħÙĨØ¯ÛĮ": 5528,
      "ÙĨØªÛĮ": 5529,
      "ÙĨØ§Ø®ØªÛĮ": 5530,
      "ÙĦÙħØ§ÙĨ": 5531,
      "Ø¨ÙĨÛĮ": 5532,
      "Ø§Ø±ØªÙħ": 5533,
      "ĠÙĪÙĨ": 5534,
      "Ú¯ÙĪÛĮÛĮ": 5535,
      "ĠØªØ¨Ø±": 5536,
      "ĠÙĨÙĩØ§": 5537,
      "ĠÙĨØ§ÛĮØ¨": 5538,
      "Ø§ÙħÙĦÛĮ": 5539,
      "Ø§Ø¯Ú¯ÛĮ": 5540,
      "Ø¬Ø¯ÛĮ": 5541,
      "ĠÚ©ÙħØ§ÙĨ": 5542,
      "ĠØŃÛĮØ±Øª": 5543,
      "ĠÙģØ·": 5544,
      "Ø§ÙĦØ§Ø³Ø±Ø§Ø±": 5545,
      "ĠØ§ÙĦØ§Ø¨": 5546,
      "ĠÙ¾Ø³Øª": 5547,
      "ĠØ¯Ø±ÙħØ§ÙĨÛĮ": 5548,
      "ĠØ®Ø§Øµ": 5549,
      "Ø·Ø§Ø¨": 5550,
      "ĠÙģØ±ÙĪ": 5551,
      "ĠÙģØ±ØµØª": 5552,
      "ĠÛĮØ³": 5553,
      "ĠØ¨Ø±Ø§Ø¨Ø±": 5554,
      "ĠÙħØ±Ø§Ø¬Ø¹": 5555,
      "ØºØ§Ø²": 5556,
      "ĠÙħØ¹Ø§Ø¯ÙĨ": 5557,
      "Ø§Ø´ØªÙĩ": 5558,
      "ÙģØ±Ø§ÙĨ": 5559,
      "ĠÙĦØ§": 5560,
      "ĠÙĦØ§ÙĦ": 5561,
      "Ø°ÙĨ": 5562,
      "ĠØ¯Ø§ÙĨØ´ÙħÙĨØ¯Ø§ÙĨ": 5563,
      "ÛĮÙĦØª": 5564,
      "ĠÛ±Ûµ": 5565,
      "ĠÙħØ¬Ø±ÛĮ": 5566,
      "Ø±Ø§ÙĩØ§ÛĮ": 5567,
      "Ø§ÙĪÙĨØ¯ÛĮ": 5568,
      "ĠÚ©Ø§Ø±Ø´ÙĨØ§Ø³ÛĮ": 5569,
      "ĠØ¯ÙĪØ³ØªÛĮ": 5570,
      "ĠØ¬ÙĩØ§ÙĨÚ¯ÛĮØ±ÛĮ": 5571,
      "Ø§Ø¨ÛĮØ§ÙĨ": 5572,
      "ĠÙĨØ¸Ø±ÛĮÛĢ": 5573,
      "ĠØ¨Ø®Ø·": 5574,
      "ĠÙħØ±Ø¯ÙħØ´ÙĨØ§Ø³ÛĮ": 5575,
      "ĠÚ©Ø§Ø´Ùģ": 5576,
      "ĠØ§ÙĨØµØ§Ø±ÛĮØ§ÙĨ": 5577,
      "ĠØ¹Ø§Ø´ÙĤÛĮ": 5578,
      "ĠØ¨Ø§ÙĨÙĪÛĮ": 5579,
      "ĠØ³Ø±Ø¯Ø§Ø±Ø§ÙĨ": 5580,
      "ĠÙħØ®ØªÙĦÙģ": 5581,
      "ĠØ®Ø¯Ø§ÛĮÛĮ": 5582,
      "ĠÙĨØ¨ÙĪØ¯": 5583,
      "Ø±Ø¨Ø§ÛĮØ¬Ø§ÙĨÛĮ": 5584,
      "ĠÙħØŃÛĮÛĮ": 5585,
      "ĠÙģÙĩØ§Ø±Ø³": 5586,
      "ĠØªÙĩÙħÛĮÙĨÙĩ": 5587,
      "ĠØ¯Ø§ÙħØ§Ø¯": 5588,
      "ĠØŃØ±ÛĮØ±ÛĮ": 5589,
      "ĠØ¬Ø±Ø§Ø¦Ùħ": 5590,
      "ĠØ§Ø¹ØªÙħØ§Ø¯ÛĮ": 5591,
      "ĠØ¬ÛĮØ¨ÛĮ": 5592,
      "ĠÙħÙĨØªØ¸Ø±": 5593,
      "ĠÚ¯Ø²ÛĮØ¯ÙĩØ§ÛĮ": 5594,
      "ĠÙģØ§Ø¦Ø²Ùĩ": 5595,
      "ĠØ§Ø±Ø²ÛĮØ§Ø¨ÛĮ": 5596,
      "ĠØ§ÛĮØ«Ø§Ø±Ú¯Ø±Ø§ÙĨ": 5597,
      "ÙģÙĪØ¸": 5598,
      "ĠÚ©Ø§Ø±ÛĮÚ©Ø§ØªÙĪØ±": 5599,
      "Ġ'": 5600,
      "Ø§Ø¢": 5601,
      "ĠÙħÙĪØ§ÙĨØ¹": 5602,
      "ÙģØ¹": 5603,
      "Ú©ÛĮÙħ": 5604,
      "ĠØ¨Ø·": 5605,
      "ĠØ¨Ø§Ø·": 5606,
      "ĠÙĨÙĪØ¯": 5607,
      "ĠÙĨØ²Ùĩ": 5608,
      "ĠØ³Ø§Ø¨ÙĤ": 5609,
      "ĠØŃØ±Ùħ": 5610,
      "Ø§ÙĦØ§ÙĨ": 5611,
      "Ø®Ø§Øµ": 5612,
      "ĠØ§ÙĦÙģØ±": 5613,
      "ĠØ¢ÙģØ±ÛĮ": 5614,
      "ĠÙĤØ§ÙĦÛĮ": 5615,
      "ÙĪØ´Øª": 5616,
      "Ø¬ÙħØ´ÛĮØ¯": 5617,
      "ĠØµØŃÛĮØŃ": 5618,
      "ĠØ§ÙħÙĪØ§ÙĦ": 5619,
      "ĠÙħØ¹ÛĮØ§Ø±": 5620,
      "Ø§Ø¹Ø¯Ùĩ": 5621,
      "ĠÙħÙĤÙĦØª": 5622,
      "ÙĩÛĮØ¨": 5623,
      "ĠØºØ±ÙĪØ¨": 5624,
      "ĠØªØ§Ø±ÛĮØ®ÚĨÛĢ": 5625,
      "ĠØ³Ø±Ø§Ø¨": 5626,
      "ĠØ³Ø±ÚĨ": 5627,
      "ĠÙħØ¬Ø§ÙĦØ³": 5628,
      "ĠÙĤØ±Ø§Ú¯": 5629,
      "ĠØ´Ø±Ø¹ÛĮ": 5630,
      "ĠØ´ÛĮØ´Ùĩ": 5631,
      "ĠÚ©Ø´ÙħÛĮØ±ÛĮ": 5632,
      "ĠØ±Ø¶Ø§ÛĮ": 5633,
      "ĠÚ¯ÙĦØ§Ø¨": 5634,
      "ĠØ§Ø¹ÙħØ§ÙĦ": 5635,
      "ĠØ¶Ø¯": 5636,
      "ĠØ¶ÙħÛĮÙħÛĢ": 5637,
      "ĠØ¯ÙĩØ¨Ø§Ø´ÛĮ": 5638,
      "ĠÚ©ÙĩÚ¯ÛĮÙĦÙĪÛĮÙĩ": 5639,
      "ĠØ¯ÛĮÙĨØ§ÙĨÛĮ": 5640,
      "ĠÙĨÙĤØ´Ø¨ÙĨØ¯ÛĮ": 5641,
      "ĠØ®ÛĮØ§Ø¨Ø§ÙĨÛĮ": 5642,
      "ĠÙĨØ¹ÛĮÙħ": 5643,
      "ĠÙģÙĤÛĮØ±": 5644,
      "ĠØ¶ÛĮØ§": 5645,
      "ÙģØ±ÙĩÙĨÚ¯": 5646,
      "ĠØ§ÙĦÛĮØ§Ø³": 5647,
      "ĠÛ²Û¸": 5648,
      "ĠÛ±Û³Û¸Û¹": 5649,
      "ĠÙĪÙĤØª": 5650,
      "ĠÙħØ±Ø²Ø¨Ø§ÙĨ": 5651,
      "Ø¹Ø±Ø§Ø¡": 5652,
      "ĠØªØ§Ø±Ø®": 5653,
      "ĠØ®Ø´ÙĪÙĨØª": 5654,
      "ĠØ²ÙĨÚ¯ÙĨÙĩ": 5655,
      "ĠÚ©Ø§Ø¨ÙĦÛĮ": 5656,
      "ĠØ¨Ø±ÙĤØ¹ÛĮ": 5657,
      "ĠÙħØ´Ú©ÙĦØ§Øª": 5658,
      "ĠØ±ÙĩÙĨÙħÙĪØ¯": 5659,
      "ar": 5660,
      "´Û±": 5661,
      "Û¹Û": 5662,
      "ĠF": 5663,
      "ĠÙħØ§ÛĮØ´": 5664,
      "Ø§Ø±ÙĨ": 5665,
      "ĠÙĪÙĨØ¯": 5666,
      "ĠÙĪØ§Ø±Ø¯": 5667,
      "ĠØ§Øº": 5668,
      "ĠØªÙĦÙĪÛĮ": 5669,
      "ĠØ³Ø¯": 5670,
      "ĠØ³ÙĤ": 5671,
      "ĠØ³Ø§ÙħÛĮ": 5672,
      "Ø§ÙħÙĩÛĮ": 5673,
      "Ø¬Ø³": 5674,
      "Ø¬Ø§Øª": 5675,
      "ĠØŃÙĪØ²": 5676,
      "ĠØ±Ø§Ø¬Ø¹": 5677,
      "ĠÙħØŃØ¬ÙĪØ¨": 5678,
      "ĠØ¬Ø¨Ø§Ø±ÛĮ": 5679,
      "ĠØ¯Ø±ÙĪØº": 5680,
      "ĠÙĩØ¯ÛĮÙĩ": 5681,
      "ĠØ§Ø³Ø¨": 5682,
      "ĠØ²ÙĪØ§Ø±": 5683,
      "Ø³ØªÙħÛĮ": 5684,
      "ĠØ¨Ø±Ùģ": 5685,
      "ĠÙħØ±Ø¯Ùĩ": 5686,
      "ØºÙĦÛĮ": 5687,
      "ĠØ·ÛĮØ¨": 5688,
      "ĠÙħØ¹Ø²ÛĮ": 5689,
      "ÙĦÛĮÙģØ±": 5690,
      "ĠÙģØ±ÙĩÙĨÚ¯ÙĨØ§ÙħÙĩ": 5691,
      "ĠÙħÙĩØ±ÛĮØ²ÛĮ": 5692,
      "ĠÙħØ¤ÙĦ": 5693,
      "ĠØ²ÙĨØ¯ÛĮÙĩ": 5694,
      "ĠØ´ÛĮØ¨Ø§ÙĨÛĮ": 5695,
      "ĠØ¯ÙģØ§Ø¹ÛĮ": 5696,
      "ĠØŃÚ©Ø§ÛĮØ§Øª": 5697,
      "ĠÙĨÛĮØ§Ø²ÛĮ": 5698,
      "ĠÚ©Ø§Ø±ÙĨØ§ÙħÛĢ": 5699,
      "ĠÚ©ÛĮØ§Ø±": 5700,
      "ĠÙħÙĦØ§ØŃ": 5701,
      "ĠØ¢ÙĨÚĨÙĩ": 5702,
      "ĠØ¢Ø±ÛĮÙĨ": 5703,
      "ĠØ®Ø±Ø³": 5704,
      "ĠØ±Ø§ÙĩØ¨Ø±Ø¯": 5705,
      "ĠØ®Ø·ÙĪØ·": 5706,
      "ĠÙĤØµØµ": 5707,
      "ĠÙħÙĪØ³ÙĪÛĮØ§ÙĨ": 5708,
      "ĠÙĪØŃØ¯": 5709,
      "ĠÙ¾Ø§ÛĮØ¯Ø§Ø±ÛĮ": 5710,
      "ĠØ¹Ø¨Ø¯Ø§ÙĦØ¹ÙĦÛĮ": 5711,
      "ĠØ¯Ø§Ø±Ùħ": 5712,
      "ĠÙĨØ´Ø¯Ùĩ": 5713,
      "ĠØ´Ø¨Ø³ØªØ±ÛĮ": 5714,
      "ĠÚĺØ§Ù¾": 5715,
      "ĠÙĤØ·Ø±Ùĩ": 5716,
      "ĠØ²ÙħÛĮÙĨÛĢ": 5717,
      "ĠØªÙĦØ§Ø´": 5718,
      "ĠØ¯Ø¹Ø§": 5719,
      "ĠÙģØ¶ÛĮÙĦØª": 5720,
      "ĠÙģØ±Ø®ÙĨØ¯Ùĩ": 5721,
      "ĠÚĨÛĮØ³ØªÛĮ": 5722,
      "ĠØ§Ø´Ø±Ø§Ùģ": 5723,
      "ÙĨÙħÙĩÙĩÛĮ": 5724,
      "ĠÙĪÙģØ§": 5725,
      "ĠØŃØ±Ú©Øª": 5726,
      "ĠØªØ¦ÙĪØ±ÛĮ": 5727,
      "ĠØ´Ø¨ÙĩØ§Øª": 5728,
      "ĠØ¨ØªÙĪÙĦ": 5729,
      "ĠÚ©Ø§Ø²Ø±ÙĪÙĨÛĮ": 5730,
      "ĠØ³ÙĦØ¬ÙĪÙĤÛĮ": 5731,
      "ĠØ§ÙħÙĦØ§Ú©": 5732,
      "ti": 5733,
      "Ø§ÙĪÙĩ": 5734,
      "Ø±ÙĨ": 5735,
      "ÙħØ§Ø²": 5736,
      "ÙĪÙĨÚ¯": 5737,
      "ĠÙħÚ©Ùĩ": 5738,
      "ØªØ³": 5739,
      "Ø¨Ø²": 5740,
      "ĠØªØ²": 5741,
      "ĠÙĨØ«Ø§Ø±": 5742,
      "Ø§ÛĮÙĨØ¯": 5743,
      "ĠØ³Ø§ÙĤÛĮ": 5744,
      "ĠÚ©Ø´Øª": 5745,
      "ĠØ´Ø§ÛĮØ§ÙĨ": 5746,
      "ĠÙģØµÛĮ": 5747,
      "ĠØ±Ø¹": 5748,
      "Ø§ÙĦÙĪ": 5749,
      "ĠÙħØŃÙģÙĪØ¸": 5750,
      "ĠÙ¾ÛĮÙĨ": 5751,
      "ĠØ¬ÙĪØ²": 5752,
      "ĠØ®ÙĨØ¯Ùĩ": 5753,
      "ĠÙĩÙĪØ±": 5754,
      "ÙħÛĮÙħÛĮ": 5755,
      "ĠØ¹ÙĦÛĮØ®Ø§ÙĨÛĮ": 5756,
      "ĠÙħØ±ÙĪ": 5757,
      "ĠØ¹Ø¨Ø§Ø¯": 5758,
      "ĠØªØ±Ø§Ø¨": 5759,
      "ĠÙĨØ´Ø±Ø§ØªÛĮ": 5760,
      "Ú©Ø±Ùĩ": 5761,
      "Ú©Ø±Ø§ÙĨÛĮ": 5762,
      "ĠØ¯Ø§ÙĨØ´Ú¯Ø§ÙĩØ§": 5763,
      "ĠÙĨÙĪØ§Ø¦ÛĮ": 5764,
      "ĠÙĨÛĮØ§ÛĮØ´": 5765,
      "ĠÚ©Ø§Ø±Ú©Ø±Ø¯": 5766,
      "ĠØ±Ø¶Ø§Ø²Ø§Ø¯Ùĩ": 5767,
      "ĠØ§ÙĦØ¹Ø¸ÛĮÙħ": 5768,
      "ĠØ§Ø³ÙħØ¹ÛĮÙĦ": 5769,
      "ĠØ¯ÙĩÚ©Ø±Ø¯ÛĮ": 5770,
      "ĠØ°Ø§Ú©Ø±ÛĮ": 5771,
      "ĠÚ©ÙĦØ§Ø³ÛĮ": 5772,
      "ĠÙĨÙĪØ´ØªØ§Ø±": 5773,
      "ĠÛ±Û¹ÛµÛ": 5774,
      "ĠÙĪÙĦØ¯": 5775,
      "ĠÙħØ¹Ø±Ø§Ø¬": 5776,
      "ĠÚĺØ§ÙĨ": 5777,
      "ĠÚĺØ¦": 5778,
      "ĠÙĤØ·Ø¹Ùĩ": 5779,
      "ĠØºÛĮØ¨Øª": 5780,
      "ĠÙħØ¬Ø¯Ø¯ÛĮ": 5781,
      "ĠØªØ±Ú©ÙħØ§ÙĨ": 5782,
      "ĠÙĨÚ©Ø§Øª": 5783,
      "ĠÙģÙĪÙĦØ§Ø¯ÛĮ": 5784,
      "ĠØ±Ø¤ÛĮ": 5785,
      "ĠØ¨ÙĤØ§Ø¦ÛĮ": 5786,
      "ĠÙĦØ§ÙĩÙĪØ±ÛĮ": 5787,
      "ĠØ§Ø¹ØªÙħØ§Ø¯Ø§ÙĦØ³ÙĦØ·ÙĨÙĩ": 5788,
      "ĠØ§Ø±Ø³Ø·": 5789,
      "ĠÙ¾ÛĮØ´Ø±ÙģØª": 5790,
      "ÙħØ§ÙĦÚ©": 5791,
      "ÙĪØ§Ø²ÛĮ": 5792,
      "ĠÙħØ§Ø±ÛĮ": 5793,
      "ĠÙħÙĩÛĮ": 5794,
      "Ø³ÙĦØ³ÙĦÙĩ": 5795,
      "ÙģØªÛĮ": 5796,
      "ĠØ¨Ø³ØªØ±": 5797,
      "ĠÙĪÚĺÙĩ": 5798,
      "Ú¯Ø²Ø§Ø±": 5799,
      "ĠØ¯Úĺ": 5800,
      "Ø²Ø§Ùĩ": 5801,
      "ĠØ¹ØªÛĮ": 5802,
      "ĠØ¹ÙģØª": 5803,
      "ĠØ´Ø¨ÙĨ": 5804,
      "ÙħØ¯Ùĩ": 5805,
      "Ø®Ùĩ": 5806,
      "ĠØ§ÙĦØ¨ÙĦ": 5807,
      "ĠØ¯Ø±ÙĪØ¯ÛĮ": 5808,
      "ĠÙĤØ§Ø¨": 5809,
      "ĠÙĤÙĨØ¯Ùĩ": 5810,
      "ĠÙĩØ§ÙĨÛĮÙĩ": 5811,
      "ĠØ¨ÙĩØªØ±ÛĮÙĨ": 5812,
      "ĠØ§ÙĨØŃ": 5813,
      "Ø§Ø²Ø§ÙĨ": 5814,
      "ĠØ¨Ø±Ø§Øª": 5815,
      "ĠØ·Ø§ÛĮ": 5816,
      "ĠØ·ÙĪÙģ": 5817,
      "ĠØªØ±Ø¨ÛĮÙĩ": 5818,
      "ĠØ§Ø³ÙĦØ§ÙħÛĮÙĩ": 5819,
      "ĠØ³ÛĮØ§Ø±": 5820,
      "ĠÚ©ØªØ§Ø¨Øª": 5821,
      "ĠÙĦØ¹": 5822,
      "Ġ[ØĽ": 5823,
      "Ø²ÛĮØªØ§": 5824,
      "ĠØ´ÙĩØ¯Ø§": 5825,
      "ĠÙħØªÙĤ": 5826,
      "ĠØŃÚ©ÙħÛĮ": 5827,
      "ĠØ¬ÙħÙĪØ±ÛĮ": 5828,
      "ĠØ¯ÙĪØ¨ÛĮØªÛĮ": 5829,
      "ĠØªÙĨÙĤÛĮØŃ": 5830,
      "ĠÚ¯Ø±Ú¯Ø§ÙĨ": 5831,
      "ĠØ¨Ø²Ùĩ": 5832,
      "Ø¨ÙĪØ¯ÛĮ": 5833,
      "ĠØ§ÙĦØŃØ§Ø¬": 5834,
      "ĠÙĪØŃÛĮØ¯ÛĮ": 5835,
      "Û±Û³Û²Û": 5836,
      "Û±Û³Û°Û": 5837,
      "ĠØ¸ÙģØ±": 5838,
      "ĠØ¹Ø·Ø§ÛĮÛĮ": 5839,
      "ĠÙ¾Ø±ÙĪÙĨØ¯Ùĩ": 5840,
      "ĠØªØ¹Ø²ÛĮÙĩ": 5841,
      "ĠØªØ¹Ø§ÙĪÙĨÛĮ": 5842,
      "ĠØ¢ÛĮÛĮÙĨÛĢ": 5843,
      "ĠØ§Ø¨ÛĮØ§Øª": 5844,
      "ĠÙħØ±Ø¯ÙħÛĮ": 5845,
      "ĠØ§ÙĦØºÙģÙĪØ±": 5846,
      "ĠÛ±Û³Û¹Û²": 5847,
      "ĠØ³Ø§ÙĪØ¬ÛĮ": 5848,
      "ĠØ·ÙĦÙĪØ¹ÛĮ": 5849,
      "ĠÛĮØºÙħØ§Ø¦ÛĮ": 5850,
      "ĠØ¬Ø§ÙĪØ¯Ø§ÙĨ": 5851,
      "ĠØ³Ø§ØŃÙĦ": 5852,
      "ĠØ¨Ø§Ø®ØªØ±": 5853,
      "ĠØ®ÙĦØ¹ØªØ¨Ø±ÛĮ": 5854,
      "ĠØµÙĦÙĪØ§ØªÛĮ": 5855,
      "ĠØªÙĦÙĪÛĮØ²ÛĮ": 5856,
      "on": 5857,
      "Ø±Ø§Ø¯": 5858,
      "Ø±ÙĩØ§ÛĮ": 5859,
      "ĠÙħØ§Ú©": 5860,
      "ĠÙħØ¨ÙĦ": 5861,
      "Ø¨Ú©": 5862,
      "ĠØ§Úĺ": 5863,
      "Ø§Ø±Ùħ": 5864,
      "ĠÙĪØª": 5865,
      "Ú¯ÛĮÙĨ": 5866,
      "ĠØ¯ÛĮØ¯Ùĩ": 5867,
      "ÙĦÛĮÙħÛĮ": 5868,
      "ĠÙģØµ": 5869,
      "ĠÙħØŃØªØ´": 5870,
      "ĠÙħØŃØªÙĪ": 5871,
      "ĠØ®ÙĨ": 5872,
      "ĠÙĤØ³Ùħ": 5873,
      "ĠÙĤØ±ÛĮØ¨": 5874,
      "ĠÙĩÙħØ§ÙĨ": 5875,
      "ĠØ²ÙĨÛĮ": 5876,
      "ĠØ¨ÙĩØ¯Ø§Ø´Øª": 5877,
      "ĠÚ¯ÙĪÛĮØ§": 5878,
      "ĠÙģØ±Ø§ÙĨØ³": 5879,
      "ĠØ¨Ø±Ø§Ø¯Ø±": 5880,
      "ÙĨÛĮØªÛĮ": 5881,
      "Ø§Ø¹ØªÛĮ": 5882,
      "ĠÙĦÙĨØ¯ÙĨ": 5883,
      "ĠÙħØ¤ÛĮØ¯": 5884,
      "ÛĮÙĦØ§ÙĨÛĮ": 5885,
      "ĠÙħØ´ÛĮØ±": 5886,
      "ĠÚ¯ÙģØªØ§Ø±ÛĮ": 5887,
      "ĠØ®Ø·Ø¨Ùĩ": 5888,
      "Ø±ÙģØ§ÙĨ": 5889,
      "ĠÙ¾ÙĩÙĦÙĪ": 5890,
      "ĠÚ©ÙĦÛĮÙĦÙĩ": 5891,
      "ÙĪØ´ÛĮØ§Ø±": 5892,
      "ĠÛ±Û±": 5893,
      "ĠÙħÙĨÙĪÚĨÙĩØ±ÛĮ": 5894,
      "ĠÙĩØ±ÙħÙĨ": 5895,
      "ĠØ¬Ø§ÙĨØ¨Ø§Ø²": 5896,
      "ĠØŃÛĮØ§ØªÛĮ": 5897,
      "ĠØ§Ø³ØªØ±Ø¢Ø¨Ø§Ø¯ÛĮ": 5898,
      "ĠÛĮØ¯Ø¯Ø´Øª": 5899,
      "ĠÙħØ²Ø¯": 5900,
      "ĠÙ¾ÛĮØ§ÙħØ¨Ø±Ø§ÙĨ": 5901,
      "ĠÙħØ¨Ø§ØŃØ«ÛĮ": 5902,
      "ÙĨØ¸Ø§Ùħ": 5903,
      "ĠÙĪØµØ§ÙĦ": 5904,
      "ĠØ±ÙĨÚ¯ÛĮÙĨ": 5905,
      "ĠÙħÙĨØ§Ø³Ø¨Ø§Øª": 5906,
      "ĠØ´Ø±ÙĪØ§ÙĨÛĮ": 5907,
      "ĠÙ¾Ø§Ø¯Ø´Ø§ÙĩÛĮ": 5908,
      "ĠÙħØ§Ø¬Ø±Ø§ÛĮ": 5909,
      "ĠÙħØ¬ØªÙĩØ¯": 5910,
      "ĠÙħØ¬ØªÙĩØ¯ÛĮ": 5911,
      "ĠØ¹Ø¨Ø¯Ø§ÙĦÙħØ¬ÛĮØ¯": 5912,
      "ĠÙĤÙĪÚĨØ§ÙĨÛĮ": 5913,
      "ĠØ³Ø²ÙħÙĨ": 5914,
      "ĠØ§ÙĨÚ©Ø´Ø§Ùģ": 5915,
      "ĠØµÙĩÛĮÙĪÙĨÛĮ": 5916,
      "ĠÙĦØ¨Ø®ÙĨØ¯": 5917,
      "Ø§Ø±ØªÙħÙĨØª": 5918,
      ".ØĽ": 5919,
      "ÌĦ": 5920,
      "ĠÙĦØ§Ùħ": 5921,
      "ĠØŁ": 5922,
      "Ø±Ø®ÛĮ": 5923,
      "ÙĨÙĨØ¯Ùĩ": 5924,
      "ÙĩØ²Ø§Ø±": 5925,
      "ĠÙħØ¨ÙĨ": 5926,
      "ÙĤØ§Ùĩ": 5927,
      "ĠØ¨Ø¶": 5928,
      "ĠØ¨ÙĪØ³": 5929,
      "ĠØ¨ÙĪÙģ": 5930,
      "ĠÙĪØ¬ÛĮ": 5931,
      "ĠØ§Ø¸": 5932,
      "ØŃÙĤ": 5933,
      "ĠØ³ØªÛĮ": 5934,
      "ĠØ¹Ø§ÙĤ": 5935,
      "Ø§ÙħÛĮØ±": 5936,
      "Ø§Ø¯ÛĢ": 5937,
      "Ø§Ø¯Ø¨ÛĮ": 5938,
      "ĠÚ©Ø§Øº": 5939,
      "ĠØ´Ø§Ø¯Ø±": 5940,
      "ĠØ´Ø¨ÛĮÙĩ": 5941,
      "Ø®ÙĨ": 5942,
      "ĠØ§ÙĦØ§Øµ": 5943,
      "ĠÙ¾ÙĪØ³Øª": 5944,
      "ĠØ¬Ø¨Ø§Ø±": 5945,
      "ĠØ¢Ø²Ùħ": 5946,
      "ĠÙĩÙĨÚ¯": 5947,
      "ĠØ§Ø³ÛĮØ±": 5948,
      "ĠØ§Ø³Ø§ÙħÛĮ": 5949,
      "Ø·ÙĦ": 5950,
      "ĠØŃØ³Ø§Ø¨": 5951,
      "ÚĨØ±": 5952,
      "ĠØµÙĨØ¯": 5953,
      "ĠÚĨÙĨ": 5954,
      "ĠØªØ±ÙĪØ±ÛĮ": 5955,
      "Û±Ûµ": 5956,
      "Ø§Ø¬Ø§Øª": 5957,
      "Ø´Ø±ÙĤÛĮ": 5958,
      "ĠØ³Ø±Ùħ": 5959,
      "ĠÙĩÙħÛĮÙĨ": 5960,
      "ĠØ§Ø±ÙħÙĨÛĮ": 5961,
      "ĠØŃÙħÙĦÙĩ": 5962,
      "ĠØ³Ø§ÙĦÙħ": 5963,
      "ĠØ§Ø´Ú©Ø§ÙĨÛĮ": 5964,
      "ĠØ´ÙĩØ±Ùĩ": 5965,
      "ĠÙħÙĤØ¯ÙħÙĩÛĮ": 5966,
      "ĠØ¹ÙħÛĮØ¯": 5967,
      "ĠØªÙĨÚ©Ø§Ø¨": 5968,
      "ĠÚ¯Ø±Ø¯Ø¢Ø±ÛĮ": 5969,
      "ĠÙĨØ¬ÙĪÙħÛĮ": 5970,
      "Ø§ÙħÙĦØ§Øª": 5971,
      "Ø´ÙħØ§Ø±": 5972,
      "ĠÙĪÛĮØ³": 5973,
      "ĠÙĨØµØ±ØªÛĮ": 5974,
      "ĠØªØ¹Ø§ÙĦÛĮ": 5975,
      "ĠØ§Ø·ÙĦØ§Ø¹Ø±Ø³Ø§ÙĨÛĮ": 5976,
      "ĠØ¯Ø±Ø¨Ø§Ø±ÙĩÛĮ": 5977,
      "ĠÙĪØ§ÙĤØ¹Ùĩ": 5978,
      "ĠÙħØ±Ø²Ø§": 5979,
      "ĠØ´Ø§Ø¯ÙħØ§ÙĨ": 5980,
      "ĠØ±Ø²Ø§ÙĤÛĮ": 5981,
      "ĠØ¹ÙĪØ¶": 5982,
      "ÙħØ¤Ø³Ø³Ùĩ": 5983,
      "ĠØ·Ø±ÛĮÙĤØª": 5984,
      "ĠÙĨØ§ØªÙħØ§Ùħ": 5985,
      "ĠÙĦØ§Ø±ÛĮØ¬Ø§ÙĨÛĮ": 5986,
      "ĠÛĮØ§Ø²Ø¯ÙĩÙħ": 5987,
      "ĠØ¯Ø²ÙģÙĪÙĦÛĮ": 5988,
      "ĠÙħØ³Ø£ÙĦÙĩ": 5989,
      "ĠØ§ÙĦÙģÙĤØ§Ø±ÛĮ": 5990,
      "ĠØ£Ø¹Ø¸Ùħ": 5991,
      "ĠÙ¾Ø²Ø´Ú©": 5992,
      "ĠÙħØ¹Ø§ÙĪÙĨÛĮØª": 5993,
      "ĠØ§Ø¨Ø§Ø°Ø±ÛĮ": 5994,
      "ĠÙħØªØ¹Ø§ÙĦÛĮÙĩ": 5995,
      "ĠÚĨÙħØ±Ø§ÙĨ": 5996,
      "Ġ:": 5997,
      "ÙĪÚ©ÛĮ": 5998,
      "Ø¯Ø¨": 5999,
      "ĠÙħØ§ÛĮ": 6000,
      "ØªØ§Ø±": 6001,
      "Ø³ÛĮÙĨÛĮ": 6002,
      "Ø´Ø¹Ø±": 6003,
      "ĠØ¯ÙĪØ³": 6004,
      "ĠØªØ¯Ø±ÛĮ": 6005,
      "ĠØªÙħØ¯ÙĨÛĮ": 6006,
      "ĠØ³ØªØ±": 6007,
      "ĠØ³ÙĪØ²": 6008,
      "Ø²Ø§Øª": 6009,
      "ÛĮØ±Ø§ÙĨÛĮ": 6010,
      "Ø§ÙħÙĨÛĮ": 6011,
      "ĠÙ¾ÙĪÛĮØ§ÙĨ": 6012,
      "ĠØ®ÙĦÛĮÙģ": 6013,
      "ĠØ®Ø§ÙĦÛĮ": 6014,
      "Ø¶Ø¯": 6015,
      "Ø¶Ø§Ø¯": 6016,
      "ĠØ²ÙĪØ±": 6017,
      "ÚĨÙĩØ±": 6018,
      "ĠØµØ§ÙĨ": 6019,
      "ĠØ§ÙħÙĨÛĮØªÛĮ": 6020,
      "ØºÙĩ": 6021,
      "ĠÙģØ±ÙĩÛĮ": 6022,
      "ĠØ§ØŃØªØ´": 6023,
      "ĠØ§ØŃÙħØ¯ÛĮØ§ÙĨ": 6024,
      "ĠÙĦØ³": 6025,
      "ĠÙĦØ¨": 6026,
      "ĠÙĩÙħØ§Ø¦ÛĮ": 6027,
      "ĠØ§ÙĦÙħØ¬": 6028,
      "ĠØ±ÙĪØ§ÛĮÛĮ": 6029,
      "ĠØ§Ø±Ø§ÙĨ": 6030,
      "ĠÙħÙĪÙģÙĤ": 6031,
      "ÙĨØ¬Ø§ÙĨ": 6032,
      "ĠØ´Ø¹Ø±ÛĮ": 6033,
      "ĠØ¹Ø±ØµÙĩ": 6034,
      "ĠØ¢ÙħØ±ÛĮÚ©": 6035,
      "ĠÙ¾ÛĮÚ©": 6036,
      "ĠØ±Ø³Ø§ÙĨ": 6037,
      "ĠØ¬ÙĪØ§ÙĩØ±ÛĮ": 6038,
      "ĠÚ¯ÙĦØ¯": 6039,
      "ĠØ¢ÙĨØ§ÙĩÛĮØªØ§": 6040,
      "ĠÙħØ´ÙĪØ±ØªÛĮ": 6041,
      "ĠØ¯ÙĩÛĢ": 6042,
      "ĠØ¢ÙĤØ§Ø¦ÛĮ": 6043,
      "ĠØ§ÙĦÙĩØ¯ÛĮ": 6044,
      "ĠØ³ØªØ§Ø±ÛĮ": 6045,
      "ÙĪØ§Ø±ÛĢ": 6046,
      "ĠÚĨÙĩØ§Ø±ÙħÛĮÙĨ": 6047,
      "ĠÙĩÙģØªÙĩ": 6048,
      "ĠÙĤØ¯ÛĮØ±ÛĮ": 6049,
      "Ù¾Ø±Ø³ØªÛĮ": 6050,
      "ĠÙħØ°Ø§Ú©": 6051,
      "ĠÙĨÙħØ§ÛĮØ´ÙĨ": 6052,
      "ĠØ¬Ø²Ø§ÛĮÛĮ": 6053,
      "ĠØ¨ÙĩØ§Ø±Ø³ØªØ§ÙĨ": 6054,
      "ĠÙĪØ§ÚĺÙĩÙĨØ§ÙħÙĩ": 6055,
      "ĠØ³ÙĪØ®ØªÙĩ": 6056,
      "Ø³Ø§ÙĦØ§Ø±ÛĮ": 6057,
      "ĠØ§ÙĦØ´Ø¹": 6058,
      "ĠÙģÙĦØ§ØŃÛĮ": 6059,
      "ÙħÙĤØ§Ùħ": 6060,
      "ĠÙĩØ´ØªØ§Ø¯": 6061,
      "ĠØ¨ØµÛĮØ±ÛĮ": 6062,
      "ĠØ¨ÙĩØ§Ø¦ÛĮØª": 6063,
      "ĠØ§ÙĦØ§Ø®Ø¨Ø§Ø±": 6064,
      "ĠÙħÙĨØ²ÙĪÛĮ": 6065,
      "ĠÛĮØ§ØŃÙĤÛĮ": 6066,
      "ĠØ±Ø¯ÛĮÙģ": 6067,
      "ĠØ§ÙĦÚ©ØªØ±ÙĪÙĨÛĮ": 6068,
      "\":": 6069,
      "Û¸Û": 6070,
      "ĠB": 6071,
      "Ø¯Ø§Ø²": 6072,
      "ĠÙħÙĪØ²ÛĢ": 6073,
      "Ø´Ø§ÛĮ": 6074,
      "Ø¨ÛĮØ±ÛĮ": 6075,
      "ĠØ§ÛĮØª": 6076,
      "ĠØ¨Ø³ØªØ§ÙĨ": 6077,
      "ĠØ¨Ø¬ÙĨ": 6078,
      "Ú¯ÙĦÙĪ": 6079,
      "ĠØªÙĪØ±Ø§ÙĨ": 6080,
      "ĠØªØ·ÙĪØ±": 6081,
      "ĠÙĨØ§Ú©": 6082,
      "ĠÙĨØ²Ø¯ÛĮ": 6083,
      "ĠØ³Ú¯": 6084,
      "ĠØ³Ø§ÛĮØ±": 6085,
      "ĠØ¹Ø´Ø±": 6086,
      "ÙħØ¯Ø§Ø±": 6087,
      "ĠØ§ÙĦØ§ÙĪÙĦÛĮ": 6088,
      "ĠØ¬Ø§Ø¯Ùĩ": 6089,
      "ĠØ®ÙĦÙĪ": 6090,
      "ĠÙĩØ±Ú¯": 6091,
      "ĠÙģØ±Ø¯ÛĮ": 6092,
      "ĠÙģØ±ÙĪØªÙĨ": 6093,
      "ĠØ¹ÙĦÛĮÙĤÙĦÛĮ": 6094,
      "ÙĩØ±ÙĪÛĮ": 6095,
      "ĠØµÙĩ": 6096,
      "ĠØ¨Ø±ØªØ±": 6097,
      "ĠÙħØ±Ø¯Ø§ÙĨ": 6098,
      "Ø§Ø¦ÙĦÛĮ": 6099,
      "ÙħÙĩÛĮ": 6100,
      "ĠÙħÙĨÛĮØ±Ùĩ": 6101,
      "ĠØªØ±Ø§Úĺ": 6102,
      "ÙĪÙħÙĨÛĮÙĨ": 6103,
      "ÙģØ±ÛĮÙĨÛĮ": 6104,
      "ĠØ³ÛĮØ§ÙĤÛĮ": 6105,
      "Ø¤Ø§Ø¯": 6106,
      "ĠÙĦØ§ÛĮ": 6107,
      "ĠÙĦØ§Ø¬": 6108,
      "ĠØ¯Ø§ÙĨØ´ÙħÙĨØ¯": 6109,
      "Ø´ÙĨÙĩ": 6110,
      "ĠÛ°Û": 6111,
      "ĠÙħØµØ§ØŃØ¨": 6112,
      "ĠÙĨÙĤÙĪÛĮ": 6113,
      "ĠÙĨÙĤØ±Ùĩ": 6114,
      "ÙħØªØŃ": 6115,
      "ĠØ§ÙĩØ¯": 6116,
      "Ú©ØªÙĪØ±": 6117,
      "ĠØ¯ÙĪØ§ÙĨÛĮ": 6118,
      "ĠØ§ÙĦØ¹ÙĦ": 6119,
      "ĠØ¨Ø§Ø²Ú¯Ø´Øª": 6120,
      "ĠØ§ÛĮØ²Ø¯": 6121,
      "ĠØ±ØŃÙħÙĩ": 6122,
      "ĠØ±ØŃÙħÙĨ": 6123,
      "ĠØªØ¬Ø²ÛĮÙĩ": 6124,
      "ĠØ§ÙĦØŃØ§ÙĤØ§Øª": 6125,
      "ĠØ¬ÙĨØ§ÛĮÛĮ": 6126,
      "ĠØ§Ø³ØªØ§Ø¯Ø§ÙĨ": 6127,
      "ĠØ±ÙĪØ´ÙĨÛĮ": 6128,
      "ĠÚ©ÙĨÙĨØ¯Ùĩ": 6129,
      "ĠØ³ÙĩÙħ": 6130,
      "ĠÙĨØ´Ø§ÙĨ": 6131,
      "¶Û³Û±": 6132,
      "ĠØ±Ø¬Ø§ÛĮÛĮ": 6133,
      "Ø¬ÙĪØ§ÙĨÛĮ": 6134,
      "ĠØ¨ØŃØ±Ø§ÙĨÛĮ": 6135,
      "ĠØ¹Ø¨Ø§Ø³ÛĮØ§ÙĨ": 6136,
      "ĠØ¬ÙħØ§ÙĦØ²Ø§Ø¯Ùĩ": 6137,
      "ĠØªÙģØµÛĮÙĦÛĮ": 6138,
      "ĠØ±ØŃÛĮÙħÛĮØ§ÙĨ": 6139,
      "ĠÙĤÙĨØ¨Ø±": 6140,
      "ĠÙħØ²ÛĮÙĨ": 6141,
      "ĠØ¢Ø³ØªØ§ÙĨÙĩ": 6142,
      "ĠÙ¾ÙĪÙĩØ§ÙĨØ¯": 6143,
      "ĠÙģØ±Ø¯ÙĪØ³": 6144,
      "ĠØ§ÙĦØŃÚ©ÛĮÙħ": 6145,
      "ĠØ§Ø³ØªØ±Ø§ØªÚĺÛĮ": 6146,
      "ĠØ¹Ø§Ø·ÙģÛĮ": 6147,
      "ĠØªØ±ÛĮØ®ÛĮ": 6148,
      "ĠÙĦØ·ÛĮÙģÛĮ": 6149,
      "ĠØ±Ø§Ø´Ø¯ÛĮ": 6150,
      "ĠØ¶Ø±ÙĪØ±Øª": 6151,
      "ĠØªØ´Ú©ÛĮÙĦØ§Øª": 6152,
      "ĠØ´Ú©ÛĮØ¨Ø§": 6153,
      "ĠØ¹Ø§Ø±ÙģÛĮ": 6154,
      "ĠØ§Ø®ØªÙĦØ§Ùģ": 6155,
      "ĠØ®Ø¯Ø§Ø¯Ø§Ø¯": 6156,
      "ĠØ§ÙĪØ¬Ø¨ÛĮ": 6157,
      "ĠØ¨Ø³Ø·Ø§ÙħÛĮ": 6158,
      "ĠÙ¾Ø±Ø§Ú©ÙĨØ¯Ùĩ": 6159,
      "ĠÙĪØ§Ú©Ø§ÙĪÛĮ": 6160,
      "²Û±": 6161,
      "ÙħÙģ": 6162,
      "ÙĪØ§Ú©": 6163,
      "ĠÙħÙĨØ¯": 6164,
      "ØªØ§ÙĨ": 6165,
      "ØŃØ§Ø¨": 6166,
      "Ú¯Ø§Ùħ": 6167,
      "ĠØ³Ø¤": 6168,
      "Ø²Ø±": 6169,
      "Ù¾ÛĮØ±": 6170,
      "ĠØ´ÙĪØ±ÛĮ": 6171,
      "ĠØ´ÛĮØ±ÛĮ": 6172,
      "ĠØ±Ø³ÛĮ": 6173,
      "ĠØ§ÙĦØ§ØŃØ¯": 6174,
      "ĠØ§ÙĦÙħÙĩØ¯ÛĮ": 6175,
      "ĠÙ¾Ø§Ø¦ÛĮ": 6176,
      "ĠÙ¾ÛĮØ±ÛĮ": 6177,
      "ĠØ¢Ú©": 6178,
      "ĠØ¢Ø«Ø±": 6179,
      "ĠØ§Ø³Ø§Ø±Øª": 6180,
      "ĠØ§Ø³Ø±Ø§Ø¦ÛĮÙĦ": 6181,
      "ĠØ²ÙĦ": 6182,
      "ĠØ²Ø¨ÙĨ": 6183,
      "ĠÙģØ±Ø³": 6184,
      "ĠÙģØ±Ø¬ÛĮ": 6185,
      "ĠÙģØ±Ø§ÛĮÙĨØ¯": 6186,
      "ÙĦØ§ÙħÛĮ": 6187,
      "ĠØµÙĦ": 6188,
      "ĠØµØ§Ø±ÙħÛĮ": 6189,
      "ĠÛĮÛĮ": 6190,
      "Ø§Ø¦ÙħÙĩ": 6191,
      "ÙĪÙĦØ¯": 6192,
      "ĠØªØ§Ú©": 6193,
      "ĠØ³Ø±ÛĮØ±": 6194,
      "ØªÙħØ¹": 6195,
      "Ø§Ú©Ø²": 6196,
      "ĠØŃØ³ÙĨØ¹ÙĦÛĮ": 6197,
      "ĠØ±ÙĪØ§ÙĨÛĮ": 6198,
      "ĠØ¨ÛĮØ¹": 6199,
      "ĠØ´Ø±Ø§ÛĮ": 6200,
      "ĠØŃÙħÙĦ": 6201,
      "ĠØŃÙħÛĮØ±Ø§": 6202,
      "ĠØ¬ÙĩØª": 6203,
      "ĠØ³Ø§ÙĦØ§ÙĨÙĩ": 6204,
      "ĠÙħÛĮÙĪÙĨØ¯": 6205,
      "ĠÙ¾ÛĮÚ©Ø§Ø±": 6206,
      "ĠØ±Ø³Ùħ": 6207,
      "ĠÚ©Ø§Ø±ÙĪØ§ÙĨ": 6208,
      "ĠØ´ÙħØ§": 6209,
      "ĠÙħØ·Ø§ÙĦØ¹Ø§ØªÛĮ": 6210,
      "ĠØ¢Ø±ÙħÛĮÙĨ": 6211,
      "ĠØ§ÛĮØ§Ùħ": 6212,
      "ĠØ§ÙĪØ³ØªØ§": 6213,
      "ĠØ°Ùĩ": 6214,
      "ĠØ¬ÙħÙĩÙĪØ±": 6215,
      "ĠØ´ÙĪØ±Ø´": 6216,
      "ĠÙĤÙħØ±": 6217,
      "ĠÙĤÙħØ´": 6218,
      "ĠØ³ÙĨØ§ÛĮÛĮ": 6219,
      "ĠÙħØ¹Ø±ÙģÙĩ": 6220,
      "ĠØ²Ø±Ú¯Ø±": 6221,
      "Ø´ÛĮØ±Ø§Ø²ÛĮ": 6222,
      "ĠØªÙģØ¶ÙĦÛĮ": 6223,
      "ĠØªÚ©Ø§ÙħÙĦ": 6224,
      "ĠÛ±Û³Û¸Û·": 6225,
      "ĠØ¢Ø³ÙħØ§ÙĨÛĮ": 6226,
      "ĠÙħÙĩØ±Ø§ÙĨÚ¯ÛĮØ²": 6227,
      "ĠÙħÚ©ØªÙĪØ¨Ø§Øª": 6228,
      "ĠØ´ÙĪÚ©Øª": 6229,
      "ĠÚĨÙĩØ§Ø±Ø¯ÙĩÙħ": 6230,
      "ĠØ·ÙĩÙĪØ±ÛĮ": 6231,
      "ĠØ®ÙħØ³Ùĩ": 6232,
      "ĠÙĦØ§ÙĩÙĪØªÛĮ": 6233,
      "ĠÚ©Ø§ÙĪÙĪØ³": 6234,
      "and": 6235,
      "ĠÙĨØ±Ø¬Ø³": 6236,
      "Ú¯Ø´Ø§": 6237,
      "ĠÙĪÙĩØ§Ø¨ÛĮØª": 6238,
      "ĠÙħÛĮØ¯Ø§ÙĨ": 6239,
      "ØºÙĨØ³ØªÙĨ": 6240,
      "ĠØ°ÙĪØ§ÙĦÙģÙĤ": 6241,
      "ĠÙħÚĺØ¯Ùĩ": 6242,
      "ĠØ§Ø®ØªØµØ§ØµÛĮ": 6243,
      "ĠØŃÙħØ§Ø³ÛĢ": 6244,
      "ĠØºØ¶ÙĨ": 6245,
      "ĠÙĪØ§Ø±Ø¯Ø§Øª": 6246,
      "ĠÚ©ÙĦØ§Ø³ÛĮÚ©": 6247,
      "ĠÙĩØ±ÙħÙĨÙĪØªÛĮ": 6248,
      "ĠØ´Ø§Ø¯Ø±ÙĪØ§ÙĨ": 6249,
      "Ø±Ø§Ø¡": 6250,
      "Ø±ÙģÛĮØ¹": 6251,
      "ÙħØ±Ùĩ": 6252,
      "ĠÙĪØ¹": 6253,
      "ĠÙĪÛĮÙĦ": 6254,
      "ĠØ¯ÙĪØ²": 6255,
      "Ø¹Ø§ÙĨ": 6256,
      "ĠÙĨØ±ÛĮ": 6257,
      "ĠÚ©Ø§Ùĩ": 6258,
      "Ø±ÛĮØ´": 6259,
      "ĠØŃØ¯Ø§Ø¯": 6260,
      "ĠØŃØ§ÙĦØ§Øª": 6261,
      "ĠÙģØ§ØªØŃ": 6262,
      "ĠØ±Ø´ØªÙĩ": 6263,
      "ĠØ§ÙĦØ¨Ø±": 6264,
      "ĠØ¢ÛĮØ¯Ø§": 6265,
      "ĠØ®Øª": 6266,
      "ĠÙĤÙĨØ¯": 6267,
      "ĠÙĩÛĮØ¯": 6268,
      "ĠØ²Ø±ÛĮ": 6269,
      "ĠØ²Ø¨Ø§ÙĨÛĮ": 6270,
      "ĠÚ¯ÙħØ±": 6271,
      "ĠØ§ÙĨØ§Ø±": 6272,
      "ĠØ¹ÙĦÛĮØ§ÙĨ": 6273,
      "ÙĤÛĮÙħ": 6274,
      "Ø¨ÛĮØ§Ø¡": 6275,
      "ĠØ¨Ø±Ø§Ø¯Ø±Ø§ÙĨ": 6276,
      "ĠÚĨÙĨÚ¯ÛĮØ²": 6277,
      "ĠÙħÙĨÙģØ±Ø¯": 6278,
      "ĠÙħÙĨØ§Ø¬Ø§Øª": 6279,
      "Ø¢Ø§Ø¯ÛĮ": 6280,
      "ĠÚ©ØªØ§Ø¨ÛĮ": 6281,
      "ĠØ¯Ø§ÙĨØ´Ø§Ùĩ": 6282,
      "Ø´ÙĨØ¨Ùĩ": 6283,
      "ĠÛ±Û¸": 6284,
      "ĠÙħÙĤØ¯Ø³ÛĮ": 6285,
      "ĠÙħØ·ÙĦÙĪØ¨": 6286,
      "ĠÙħØ³Ø§Ø¬Ø¯": 6287,
      "ĠØ´ÛĮÙĪÛĢ": 6288,
      "ĠÚ¯Ø±Ø¯Ø§": 6289,
      "ĠØ§Ø´Ú©Ø§ÙĨ": 6290,
      "ĠØ§Ø¬Ø±Ø§": 6291,
      "ĠØ´ÙĩØ±Ø¨Ø§ÙĨÙĪ": 6292,
      "ĠØ´Ø¹Ø±ÙĩØ§": 6293,
      "ĠØ§ÙĩØ±ÛĮ": 6294,
      "ĠÙĨÛĮÙĦÛĮ": 6295,
      "ĠØ´ÙħØ§ÙĦÛĮ": 6296,
      "ĠØ§ÙĦØ¹Ø§ÙĦ": 6297,
      "ĠÙģÛĮÙĩ": 6298,
      "ĠØ§Ø¹Ø±": 6299,
      "ĠÙĨÙĪØ±Ø§ÙĨÛĮ": 6300,
      "ĠØ±ÛĮØ´": 6301,
      "ĠÙĨØ¬ÙħÛĮ": 6302,
      "Ø§ÙĦÙħØ«ÙĦ": 6303,
      "ĠØ¹Ø´ÙĤÛĮ": 6304,
      "ĠÙĤØµØ§Ø¦Ø¯": 6305,
      "ĠØ¨Ø§ÙĤØ±Ø²Ø§Ø¯Ùĩ": 6306,
      "ĠØ¨Ø®Ø§Ø±": 6307,
      "ØŁ]ØĮ": 6308,
      "ĠÙħØ³ØªÙĤÙĦ": 6309,
      "ÙħØ±Ø¯ÛĮ": 6310,
      "ĠÙħØ¨Ø§Ø±Ú©Ùĩ": 6311,
      "ÙħÙĦÚ©": 6312,
      "ĠØ±Ø§ÙĩÙĨÙħØ§": 6313,
      "ĠÙħÚ©Ø²": 6314,
      "ĠØ³ÙĩØ±Ø§Ø¨ÛĮ": 6315,
      "ĠÙģØ¶Ø§Ø¦ÙĦ": 6316,
      "ĠØ¯Ø±Ø³ÙĨØ§ÙħÙĩ": 6317,
      "ĠÙħØ¹ØªÙħØ¯": 6318,
      "ĠØ³Ú©ÛĮÙĨÙĩ": 6319,
      "ĠØ§Ø±ÙĪÙħÛĮÙĩ": 6320,
      "ĠÙ¾ÙĨØ¬ÙħÛĮÙĨ": 6321,
      "ĠØ¹Ø§ÙħØ±ÛĮ": 6322,
      "ĠØ¹Ø§ÙĦÙħÛĮÙĩ": 6323,
      "ĠØ§ÙģØ±Ø§Ø³ÛĮ": 6324,
      "ĠØ¯ÛĮÙ¾Ø§Ø±ØªÙħÙĨØª": 6325,
      "ĠØ¹ÙĤÙĦØ§ÙĨÛĮ": 6326,
      "ĠØ²Ø±ØªØ´ØªÛĮØ§ÙĨ": 6327,
      "ĠØªØ§Ø¬ÛĮÚ©": 6328,
      "ĠØ±ÙĪØ²Ø¨ÙĩØ§ÙĨ": 6329,
      "ĠØ§ÙĨÛĮØ³": 6330,
      "ĠÙģØ±ÙĪØ²Ø§ÙĨÙģØ±": 6331,
      "ĠØ§ÙĨØ¯Ø±Ø²": 6332,
      "ĠØ¹Ø§Ø´ÙĪØ±Ø§ÛĮÛĮ": 6333,
      "Ø¨Ø§ÙĤØ±": 6334,
      "ĠÚ©Ø§ÙĪÛĮØ§ÙĨÛĮ": 6335,
      "ĠÙĨØ¹ÛĮÙħÛĮ": 6336,
      "ĠÙħÙĨØ³ÙĪØ¨": 6337,
      "ĠÚ©ÛĮØ§Ø±Ø³ØªÙħÛĮ": 6338,
      "ĠÚĺØ¦ÙĪÙ¾": 6339,
      "Û´": 6340,
      "Ø±Ø³Øª": 6341,
      "ĠÙħØ§Ø¯": 6342,
      "ĠÙħÙĪØ²": 6343,
      "Ø´Ø§": 6344,
      "Ø¨ÙĪÛĮÙĩ": 6345,
      "ĠØ¨Ø§Øª": 6346,
      "ØŃÛĮØ¯": 6347,
      "ĠØ¯Ø§Ø³Øª": 6348,
      "ĠØ³Ø§Ú©": 6349,
      "ĠØ¹ÙģÛĮ": 6350,
      "Ø§Ø¯Ø¨": 6351,
      "Ø¬Ø§Ø²": 6352,
      "Ø¬ÙĪÛĮÛĮ": 6353,
      "ĠØ¬ÙĪØ¯": 6354,
      "ĠØ¢ØµÙģÛĮ": 6355,
      "ĠØ®Ø§ÙħÙĩ": 6356,
      "ĠÙĤØ§Ø±ÛĮ": 6357,
      "ĠÙĩØ§Ø¯": 6358,
      "ĠÙĩØ§Øª": 6359,
      "ĠÚ¯ÙĪÙĨ": 6360,
      "Ø§Ø²Ùħ": 6361,
      "ĠØµØ¯ÙĪ": 6362,
      "ĠØ§ÛĮØ±Ø§ÙĨØ²ÙħÛĮÙĨ": 6363,
      "ĠØ¨Ø§ÙģØª": 6364,
      "ĠÚĨØªØ±": 6365,
      "ĠÙĦØ§Ø±": 6366,
      "ĠØªØ£Ø³ÛĮØ³": 6367,
      "ĠØ¨ÙĨØ§Ø¨": 6368,
      "ĠØ³Ø±ÙĪØ±ÛĮ": 6369,
      "Ø¹ÙĦÛĮÙĩ": 6370,
      "ĠØ§ÙĦÙħØ³": 6371,
      "ĠØ§Ø³ØªØ¹": 6372,
      "ĠØ§Ø³ØªØ®Ø±": 6373,
      "ĠÙħÙĪÙĤØª": 6374,
      "ĠÙ¾Ø±ØªÙĪÛĮ": 6375,
      "ĠØ¹Ø±ÙģÛĮ": 6376,
      "ĠØ§Ø´Ø®Ø§Øµ": 6377,
      "ĠÙĩÙĨÙĪØ²": 6378,
      "ĠÙĪÛĮØ±Ø³ØªØ±": 6379,
      "ĠÙħØªÙĤÛĮ": 6380,
      "ĠØ§Ø®ÙĪØª": 6381,
      "ĠÚ¯ÙĦØ´ÛĮØ±ÛĮ": 6382,
      "ĠØ¯ÙĪØ¨Ø§Ø±Ùĩ": 6383,
      "ĠÙĨØ³Ø¨Øª": 6384,
      "ĠÙħØ±ØªØ¨Ùĩ": 6385,
      "Ø§ÙĦÙĩØ¯ÛĮ": 6386,
      "ĠØ§ÛĮØ³Øª": 6387,
      "ĠØ¢ÛĮÛĮÙĨÛĮ": 6388,
      "Ø¨Ø§ÙĤÛĮ": 6389,
      "ĠÚ©ÙĦÚ©": 6390,
      "ĠØºØ²Ø§ÙĦÙĩ": 6391,
      "ĠØ³ÛĮØ±Øª": 6392,
      "ĠØ§Ø·ÙĩØ§Ø±": 6393,
      "ĠÙģØªÙĨÙĩ": 6394,
      "ĠÙħØ¯Ø±Ø³ÛĢ": 6395,
      "ĠØ¯Ø§Ø±ÙĪÛĮÛĮ": 6396,
      "ĠÙĨØ®Ø¨": 6397,
      "ĠÚ©ÙĪØ¯Ú©ÛĮ": 6398,
      "ĠØ§ÙĦÙĨØ³": 6399,
      "ĠØ§ÛĮÙĨØ¬Ø§": 6400,
      "ĠÙĤØ¶Ø§Øª": 6401,
      "ĠØ¹Ú©Ø§Ø³ÛĮ": 6402,
      "ĠØ¨Ø±Ú¯Ø²ÛĮØ¯": 6403,
      "ĠØ³ÙħÛĮØ±": 6404,
      "ĠØ¹Ø³Ú©Ø±": 6405,
      "ĠÙĪØ±ÙĪØ¯": 6406,
      "ĠÙģÛĮØ±ÙĪØ²Ø¢Ø¨Ø§Ø¯ÛĮ": 6407,
      "ĠÙģÛĮÙĦÙħÛĮ": 6408,
      "ĠÚ©ÙħÛĮÙĦ": 6409,
      "ĠØ®ÙĪØ§ÙĨØ¯ÙĨÛĮ": 6410,
      "ĠÚ©ÙĪØ«Ø±ÛĮ": 6411,
      "Û±Û¹Û·Û": 6412,
      "ÙħÙĤØ§ÙħÛĮ": 6413,
      "ĠØ¨Ø±ÙĪØ¬": 6414,
      "ĠØ¨Ø¯ÛĮØ¹ÛĮ": 6415,
      "ĠÙģØ±Ø¬Ø§Ùħ": 6416,
      "ĠÙĨÛĮØ´Ø§Ø¨ÙĪØ±": 6417,
      "ĠÙĩÙĪØ§ÛĮÛĮ": 6418,
      "ĠØªØ§Ø±ÛĮÚ©": 6419,
      "ĠÙĨÙĤÙĦØ¨": 6420,
      "ĠØªØ¯Ø¨ÛĮØ±": 6421,
      "ĠØ±ÙĪØ´ÙĨÙģÚ©Ø±ÛĮ": 6422,
      "Ø§ØµÙģÙĩØ§ÙĨÛĮ": 6423,
      "ĠØŃØ¯ÛĮÙĤÙĩ": 6424,
      "ĠØ§ÛĮØ¯Ø¦ÙĪÙĦÙĪÚĺÛĮ": 6425,
      "ĠÙħØ¯Ø±ÙĨÛĮØªÙĩ": 6426,
      "ĠÙ¾ÚĺÙĩØ´": 6427,
      "ĠØªØ±Ø§ÚĺØ¯ÛĮ": 6428,
      "Û·Û": 6429,
      "ĠR": 6430,
      "ØªÙĪÙĨ": 6431,
      "Ø³Ø§ÛĮ": 6432,
      "Ø³Ø±Ùĩ": 6433,
      "ĠØ¨Ø¨Ø±": 6434,
      "ĠØ¯Ø§Øº": 6435,
      "ĠØªØº": 6436,
      "ĠØ¹ÙĨØ¯": 6437,
      "ĠÙħØŃÙĦÙĩ": 6438,
      "Ø®Ø³Ø±ÙĪ": 6439,
      "ĠÙ¾Ø§ÛĮØª": 6440,
      "ĠØ¢ÙħÙĨÙĩ": 6441,
      "ĠÙĩØ§ÙĦÙĩ": 6442,
      "ĠØ§Ø³Ú©": 6443,
      "ĠØµÙģØª": 6444,
      "ĠØ¨Ø±Ø§ØªÛĮ": 6445,
      "ĠÙħØ±Ø§Ø«ÛĮ": 6446,
      "ĠØ·Ø¹Ùħ": 6447,
      "ĠÚĨÙħÙĨ": 6448,
      "ĠØªØ±ÙĪØ±": 6449,
      "ĠØªØ±Ø§Ø²": 6450,
      "ÙĪØ³ÙĪÛĮ": 6451,
      "ĠØºØ§ÙĦØ¨": 6452,
      "ĠØªØŃÙĤÙĤ": 6453,
      "Ø§Ø¬Ùĩ": 6454,
      "Ø°ÛĮØ¨": 6455,
      "ĠØ³Ø±Ø¨Ø§Ø²": 6456,
      "Ø±ÙĪÙģÛĮ": 6457,
      "Ú©ÛĮØ§": 6458,
      "ĠØ§Ø±Ø¨Ø¹": 6459,
      "Ø¦ÙĦ": 6460,
      "ĠØ´Ø§ÙĩØ²Ø§Ø¯Ùĩ": 6461,
      "ĠÙħÛĮÙĩ": 6462,
      "ĠÙħØªÙĪØ³": 6463,
      "ĠÛ±Û³Û¸Û°": 6464,
      "ĠÙħØ·Ø§ÙĦØ¹ÛĢ": 6465,
      "ĠØ®Ø§ÙĨÙĤØ§Ùĩ": 6466,
      "ĠØ§Ø³ÙħØ§Ø¡": 6467,
      "Ø§Ø³ÙħØ§Ø¹ÛĮÙĦ": 6468,
      "ĠØ¨Ø§Ø²Ø³Ø§Ø²ÛĮ": 6469,
      "ĠØ¢ÙħÙĪØ²Ú¯Ø§Ø±": 6470,
      "ĠØ¯ÙĩÙĦÛĮ": 6471,
      "ĠÙħØŃÙħØ¯ÛĮØ§ÙĨ": 6472,
      "Ú¯Ø±Ø¯Ø¢ÙĪØ±ÛĮ": 6473,
      "ĠÙħÙĤØ¯ÙħØ§ØªÛĮ": 6474,
      "Ø¨ÙĨØ§ÙĨ": 6475,
      "ĠÚ©ÙħÙ¾": 6476,
      "ĠØ§Ø·ÙģØ§ÙĦ": 6477,
      "ĠÙ¾Ø§ÛĮÙĨØ¯Ùĩ": 6478,
      "ĠØŃÚ©ÛĮÙħÙĩ": 6479,
      "ĠØ±Ø³ØªØ§Ø®": 6480,
      "ĠØ²Ø±Ø§Ø¹Øª": 6481,
      "ĠØ®Ø¯Ø§ÙĪÙĨØ¯": 6482,
      "ĠØ¬Ø²Ø§Ø¦ÛĮ": 6483,
      "ĠÙĦØ·Ø§ÛĮÙģ": 6484,
      "Ù¾ÚĺÙĪÙĩØ´ÛĮ": 6485,
      "Ø§ÙĨØ¯Ø§Ø²": 6486,
      "Ø³ÙĦØ§ÙĨ": 6487,
      "ĠÚ¯ÛĮØ§ÙĩÛĮ": 6488,
      "ĠØ§ØµØ·ÙĦØ§ØŃ": 6489,
      "ĠØ´ÛĮØ±Ø§Ø²Ùĩ": 6490,
      "ĠØ±ÙĪØ³ØªØ§": 6491,
      "ĠØªØŃØ´ÛĮÛĢ": 6492,
      "ĠØ§ÙĦØºÙĨÛĮ": 6493,
      "Ø¬ÙħÙĩÙĪØ±": 6494,
      "ĠØ§ÙĦØ®ÛĮØ±": 6495,
      "ĠØ®Ø²Ø§Ø¹ÛĮ": 6496,
      "ĠØ¹Ø±ÙĪØ¶": 6497,
      "ĠØŃØ§ØªÙħ": 6498,
      "ÙħÙĪØ²Ø´": 6499,
      "ĠØ¨Ø±ÛĮØª": 6500,
      "ĠÙģØ±ØŃÙĨØ§Ø²": 6501,
      "ĠØ§Ø¨Ø±ÛĮØ´Ùħ": 6502,
      "ĠØ³Ø±ÙĩÙĨÚ¯": 6503,
      "ĠÛĮÙĦØ¯Ø§": 6504,
      "ĠØ³ÛĮØ²Ø¯ÙĩÙħ": 6505,
      "ĠØ«Ø±ÙĪØªÛĮØ§ÙĨ": 6506,
      "ĠÙĤÛĮÙħØª": 6507,
      "ĠÚ©Ø´Ú©ÙĪÙĦ": 6508,
      "ĠØ²Ø®Ùħ": 6509,
      "ĠØ§ÙĨØ¯ÛĮØ´ÙħÙĨØ¯Ø§ÙĨ": 6510,
      "ĠÙģÙĤÛĮÙĩÛĮ": 6511,
      "ĠØ¬ÙħÛĮÙĦÙĩ": 6512,
      "Ø±Ø§Ùħ": 6513,
      "ÙĨÙĤ": 6514,
      "ÙĨÙģØª": 6515,
      "ÙĦØ´": 6516,
      "Ø¯ÙĪÙħ": 6517,
      "ĠÙħØ§ÙĨØ§": 6518,
      "ÙĤÛĢ": 6519,
      "ÙĤØ§Ø±Ùĩ": 6520,
      "Ø¨Ø³ØªÚ¯ÛĮ": 6521,
      "ĠÙĪØ´": 6522,
      "Ú¯ÙĦÛĮ": 6523,
      "Ú¯ÙģØªØ§Ø±": 6524,
      "Ø¹Ø¬": 6525,
      "Ø¹Ø§ÙĦ": 6526,
      "ĠØ³Ø§Ø¯": 6527,
      "ĠØ¹Ø°": 6528,
      "ĠØ¹ÛĮÙĨÛĮ": 6529,
      "ĠÚ©ÙĪÛĮ": 6530,
      "ĠØ´ÙħÛĮÙħ": 6531,
      "ĠÙģØ¬Ø±": 6532,
      "ĠØ±ÙĨ": 6533,
      "ĠØ§ÙĦØ±ÙĪ": 6534,
      "ĠØ§ÙĦÙĤÙĦ": 6535,
      "ĠØ¢ÙĪØ§": 6536,
      "ĠÙĤÙĪÙĨ": 6537,
      "ĠÙĤÙĪÙħÛĮ": 6538,
      "ĠØ²ÙĪØ§Ø±Ùĩ": 6539,
      "ĠØ¨ÙĩÙĨ": 6540,
      "ĠÚ¯Ø§Ø²": 6541,
      "ĠÙģØ±ÙĪÙ¾": 6542,
      "ĠÙģØ±ÙĪØ±Ø¯ÛĮÙĨ": 6543,
      "Ø¨ÛĮÙĦ": 6544,
      "ĠÙħØ±Ø¯ÙĪ": 6545,
      "ĠÙħÙĩÙĪØ´": 6546,
      "ÙģØ±Ø§Ø²": 6547,
      "ĠØªØŃÙħÛĮÙĦÛĮ": 6548,
      "ĠÙĦØ±ÛĮ": 6549,
      "ĠÙĦØ§Øª": 6550,
      "ĠÙĦØ³Ø§ÙĨ": 6551,
      "ĠØ³Ø±ÙħØ¯ÛĮ": 6552,
      "ĠÙĤØ±Ø§ÙĨÛĮ": 6553,
      "ĠÙĤØ±ÙĪÙĨ": 6554,
      "ĠÙħØµØ±Ùģ": 6555,
      "ĠØ§Ø±Ø´Ø¯": 6556,
      "ĠÙħÙĪÙĤ": 6557,
      "Ø¦Ø¯": 6558,
      "ĠÚ¯Ø±Ø¯Ø§ÙĨ": 6559,
      "ĠØ´ÛĮØ±Ø²Ø§Ø¯": 6560,
      "Ø§ÙĪØªÛĮ": 6561,
      "ÙĨØ¯ÛĮØ§ÙĨ": 6562,
      "ĠØ®ÙĪØ§Ø³Øª": 6563,
      "ĠØ«Ø§Ø¨": 6564,
      "ĠÚ©ÙĦØ§Ùĩ": 6565,
      "Û±Û³Û²Û°": 6566,
      "ĠØ¸Ø±ÛĮ": 6567,
      "ĠØ¯Ø§Ø±Ø§Ø¨": 6568,
      "ĠØ±Ø§ÙĪÛĮ": 6569,
      "ĠÙĤÛĮØµØ±": 6570,
      "ÙĨØ´ÛĮÙĨÛĮ": 6571,
      "ÙĦØ·ÛĮÙģ": 6572,
      "ĠØºÙģÙĪØ±": 6573,
      "ĠÙĨÛĮØ±Ùĩ": 6574,
      "ĠÙĨØ§ØµØŃ": 6575,
      "ĠÛĮÙĪÙĨØ³ÛĮ": 6576,
      "ĠÙħØ¬Ø¯Ø¯": 6577,
      "ĠÙģØ§Ø±ÙĪÙĤÛĮ": 6578,
      "ĠÙģØ¯Ø§Ø¦ÛĮØ§ÙĨ": 6579,
      "ĠÚĨÛĮØ³Øª": 6580,
      "ĠØ§ÙĦÙĪØ§ØŃØ¯": 6581,
      "ĠÙĪØ¶Ø¹": 6582,
      "ĠÙĨÙĤÛĮØ¨": 6583,
      "ĠÛ±Û³Û³Û²": 6584,
      "ĠÙĤÙĩÙĪÙĩ": 6585,
      "ĠÚ©ÛĮÙħÛĮØ§": 6586,
      "ĠÙħÚ©Ø§ØªØ¨": 6587,
      "ĠÙ¾ÙĪÙĩÙĨØŃÛĮ": 6588,
      "ĠØ³ÛĮØ³ØªÙħ": 6589,
      "Û²Û°Û°Û": 6590,
      "ĠØ´Ø§ÙĨØ²Ø¯Ùĩ": 6591,
      "ĠØ§Ø¨Ø·ØŃÛĮ": 6592,
      "ĠØ¯Ø§ÙĨØ´Ú¯Ø§Ø§": 6593,
      "ĠØ¹Ø¨Ø¯Ø§ÙĦØŃÙħÛĮØ¯": 6594,
      "ÙĦÛĮÙģØ±ÙĨÛĮØ§": 6595,
      "ĠØ¹ØªÛĮÙĤ": 6596,
      "ĠØ´Ø¨ÙĨÙħ": 6597,
      "ÛµÛ": 6598,
      "Ø§ÙĪØ´ÛĮ": 6599,
      "ĠÙħÙħØ¯": 6600,
      "Ø³ÙĪÙĨ": 6601,
      "ĠØ¯ÙĪØ¯": 6602,
      "ĠØªÙģØ±ÛĮ": 6603,
      "ĠÙĨØ³Øª": 6604,
      "Ø§ÛĮÙħ": 6605,
      "Ø§ÛĮÙĨÛĮ": 6606,
      "ĠØ³Ø¯ÛĮØ¯": 6607,
      "ĠØ¹Ø§ÙħÙĦ": 6608,
      "ĠÚ©Ø¯ÛĮ": 6609,
      "ĠØ´Ø§ÙģØ¹ÛĮ": 6610,
      "ĠØ§ÙĦØ§Ùĩ": 6611,
      "ĠØ¬Ø°": 6612,
      "ĠØ¢ÙĪØ§ÙĨ": 6613,
      "ĠÙĤØ§Ø¹Ø¯Ùĩ": 6614,
      "ĠÙĩÙĪØ§ÛĮ": 6615,
      "ĠØ§Ø³Ø§Øª": 6616,
      "ÙĨØ¯Ø±ÛĮ": 6617,
      "ĠØ²ÙĨÚ¯ÛĮ": 6618,
      "ĠØ¨ÙĩÙĨØ§Ø²": 6619,
      "ĠÚ¯ÙĪÛĮ": 6620,
      "ĠØ§ÙĨØ¬": 6621,
      "ÛĢØ§Ø¯": 6622,
      "ĠØµØº": 6623,
      "ĠØµØŃØ±": 6624,
      "ĠØ¨Ø±ÙĨØ§Ùħ": 6625,
      "ĠÙħØ±Ø§ØºÛĮ": 6626,
      "ĠÙħØ±Ø§Ú©Ø²": 6627,
      "ÙģÛĮÙĤÛĮ": 6628,
      "Ø±Ø¯Ø§ÙĨ": 6629,
      "ĠØ§ØŃØ³Ø§ÙĨÛĮ": 6630,
      "Ø§Ø¦ÛĮÙĦ": 6631,
      "Ø¹ÙĦÛĮØ´Ø§Ùĩ": 6632,
      "ĠØ§ÙĦÙħØŃÙħØ¯": 6633,
      "ĠØ§Ø³ØªØ®": 6634,
      "ĠØ§Ø³ØªÙģØ§Ø¯Ùĩ": 6635,
      "ĠØ§Ø±Ø³ÙĦØ§ÙĨ": 6636,
      "Ø¹ÛĮÙĩ": 6637,
      "ĠÙ¾ÛĮØ´Ùĩ": 6638,
      "ĠÛ±Û³Û¸Û±": 6639,
      "ĠØŃÚ©ÙĪÙħØªÛĮ": 6640,
      "ĠØ¬ÙĪÙĩØ±": 6641,
      "ØºØ§ÙĨØ³ØªØ§ÙĨ": 6642,
      "ĠÙ¾ÙĪØ±Ø§ÙĨ": 6643,
      "ĠÙĩÙĨØ±ÙħÙĨØ¯": 6644,
      "ĠÙĨÙĪØ±Ø§ÙĦØ¯ÛĮÙĨ": 6645,
      "ĠÚ¯Ø±Ùħ": 6646,
      "ĠØ°Ø±": 6647,
      "ĠÙĤØµØ§Øµ": 6648,
      "ĠØ¢Ø°Ø±Ø¨Ø§ÛĮØ¬Ø§ÙĨÛĮ": 6649,
      "ĠØ²ÛĮØ±ÙĨØ¸Ø±": 6650,
      "ĠÙĨÙħØ§Ø¯": 6651,
      "ĠØ¸ÙĦ": 6652,
      "ĠØµØ¯Ø±Ø§ÙĦØ¯ÛĮÙĨ": 6653,
      "Ø¬ÙĩØ§ÙĨ": 6654,
      "ĠÛ±Û¹Û´Û": 6655,
      "Ø®ÙĪØ§Ø³Øª": 6656,
      "ÙĪØ²ÛĮØ¹": 6657,
      "ĠØ§ÙĦÙĨÙĩØ±": 6658,
      "ĠÙĨÛĮÚ©Ø¨Ø®Øª": 6659,
      "ĠØ§ÙĦØ±ØŃÙħØ§ÙĨ": 6660,
      "ĠÛĮØ¹ÙĨÛĮ": 6661,
      "ĠÙĤÙĦÛĮÚĨ": 6662,
      "ĠÛ²Ûµ": 6663,
      "ĠØ¢ÙģØ§ÙĤ": 6664,
      "ĠÙ¾ÙĪÙĩÙĨÛĮ": 6665,
      "ĠÛĮÙĪÙĨØ§ÙĨ": 6666,
      "ĠØµØ¨ÙĪØ±": 6667,
      "ĠÙĨØ¬ÙħÙĩ": 6668,
      "ĠØ¹ÙĤØ¯": 6669,
      "ĠÛ±Û²Û¹Û": 6670,
      "ĠØ¯ÙħÙĪÚ©Ø±Ø§ØªÛĮÚ©": 6671,
      "ĠØªÙħØ§Ø´": 6672,
      "ĠØ®ÙĪÙĨÛĮÙĨ": 6673,
      "ĠÙĨÙĩØ§Ø¯ÙĩØ§ÛĮ": 6674,
      "ĠÙħØ§Ø¬Ø±Ø§ÙĩØ§ÛĮ": 6675,
      "ĠØ±Ø§Ø³ØªÛĮ": 6676,
      "ĠØ¨Ø¹Ø¶ÛĮ": 6677,
      "ĠÚ©Ø§ÙĦØ§": 6678,
      "ĠÙĨØ§Ø¯Ø±Ùĩ": 6679,
      "ĠÙħÙĤØµÙĪØ¯ÛĮ": 6680,
      "Ù¾ÚĺÙĪÙĩØ´Ú¯Ø§Ùĩ": 6681,
      "ĠØ¯Ø±ÙĪÛĮØ´ÛĮ": 6682,
      "ĠÙĨØ¯ÛĮØ´Ùĩ": 6683,
      "ĠÙħØ°Ø§Ú©Ø±Ø§Øª": 6684,
      "ĠØ±Ø³ØªØ§Ø®ÛĮØ²": 6685,
      "ÙĪØ§Ùĩ": 6686,
      "ÙĩØ§Ø´": 6687,
      "Ø§Ø¤": 6688,
      "ĠÙħØ§Øª": 6689,
      "ĠÙħÙĪØ´": 6690,
      "Ø´ÙĤ": 6691,
      "Ø¨ÙĪÙħ": 6692,
      "Ø¨Ø¯Ø§Ø¯": 6693,
      "ĠÙĪØ§ÛĮ": 6694,
      "Ú¯ÙĪÙĨÛĮ": 6695,
      "ĠÙĨØµÛĮ": 6696,
      "Ø²ÙĩØ±Ø§": 6697,
      "ĠØ¹ÙĤÛĮÙĤÛĮ": 6698,
      "ĠÙģØ´Ø§Ø±": 6699,
      "Ø§ÙĦØªÛĮ": 6700,
      "Ø§Ø³ÛĮØ±": 6701,
      "ĠØ¬Ø§Ø³": 6702,
      "ĠØ¯Ø±Ø³Øª": 6703,
      "ĠÙĤÙĤÙĨ": 6704,
      "ĠØ§Ø³Ø¹Ø¯ÛĮ": 6705,
      "Ø¯ÛĮØ³": 6706,
      "ĠÚ¯Ø±Ùĩ": 6707,
      "ĠØ¹ÙĦÛĮØ´Ø§Ùĩ": 6708,
      "ÙĦÙĩÛĮÙĨ": 6709,
      "ĠØ¨Ø±Ø¯": 6710,
      "ĠØ¨Ø±Ø¢": 6711,
      "ĠÙħØ±Ø§Øª": 6712,
      "ĠÙħØ±Ø«": 6713,
      "ĠØ¹Ø¨Ø±Øª": 6714,
      "ĠØ·ØŃ": 6715,
      "ĠØ·ÙĪÙĦ": 6716,
      "ØªØ´ÙĨØ§Ø³ÛĮ": 6717,
      "ĠØºÙĨ": 6718,
      "ĠØ¹ÙĦØ§ÛĮÛĮ": 6719,
      "ĠÙĦØ§Ø¯ÙĨ": 6720,
      "ĠØ¯Ø§ÙĨØ´Ù¾ÚĺÙĪÙĩ": 6721,
      "ĠÙĩÙħØ§ÛĮÛĮ": 6722,
      "ĠØ¨ÛĮØ§Ø¨Ø§ÙĨ": 6723,
      "Ø¯ÙĪÙĨÛĮ": 6724,
      "ĠØ§ØµÙĦÛĮ": 6725,
      "ĠØ§ØµØŃØ§Ø¨": 6726,
      "ĠÙĨÙĪØ§ÛĮ": 6727,
      "ĠØ§Ø¬ÙħØ§ÙĦÛĮ": 6728,
      "ĠØ¬ÙĪØ§ÙħØ¹": 6729,
      "ĠÚ©Ø§Ø±Ú©ÙĨ": 6730,
      "ĠÚ©Ø§Ø±Ú¯Ø±ÛĮ": 6731,
      "ÙĪÛĮØ±Ø§ÛĮØ´": 6732,
      "ĠÙĨÚ¯Ø§Ø±Ú¯Ø±ÛĮ": 6733,
      "ĠØŃØ¶Ø±": 6734,
      "ĠØ®Ø±ÙħÛĮ": 6735,
      "ĠØªØ¬Ø±Ø¨": 6736,
      "ĠÙĨØ§ØµØ±Ø§ÙĦØ¯ÛĮÙĨ": 6737,
      "ĠØµÙģØ§Ø±": 6738,
      "ĠØµÙģØŃÙĩ": 6739,
      "ĠØ¨ÙĨÛĮØ§Ø¯ÛĮÙĨ": 6740,
      "ĠØ§ÙĦØ³ÛĮØ¯": 6741,
      "ĠØ§ÙĦÙĤØ§Ø³ÙħÛĮ": 6742,
      "µÛ³Û±": 6743,
      "ĠØµØ¯Ø±Ø§ÛĮÛĮ": 6744,
      "ÙħØŃÙĤÙĤ": 6745,
      "ĠØ¹Ø·ÛĮÙĩ": 6746,
      "ĠÙħÙĦÚ©Ø²Ø§Ø¯Ùĩ": 6747,
      "ĠÙĩØ§Ø´ÙħÛĮØ§ÙĨ": 6748,
      "ĠØªÙĤØ¯ÛĮÙħ": 6749,
      "ĠÙĤØ·Ø¹": 6750,
      "ĠÚ©ÙĪÚĨÙĪÙĦÙĪ": 6751,
      "ĠØŃÛĮÙĪØ§ÙĨ": 6752,
      "ĠÙĤØ¯ÛĮØ§ÙĨÛĮ": 6753,
      "ĠÙħØ·Ø¨Ø¹ÛĢ": 6754,
      "ĠÙģØ¶ÙĦÛĮ": 6755,
      "ĠØ¨ÛĮØ±ÙĪÙĨÛĮ": 6756,
      "Ú¯Ø§Ø§ÛĮ": 6757,
      "ĠÙĤØ§ÙĨØ¹ÛĮ": 6758,
      "ĠÙĤØ§ÙĨÙĪÙĨÚ¯": 6759,
      "ĠÙħÙĨØ¸ÙĪÙħÛĢ": 6760,
      "ÙĤØ¯Ø³": 6761,
      "ĠØ§ÙħÛĮØ±Ø§ÙĦÙħÙĪÙħÙĨÛĮÙĨ": 6762,
      "ĠØ¨ØºØ¯Ø§Ø¯": 6763,
      "ĠØ¯ÙĪØ§Ø²Ø¯ÙĩÙħ": 6764,
      "ĠØ´Ú©ÛĮØ¨": 6765,
      "ĠØ¨ÛĮÙħØ§Ø±ÛĮ": 6766,
      "ĠÙ¾Ø±Ø³ØªÙĪ": 6767,
      "ĠÙħÙĪÙĨØ§": 6768,
      "ĠØ¨Ø±Ø¬Ø³ØªÙĩ": 6769,
      "ĠÚ©ÙħÙĪÙĨÛĮØ³Øª": 6770,
      "ÙħØ·Ø§ÙĦ": 6771,
      "ĠØ¯Ø®ØªØ±ÛĮ": 6772,
      "ØŃØ¶Ø±Øª": 6773,
      "ĠÙĦÙĨÚ©Ø±Ø§ÙĨÛĮ": 6774,
      "ĠÙ¾Ø§ÛĮØªØ®Øª": 6775,
      "ĠG": 6776,
      "ÛĮØ¹": 6777,
      "Ø±Ø´": 6778,
      "ÙĨØ²ÛĮ": 6779,
      "ÙĪÙħØ§ÙĨ": 6780,
      "ÙĪÚ¯Ø±": 6781,
      "Ø¯Ø§Ø³ØªØ§ÙĨ": 6782,
      "ÙĤØ§Ùģ": 6783,
      "ĠØ§ÙħØ¯": 6784,
      "ĠØ¯Ø³": 6785,
      "ĠÚ©ÙĪÙĦ": 6786,
      "ĠØŃÙĤÛĮ": 6787,
      "ĠØŃØ§ÙĪÛĮ": 6788,
      "Ø§ÙĦØ¹ÙĦÙĪÙħ": 6789,
      "Ø®ÛĮØ±": 6790,
      "Ø®Ø°": 6791,
      "ĠÙ¾Ø§Ø±Ùĩ": 6792,
      "ĠØ¬ÙĪØ±": 6793,
      "ĠØ¬ÙĨØ¯": 6794,
      "ĠØ¢Ø±Øª": 6795,
      "ØµÛĮØ±": 6796,
      "ØµØ§Ùģ": 6797,
      "ÚĺÙĨÚ¯": 6798,
      "ĠÙħØ±ÙħØª": 6799,
      "ĠÙħØ±Ø§Ø³Ùħ": 6800,
      "ĠØ³ÛĮØ¯Ø§ÙĦ": 6801,
      "ĠØ§ØŃÙħØ¯Ø²Ø§Ø¯Ùĩ": 6802,
      "ĠØ¨ÙĨØ§ÙĩØ§ÛĮ": 6803,
      "Ø´ÛĮØ®": 6804,
      "ĠØ³Ø±Ø§ÙħÛĮ": 6805,
      "ĠØ±ÙĪØ¶": 6806,
      "ĠØ¯ÛĮÙĩ": 6807,
      "ĠØ¯ÛĮØ¨": 6808,
      "ĠØ§Ø³ØªØ¯ÙĦ": 6809,
      "ĠØ§Ø±Ø¨Ø§Ø¨": 6810,
      "ĠØ³Ø¹Ø§Ø¯": 6811,
      "ĠØ¢ÙħØ§Ø±ÛĮ": 6812,
      "ĠØªÙĪØ·": 6813,
      "ÙħØ§ÙĨÛĮØ§ÙĨ": 6814,
      "ĠØ¬ÙĪÛĮÙĨÛĮ": 6815,
      "ĠØ´ÙħØ¹": 6816,
      "ĠÚĨØ§Ù¾ÛĮ": 6817,
      "ĠØ¢Ø±Ø²": 6818,
      "ĠÙħØ±ØªØ¨Ø·": 6819,
      "Ø¯Ø§ÙĪÙĦ": 6820,
      "ĠØ¯Ø³ØªÛĮ": 6821,
      "ĠÚ©ÙĨØ²": 6822,
      "ĠÙ¾ÛĮØ´ÙĪØ§ÛĮ": 6823,
      "ĠØ¯Ø§Ø±Ø¯": 6824,
      "ĠØ¢Ø²Ø§Ø¯Ú¯Ø§ÙĨ": 6825,
      "ĠØ§ÙĦØ±ÙģÛĮØ¹": 6826,
      "ĠØ´ÙģØ§": 6827,
      "ĠØ¹ÛĮÙĪ": 6828,
      "ĠÙĤÙĦÛĮØ²Ø§Ø¯Ùĩ": 6829,
      "ĠÙĩÙĨØ¯ÙĪØ³ØªØ§ÙĨ": 6830,
      "ĠØ±ÙĪØ³ØªØ§Ø¦ÛĮ": 6831,
      "ĠØªÙĩØ°ÛĮØ¨": 6832,
      "ĠØŃÙĦØ§Ø¬": 6833,
      "ĠØµØŃÙĨÙĩ": 6834,
      "ĠØ¯Ø§ÙĨØ³ØªÙĨÛĮ": 6835,
      "ĠØ¢Ø³ÛĮØ¨Ø´ÙĨØ§Ø³ÛĮ": 6836,
      "ĠÛĮÚ©ØµØ¯ÙħÛĮÙĨ": 6837,
      "ĠØ³ØŃØ§Ø¨ÛĮ": 6838,
      "ĠØ¯ÛĮÙĦÙħ": 6839,
      "ĠÙħØ¹Ø¬Ø²Ùĩ": 6840,
      "ĠØ§ÙĤØªØ¯Ø§Ø±": 6841,
      "ĠØ§Ø¯ÙĪØ§Ø±Ø¯": 6842,
      "ĠØ§ÙĨÙĪØ´Ùĩ": 6843,
      "ĠÙģÙĪÙĦØ§Ø¯ÙĪÙĨØ¯": 6844,
      "ĠØ³ÙĪØ³ÛĮØ§ÙĦÛĮ": 6845,
      "ĠÚ¯Ø³ØªØ±Ùĩ": 6846,
      "ĠØ³Ú©ÙĨØ¯Ø±": 6847,
      "ĠÙĨÙĩØ§ÙĪÙĨØ¯ÛĮ": 6848,
      "ĠØ§ÙĦØ§Ø¨Ø±Ø§Ø±": 6849,
      "ĠØ³Ø±ÚĨØ´ÙħÙĩ": 6850,
      "ĠØ®ÙĦÛĮÙģÙĩ": 6851,
      "ĠÙĨØ²Ø¯ÛĮÚ©": 6852,
      "ĠÙĩØ±Ú¯Ø²": 6853,
      "le": 6854,
      "µÛ±": 6855,
      "ïº": 6856,
      "ĠL": 6857,
      "ÙĨÙĪØ§Ø²": 6858,
      "ÙĪØ¹ÛĢ": 6859,
      "Ø¯ÙħÙĩ": 6860,
      "Ø¨Ø§ÙĦÛĮ": 6861,
      "ĠØ¨ÙħÙĨ": 6862,
      "ĠÙĪØ¯": 6863,
      "ĠØ¯ÙħÙĨÙĩ": 6864,
      "ĠØªØ¹ÙĩØ¯": 6865,
      "ĠÙĨÚĺ": 6866,
      "ĠÙĨØ§Ù¾": 6867,
      "ĠÙĨØ°ÛĮØ±": 6868,
      "ĠØ³ÙĪØ±ÛĮ": 6869,
      "ĠØ³Ø§Ø¬": 6870,
      "Ø²ÙĦÛĮ": 6871,
      "ÛĮØ±Ø¯": 6872,
      "ĠÙģÙĤØ±": 6873,
      "ĠÙģÙĪÙĤ": 6874,
      "ĠÙģØµÙĪØµ": 6875,
      "ĠÙģÙĩÛĮÙħÛĮ": 6876,
      "ĠØ¬Ø§Ø¨Ø±": 6877,
      "ĠÙħØŃÙħØ¯Ù¾ÙĪØ±": 6878,
      "ĠÙħØŃÙħØ¯ØŃØ³ÙĨ": 6879,
      "ĠÙħØŃÙħØ¯Ø¨Ø§ÙĤØ±": 6880,
      "ĠØ®ÙĨØ¯": 6881,
      "ĠÙĤØ¨Ø§ÙĦ": 6882,
      "ĠÙĩØ±ÛĮ": 6883,
      "ĠØ§Ø³ÙģØ±": 6884,
      "ĠÚ¯ÙĩØ±": 6885,
      "ĠÚ¯Ø±Ø§ÙĨ": 6886,
      "ĠÚ¯Ø´Øª": 6887,
      "ĠÙģØ±Ø§Ø³Øª": 6888,
      "ĠÛĮÙħÛĮÙĨ": 6889,
      "ĠØ§ÛĮØ±Ø§ÙĨØ´ÙĩØ±": 6890,
      "ĠØ¨Ø±Ø³": 6891,
      "ÙĪÙĩØ´": 6892,
      "ØºØ²": 6893,
      "ĠÙħØ¹ØµØ±": 6894,
      "ĠÙħØ¹Ø§ÙħÙĦØ§Øª": 6895,
      "ĠÙħÙĤØª": 6896,
      "ĠÚĨØ§ÙĦ": 6897,
      "ĠØ§Ø¨ÙĩØ±ÛĮ": 6898,
      "ĠØ§ØŃØ³": 6899,
      "ĠØ§ØŃØ¯ÛĮ": 6900,
      "ĠØªØ±ÙĪÛĮØ¬": 6901,
      "ĠØ¹ÙĦØ§": 6902,
      "ĠÙĦØ¹ÙĦ": 6903,
      "ĠØ³Ø±Ø§ÛĮÛĮ": 6904,
      "ĠØ³Ø±Ù¾Ø±Ø³Øª": 6905,
      "Ø§Ú©Ø§ÙĨ": 6906,
      "ĠØ§ÙģÙĨØ¯ÛĮ": 6907,
      "ĠØ§ÙĦÙħÙħØ§ÙĦÚ©": 6908,
      "ĠÛ±Û°Û": 6909,
      "ĠÙħØ³Ú©": 6910,
      "ĠÙħÙĩØ¯ÛĮØ²Ø§Ø¯Ùĩ": 6911,
      "ĠØ§Ø³ØªØ§Ø¯ÛĮ": 6912,
      "ĠØ§Ø±Ø¨": 6913,
      "Ø¨ÙĩØ§Ø±": 6914,
      "ÙĨØ¬ÙĦØ³": 6915,
      "ĠØ§Ø¨ÙĪØ°Ø±": 6916,
      "ĠØ§Ø´ØªØ±": 6917,
      "ĠØ§Ø¬Ø§Ø±Ùĩ": 6918,
      "ĠÚ©Ø±Ø§ÚĨÛĮ": 6919,
      "ĠØ´ÙĩØ±ÙĩØ§ÛĮ": 6920,
      "ĠØ´Ø¹Ø±Ø§": 6921,
      "ĠÚ¯Ø±Ø¨Ùĩ": 6922,
      "ĠØ±ÙĪØ²Ø§ÙĨÙĩ": 6923,
      "ĠÚ¯ÙģØªÙĪ": 6924,
      "ĠØ°Ú©Ø±ÛĮ": 6925,
      "Û±Û³Û¹Û": 6926,
      "ĠÙ¾ÛĮØ±ÙĨÛĮØ§": 6927,
      "ĠØ§Ø«Ø±ÛĮ": 6928,
      "ĠÙĦÛĮØ¯Ø§": 6929,
      "ĠØ¸Ø§ÙĩØ±": 6930,
      "ĠØ§Ú©Ø¨Ø±Ø²Ø§Ø¯Ùĩ": 6931,
      "ĠÙħØ§ÙĩÙĪØ±": 6932,
      "ĠØ§ØªØ§Ø¨": 6933,
      "ĠØµÙĨÙģÛĮ": 6934,
      "Ú©Ø§ÙĪÛĮ": 6935,
      "ĠÚ¯ÛĮÙĦÚ©ÛĮ": 6936,
      "ĠØ´Ø¨Ú©Ùĩ": 6937,
      "Ø¬ÙĪØ§Ø¯ÛĮ": 6938,
      "ĠÛĮØ±Ø§Ø³ØªØ§Ø±": 6939,
      "ĠÙģÙĤØ·": 6940,
      "ĠØ®Ø³Ø±ÙĪÙ¾ÙĨØ§Ùĩ": 6941,
      "ĠÙĩÙĪØ´ÙħÙĨØ¯": 6942,
      "ĠÙħØ®ØªØµØ±ÛĮ": 6943,
      "ĠØ¹ÙĨÙĤØ§": 6944,
      "ĠÙĩÙħØ§ÛĮÙĪÙĨÛĮ": 6945,
      "ĠØªØ´Ú©Ø±ÛĮ": 6946,
      "ĠÙħØ±Ø¯Ø§ÙĨÛĮ": 6947,
      "ĠÙģØ±Ø§ÙħØ±Ø²ÛĮ": 6948,
      "ĠÛ±Û³Û¸Û´": 6949,
      "ĠØ±ÙĪØ³ØªØ§ÛĮ": 6950,
      "ĠØ³Ø±ÙĪØ¯ÙĩØ§ÛĮ": 6951,
      "ĠØ§ØµÙĦØ§ÙĨÛĮ": 6952,
      "ĠØºÛĮØ§Ø«ÛĮ": 6953,
      "ĠÙħØ´Ú©ÙĪÙĩ": 6954,
      "ÙĤØ¶Ø§ÛĮÛĮ": 6955,
      "ĠØ¨Ø§ÙĨÚ©Ø¯Ø§Ø±ÛĮ": 6956,
      "ĠØ¢Ø±Ø§ÙħØ´": 6957,
      "ĠØ®ÙĪØ§Ø±Ø²Ùħ": 6958,
      "ĠÙĨØ¯ÙĪØ´ÙĨ": 6959,
      "ĠÙ¾Ø§Ø´Ø§": 6960,
      "ĠØ±ÙĪØ´ÙĨÙģÚ©Ø±Ø§ÙĨ": 6961,
      "ĠØ¯Ø´ÙħÙĨ": 6962,
      "ĠÙĨÙĪØ³ÙĨØ¯Ùĩ": 6963,
      "ĠØ®Ø¬Ø³ØªÙĩ": 6964,
      "ĠÙĩÙħØ§ÙĩÙĨÚ¯ÛĮ": 6965,
      "ĠØªÙĩØ±ÙĨ": 6966,
      "ĠØ§ÛĮÙĦÛĮØ§": 6967,
      "ĠÙ¾ÛĮØºÙħ": 6968,
      "ĠØ·Ø§ÛĮÙģÙĩ": 6969,
      "ĠØªÙĨÚ©Ø§Ø¨ÙĨÛĮ": 6970,
      "ĠÙ¾Ø§Ø¦ÛĮØ²": 6971,
      "ĠÙĨØ®Ø¨Ú¯Ø§ÙĨ": 6972,
      "ĠØ¨Ø±ÛĮØªØ§ÙĨÛĮØ§": 6973,
      "ĠØ§Ø³Ø§ØªÛĮØ¯": 6974,
      "ĠÙĤÙĤÙĨÙĪØ³": 6975,
      "ed": 6976,
      "ĠÙĦÛĮÙĦ": 6977,
      "ÛĮÛĮ": 6978,
      "ÙĪØ§Øª": 6979,
      "ÙĪØŃÛĮ": 6980,
      "Ø§ÙĨÚĺØ§Ø¯": 6981,
      "ØĮ]": 6982,
      "Ø³ÛĮØ±": 6983,
      "ĠØ¨Ø³ØªÙĩ": 6984,
      "ĠØ¯Ø§ÙĨÛĮ": 6985,
      "ĠØªÙĪØ¯": 6986,
      "ĠÙĨØ§": 6987,
      "ĠÙĨØ§Ø³": 6988,
      "ĠÙĨÙĩÛĮ": 6989,
      "Ø²ÙĨØ¯": 6990,
      "Ø²ÛĮØ±Ø§Øª": 6991,
      "ĠØ¹ÛĮØ¯": 6992,
      "Ø§ÙħØ±": 6993,
      "ĠÚ©Ø¹": 6994,
      "Ù¾Ø§ÛĮÛĮ": 6995,
      "ĠØ´Ú¯ÙģØª": 6996,
      "ĠÙģØ§ÙĨ": 6997,
      "ĠØ§ÙĦÙħØ¯": 6998,
      "ĠØ¬Ø§Ùĩ": 6999,
      "ĠØ¬Ø§ÙĨÛĮ": 7000,
      "ĠØ¬Ø§Ø°": 7001,
      "ĠØ¢Ø²ÛĮØªØ§": 7002,
      "ĠÙħØŃÙħØ¯ØªÙĤÛĮ": 7003,
      "ĠØ¯Ø±Ú¯Ø§ÙĩÛĮ": 7004,
      "Ø·ÙĦØ¨": 7005,
      "ĠÚ¯ÙĨØ¯": 7006,
      "ĠÚ¯ÙĦÙĪ": 7007,
      "ÙħÛĮØ²Ø§ÙĨ": 7008,
      "ÚĨÛĮÙĨ": 7009,
      "ĠÙħØ±Ø¬": 7010,
      "Ø§Ø³ÛĮØ§ÙĨ": 7011,
      "ÙĪÙĦØª": 7012,
      "ÙĪÙĦØªÛĮ": 7013,
      "Ø§Ø´Ø±": 7014,
      "Ø¢ÙģØ±ÛĮÙĨÛĮ": 7015,
      "ĠØªØ§Ø±ÛĮØ®ÙĨÚ¯Ø§Ø±ÛĮ": 7016,
      "ĠØ¹ÙĦØ§Ø¦ÛĮ": 7017,
      "ĠØ¹ÙĦÙħØ§": 7018,
      "ĠÙĦØ¨Ø§Ø³": 7019,
      "ĠØ¯Ø§ÙĨØ´ÙĪØ±Ø§ÙĨ": 7020,
      "ĠÙĩÙħØ±Ùĩ": 7021,
      "ĠØ§ÙģØ³Ø±": 7022,
      "ĠØ§ÙĦÙħÙĪ": 7023,
      "ĠÙħØ¬ØªØ¨": 7024,
      "ĠÙħØ¬ØªÙħØ¹": 7025,
      "Ú©ÛĮÚ©": 7026,
      "ÙĨØ¬Ùĩ": 7027,
      "ĠØ³Ø§ÙĦÙĨØ§ÙħÙĩ": 7028,
      "Ø§ÙģØºØ§ÙĨØ³ØªØ§ÙĨ": 7029,
      "Ø³ÙĨØ§": 7030,
      "ĠÚ©ÛĮØ´": 7031,
      "ĠØ§ÙĤÙĦÛĮØª": 7032,
      "ÙĨØ¯ÛĮØ³": 7033,
      "ĠØ³ÙĦØ§Ø·ÛĮÙĨ": 7034,
      "ĠØ¨Ø§Ø¨ÙĦ": 7035,
      "ĠØ¶ÙħØ§ÙĨ": 7036,
      "ĠÛĮØ§Ø§Ø´Øª": 7037,
      "ĠØ¬ÙĨÛĮØ¯": 7038,
      "ÛĮØ§ÙĨØª": 7039,
      "Ú©ÙĨÙħ": 7040,
      "ĠÙĪØŃØ´ÛĮ": 7041,
      "ĠØ¨Ø®Ø§Ø±Ø§": 7042,
      "ĠÙģØªØ§ÙĪ": 7043,
      "ĠØ¹Ø§ÙĦÛĮÙĩ": 7044,
      "Ø®ÙĪØ§ÙĩÛĮ": 7045,
      "ĠÙħØ³ØªØ·Ø§Ø¨": 7046,
      "ĠÙģÛĮØ±ÙĪØ²ÛĮ": 7047,
      "ĠØªØ¹Ø§ÙħÙĦ": 7048,
      "ĠØªØ¹Ø±ÛĮÙģ": 7049,
      "ĠØªÙĤØ±ÛĮ": 7050,
      "ĠÙĨÚ¯Ø§Ø´Øª": 7051,
      "ĠØ¨Ø§ÙĤØ±ÛĮØ§ÙĨ": 7052,
      "ĠØªØ°ÙĩÛĮØ¨": 7053,
      "ĠØ§ÙĦØµØ§Ø¯": 7054,
      "ĠØ¹Ø±Ø¨Ø³ØªØ§ÙĨ": 7055,
      "ĠØ³Ø§Ø®ØªÙħØ§ÙĨ": 7056,
      "ĠÙģØ±ÙħØ§ÙĨØ¯ÙĩÛĮ": 7057,
      "ĠÙģØ®Ø±Ø§ÙĦØ¯ÛĮÙĨ": 7058,
      "ĠØ¹ÙĤÛĮØ¯": 7059,
      "ĠÚ©ÙĪÙĩØ³ØªØ§ÙĨ": 7060,
      "ĠÙ¾Ø§Ø±Ø³Ø§ÙĨ": 7061,
      "ĠÙ¾ÛĮØ´Ú¯Ø§ÙħØ§ÙĨ": 7062,
      "ĠÙħØ§ÙĦÛĮØ§Øª": 7063,
      "ĠØ´Ø±ÙĪÛĮÙĨ": 7064,
      "Ø¯Ø§ÙĨØ´Ú¯Ø§Ùĩ": 7065,
      "ĠØ§ÙĦÙģØªØŃ": 7066,
      "ĠØ¨Ø¹Ø«": 7067,
      "ĠÙĨØ§ØªÙĦ": 7068,
      "ĠÙģØ³Ø§Ø¯": 7069,
      "ĠØ¨Ø§ÙĪØ±ÙĩØ§ÛĮ": 7070,
      "ĠØ³ÙĪØ±ÛĢ": 7071,
      "ĠØ§ÙģØ³Ø§ÙĨÛĢ": 7072,
      "ÙħØ§Ø±ÙĪØ¯ÛĮ": 7073,
      "ĠÙĩØ§Ø±ÙĪÙĨ": 7074,
      "Ø§ØµÙģÙĩØ§ÙĨ": 7075,
      "ĠØ¹Ø¨Ø¯Ø§ÙĦØ±ØŃÛĮÙħ": 7076,
      "ĠØ¹ÙĤÛĮÙĦÛĮ": 7077,
      "ĠÛĮÚ©ØªØ§": 7078,
      "ĠØ§ØªÙģØ§ÙĤ": 7079,
      "ĠØ³ÙĪÙĦÙħØ§Ø²": 7080,
      "ĠØµÙĨØ¯ÙĪÙĤ": 7081,
      "ĠØ§ÙĩØ¯Ø§Ùģ": 7082,
      "ĠÙĩØ±ÙħÙĨÙĪØªÛĮÚ©": 7083,
      "ĠÚ©Ø¯ÛĮÙĪØ±": 7084,
      "ÛĮÚ©": 7085,
      "ÙĩÙĨØ§Ø³ÛĮ": 7086,
      "ĠÙħØ§ÙĪØ±": 7087,
      "Ø³Ø³ÛĢ": 7088,
      "ĠØ§ÛĮØ¯Ùĩ": 7089,
      "ĠØ¨Ø§Ø±ÛĮ": 7090,
      "ĠÙĪØ§Ø´": 7091,
      "Ú¯ÙĪØ±": 7092,
      "Ú¯ÙĪÙĩØ§": 7093,
      "ĠØ¯ÙĦÛĮÙĦ": 7094,
      "ĠÚ©Ø¨ÙĪ": 7095,
      "ĠÙģØ§Ø±ÛĮ": 7096,
      "ĠØ±Ø§Ø¹ÛĮ": 7097,
      "ĠØ§ÙĦØ§ÛĮ": 7098,
      "ĠØ§ÙĦÙĩØ±ÙĪÛĮ": 7099,
      "ĠØ¬Ø³": 7100,
      "ĠØ¬Ø§Ø¨Ø±ÛĮ": 7101,
      "Ø§Ø¨ÙĤÙĩ": 7102,
      "ĠÙĤØªØµ": 7103,
      "ĠÙĤÙģØ³": 7104,
      "ĠÙĩÛĮØ±": 7105,
      "ĠØ²ÙĦÛĮ": 7106,
      "ĠØ¨ÙĩØ§Ø±ÛĮ": 7107,
      "ĠØ¨ÙĩØ¨ÙĪØ¯ÛĮ": 7108,
      "ĠÚ¯Ø±ÛĮÙĩ": 7109,
      "ĠÛĮØ«": 7110,
      "ĠØ§ÙħØ§": 7111,
      "ĠØ¹Ø¨ÙĪØ±": 7112,
      "Ø§Ø¦Ùĩ": 7113,
      "ĠØ·ÙĦØ§": 7114,
      "ĠØ·ÙĪØ·ÛĮ": 7115,
      "Ø«ÙĪØ±": 7116,
      "Ø«ÙĦÙĩ": 7117,
      "ĠÙħÙĨÚ©Ø±": 7118,
      "ĠØªØŃØ±ÛĮÙħ": 7119,
      "ĠÙĦÙĪØŃ": 7120,
      "ĠØ§Ø¯ÙĦÙĩ": 7121,
      "ĠØ§ÙĦÙħÙĤ": 7122,
      "ĠÛ±Û´Û": 7123,
      "ĠÙĤØ±ÙħØ²": 7124,
      "ĠØ§Ø±Ú¯Ø§ÙĨ": 7125,
      "ĠØ±Ø³Ø§": 7126,
      "ĠØ§Ø´Øª": 7127,
      "ĠØ§Ø´ØªØ±ÛĮ": 7128,
      "ĠÙħØªØŃ": 7129,
      "ĠÛ±Û³Û²Û°": 7130,
      "ĠØ´ÙĩØ±ÙĪÙĨØ¯ÛĮ": 7131,
      "ĠÚ©Ø§Ø±Ú¯Ø±Ø§ÙĨ": 7132,
      "ĠØ´ÙħØ´ÛĮØ±": 7133,
      "ĠØ§ÙĦØ¹Ø¨Ø§Ø¯": 7134,
      "ĠØ¯ÙĪØ±ÙĩÛĮ": 7135,
      "ĠØ§Ø¹Ø¶Ø§ÛĮ": 7136,
      "Ø§ØºØª": 7137,
      "Ø§Ø¶Ø¹": 7138,
      "ĠÚ¯Ø±ÙħØ§Ø±ÙĪØ¯ÛĮ": 7139,
      "ĠØ·Ø¨ÙĤØ§Øª": 7140,
      "ĠØ®ÙĪØ§Øµ": 7141,
      "ĠØ®Ø±Ø§Ø²ÛĮ": 7142,
      "ĠØ§ÙĪØ³Øª": 7143,
      "ĠØ§ÙĪÙĤØ§Ùģ": 7144,
      "ĠØ°ÙĩÙĨ": 7145,
      "ĠÛĮØ§Ø¯ÙĪØ§Ø±Ùĩ": 7146,
      "ĠÙ¾Ø§ÛĮØ§": 7147,
      "ĠØ¸Ø±ÛĮÙģ": 7148,
      "ĠÚ¯ÙĨØ¬ÛĮÙĨ": 7149,
      "ÙħØŃÙħÙĪØ¯": 7150,
      "ĠÚ©Ø±ÛĮÙħØ²Ø§Ø¯Ùĩ": 7151,
      "ĠØµØ¯ÙĪØ±": 7152,
      "ĠÛ±Û¹Û¹Û": 7153,
      "Ú¯Ø°Ø´ØªÙĩ": 7154,
      "ĠÙĨØ®Ø¬ÙĪØ§ÙĨÛĮ": 7155,
      "Ø®ÙĪÙĨØ¯ÛĮ": 7156,
      "Ø§ÙģÛĮÙĩ": 7157,
      "ĠÙģØ±Ø²Ø§Ùħ": 7158,
      "ĠÙģØ±Ø²ÙĨØ¯Ø§ÙĨ": 7159,
      "ĠÚ©Ø§ÙĦÛĮÙģØ±ÙĨÛĮØ§": 7160,
      "ĠØ¨Ø®Ø´Ø§ÛĮØ´": 7161,
      "Ù¾Ø±ÙĪØ±": 7162,
      "ĠØ·Ø§ÙĦØ¨Ø§ÙĨ": 7163,
      "ĠÙĨÚ¯Ø§Ø´ØªÙĩ": 7164,
      "ĠÙħØŃÙĤÙĤØ§ÙĨ": 7165,
      "ĠØ±Ø§ÙĩÙĨÙħØ§ÛĮÛĮ": 7166,
      "ĠØªÚ©ÙħÛĮÙĦ": 7167,
      "ĠØ³ÙĪØ¦Ø¯": 7168,
      "ĠØ¹Ø¨Ø¯Ø§ÙĦÙĦÙĩÛĮ": 7169,
      "ĠÛ±Û³ÛµÛ¸": 7170,
      "ĠØ§ÙĨØªÙĤØ§ÙĦ": 7171,
      "ĠÙħØ¹ÙĨÙĪÛĮØª": 7172,
      "ĠØ·ÙĦØ§Ø¦ÛĮ": 7173,
      "ĠÚ©ÙĪÙĩØ³ØªØ§ÙĨÛĮ": 7174,
      "ĠØ¨ÙĦÙĪÚĨÛĮ": 7175,
      "ĠÛ±Û³Û¶Û¹": 7176,
      "Ø¨Ø§Ø¨Ø§": 7177,
      "ĠØ¬Ø³ØªØ§Ø±ÙĩØ§ÛĮ": 7178,
      "ĠØ¯Ø§ÙĨØ§Ùĩ": 7179,
      "ĠØ³Ø±ÛĮØ¹": 7180,
      "ĠÙħØ¸ÙģØ±Ø§ÙĦØ¯ÛĮÙĨ": 7181,
      "ĠÛ±Û³Û·Û¶": 7182,
      "ĠØªØ®ÙĦÙģ": 7183,
      "ĠÙģÙĦÙĪØ±": 7184,
      "ĠØ·ÙĩÙħØ§Ø³Ø¨": 7185,
      "ĠØ¬Ø§ÙĪØ¯Ø§ÙĨÙĩ": 7186,
      "ĠØ³ØŃØ§Ø¨": 7187,
      "ĠØ¸Ø±ÙģÛĮØª": 7188,
      "ĠØ±Ø¦ÙĪÙģ": 7189,
      "ĠØ¯ÙĪÙĦØªØ´Ø§ÙĩÛĮ": 7190,
      "ĠÙħØ¨ÙĨØ§ÛĮ": 7191,
      "ĠØ¢Ø²ÙħÙĪÙĨ": 7192,
      "ĠØ´Ø±Ø§ÛĮØ·": 7193,
      "ĠØ§Ø±Ø¨Ø¹ÛĮÙĨ": 7194,
      "ĠØ§ÙĦÙĤÙĦÙĪØ¨": 7195,
      "st": 7196,
      "Ø±ÙĨØ¯Ùĩ": 7197,
      "Ø±ÙĦØ§Ø¨": 7198,
      "ÙħØ¬": 7199,
      "ÙĨÙħØ§": 7200,
      "ÙĦÙĪÙĦ": 7201,
      "ĠÙħÙģØ³": 7202,
      "ØªÛĮÙĨ": 7203,
      "ĠØ¨Ø³Øª": 7204,
      "ĠØ¨Ø³Ùħ": 7205,
      "ĠÙĪØ³ÛĮ": 7206,
      "ĠÙĪÙĤÙĪ": 7207,
      "ĠØªÙĪÛĮØ³": 7208,
      "ĠØªÙĪØ²ÛĮØ¹": 7209,
      "ĠÙĨØ§Ø¯ÛĮ": 7210,
      "ĠØ³Ø§Ø±ÛĮ": 7211,
      "ĠØ³ÙĨÙĩ": 7212,
      "Ø±ÛĮØ¯": 7213,
      "Ù¾ÙĨ": 7214,
      "ĠÙģØ§ÙĦ": 7215,
      "ĠÙģØ¤Ø§Ø¯": 7216,
      "ĠÙģØºÙĨØ³ØªÙĨ": 7217,
      "Ø§ÙĦÙĤ": 7218,
      "Ø§ÙĦØŃØ³ÛĮÙĨ": 7219,
      "ÙħØ¯ÛĮØ±": 7220,
      "ĠÙħØŃØª": 7221,
      "Ø§ØªÙĪØ±": 7222,
      "ĠØ§ÙĦØ¨Ø§ÙĤÛĮ": 7223,
      "ĠØ¬ÛĮÙĦØ§ÙĨÛĮ": 7224,
      "ĠØ¢Ø®ÙĪÙĨØ¯ÛĮ": 7225,
      "ĠÙħØŃÙħØ¯Ø¬ÙĪØ§Ø¯": 7226,
      "ĠØ²ØŃ": 7227,
      "Ø·ÙĦØŃ": 7228,
      "ĠØµÙĨÛĮ": 7229,
      "ÚĺØ¯": 7230,
      "ĠÛĮØª": 7231,
      "ĠØ¨Ø±Ø±Ø³": 7232,
      "ĠÙħØ±ÙĨØ¯ÛĮ": 7233,
      "ÙĨÛĮÚ©": 7234,
      "ĠØŃØ³ÛĮÙĨÙĤÙĦÛĮ": 7235,
      "ĠÙħÙĨØ§Ø²": 7236,
      "ĠÙħÙĩÙħØ¯": 7237,
      "ÙĪØ³Ø§": 7238,
      "ĠØªØŃØµÛĮÙĦÛĮ": 7239,
      "Ø°ÛĮØ±ÛĮ": 7240,
      "ĠØ¯Ø§ÙĨØ´Ø¬ÙĪ": 7241,
      "ĠØ³Ø±Ø´ÙħØ§Ø±ÛĮ": 7242,
      "ĠØ³Ø±ÙĦØ´": 7243,
      "ĠØ³Ø±ÙģØ±Ø§Ø²": 7244,
      "ĠØ§ÙĦÙħØªØ£": 7245,
      "ĠØ¨ÛĮØ§ÙĨÛĮÙĩ": 7246,
      "ĠØ§Ø³ØªØ¨Ø¯Ø§Ø¯": 7247,
      "ĠÙħØµØ§Ø¦Ø¨": 7248,
      "ĠØ§Ø±Ø«": 7249,
      "ÙħÙĨØª": 7250,
      "ĠØ¬ÙĩØ§ÙĨØ´": 7251,
      "ĠÙĨÙĤØ·Ùĩ": 7252,
      "ĠØ³Ø§ÙĦÛĢ": 7253,
      "ĠÙħØŃÙħÙĪØ¯Ø²Ø§Ø¯Ùĩ": 7254,
      "ĠÙĨÙĪØ°Ø±ÛĮ": 7255,
      "ĠØ§ÙħØ§ÙħØ§ÙĨ": 7256,
      "ĠØ§ÙħÛĮØ±ØŃØ³ÛĮÙĨ": 7257,
      "ĠÚ©Ø±Ø§ÙħØ§Øª": 7258,
      "ĠÙĨÛĮØ³ØªØ§ÙĨÛĮ": 7259,
      "ĠÚ©ÛĮÙģÛĮØª": 7260,
      "ĠØ¯ÙĪØ³ØªØ§ÙĨ": 7261,
      "ĠØªÙĨØ¨ÛĮÙĩ": 7262,
      "Ø´ÛĮØ¯ÛĮ": 7263,
      "ĠØ³ÙĦØŃ": 7264,
      "ĠØ±ÙĪØ²Ùĩ": 7265,
      "ĠØ§ÙĪØ§Ø®Ø±": 7266,
      "ĠÙĤØµÙĩÛĮ": 7267,
      "ĠØ¢ÙĤØ§Ø®Ø§ÙĨÛĮ": 7268,
      "ĠÚ©ÙħÚ©": 7269,
      "ĠÙħØ¯ÛĮØ±Ø§ÙĨ": 7270,
      "ĠÙ¾ÛĮØ§ÙħØ¯ÙĩØ§ÛĮ": 7271,
      "ĠÙĤØ§Ø³ÙħÙĦÙĪ": 7272,
      "ĠÙĩØ¬Ø±Øª": 7273,
      "ĠÙħØ³ØªÙĤÛĮÙħ": 7274,
      "ĠÙĨØ¹ÙħØ§ÙĨÛĮ": 7275,
      "ĠÙĩØ¯Ùģ": 7276,
      "ĠØ®ÙĪØ´Ùĩ": 7277,
      "ĠØªÙĤØ³ÛĮÙħ": 7278,
      "ĠØ¹ÙĨØ§ØµØ±": 7279,
      "ĠÙģØ¶Ø§ÛĮ": 7280,
      "ĠØ§ÛĮÙĦØ®Ø§ÙĨÛĮ": 7281,
      "ÙĪÙĦÙĪÚĺÛĮÚ©": 7282,
      "ĠØªÙĩØ¯ÛĮØ¯": 7283,
      "ĠØ§ÙĦØ´Ø±ÛĮ": 7284,
      "ĠØ®Ø±ÙħØ´ÙĩØ±": 7285,
      "ĠÙĩØ§ÛĮØ¯Ùĩ": 7286,
      "ĠÙĤØ§ÙĨØ¹": 7287,
      "ĠØ²Ø±ØªØ´ØªÛĮ": 7288,
      "ĠØ§ÙĨØ¯ÙĪÙĩ": 7289,
      "ĠÙĨØŃÙĪÛĮ": 7290,
      "ĠØ±ÙģØ¹Øª": 7291,
      "ĠØµÙĦØ§ØŃÛĮ": 7292,
      "ĠÙħÙĤÛĮÙħÛĮ": 7293,
      "ĠØ³Ø±ÙĪØ³ØªØ§ÙĨÛĮ": 7294,
      "ĠØ¯ÛĮÙĦÙħÛĮ": 7295,
      "ĠØ·Ø§ÙĪÙĪØ³": 7296,
      "ĠØªÙĤØ±ÛĮØ±Ø§Øª": 7297,
      "Ø§ÙĨÚ¯ÙĦÛĮØ³ÛĮ": 7298,
      "ĠÙģØ±ÙĪÙĩØ±": 7299,
      "ĠÙĪØŃØ¯ØªÛĮ": 7300,
      "ĠØ·ÙĪÙģØ§ÙĨ": 7301,
      "ĠÙħØŃØªØ´Ùħ": 7302,
      "ĠØ¹Ø°Ø±Ø§": 7303,
      "ĠÛĮØ«Ø±Ø¨ÛĮ": 7304,
      "al": 7305,
      "Ø§ÙĪØ²": 7306,
      "ÙħØ§Øª": 7307,
      "ÙħØªØ±Ø¬Ùħ": 7308,
      "Ø¯ÙĪØ±": 7309,
      "Ø³Ø²ÛĮ": 7310,
      "Ø´Ø¹": 7311,
      "ĠØ¨Ø§ÛĮØ±": 7312,
      "ĠØ¨ÙģØ§Ø±Ø³ÛĮ": 7313,
      "ĠÙĪØ§Ø³": 7314,
      "Ú¯ÙĪÙĨ": 7315,
      "ĠØªÙĨØ¯ÛĮØ³": 7316,
      "ĠÙĨÙħÛĮÙĨ": 7317,
      "Ø²ÙĨØ¯Ùĩ": 7318,
      "Ø¬ÛĢ": 7319,
      "ĠÚ©ØªÛĮØ¨": 7320,
      "ĠØŃØ§ÙħØ¯ÛĮ": 7321,
      "ĠÙģÙĨØ¯": 7322,
      "ĠØ±ÙĪÙħ": 7323,
      "ĠØ±Ø´ØªÛĮ": 7324,
      "Ø§ÙĦÙĩÛĮ": 7325,
      "ĠÙħØŃØµÙĦ": 7326,
      "ĠØ§ÙĦØ¯ÛĮ": 7327,
      "ĠØ§ÙĦØ§Ø·": 7328,
      "ĠØ§ÙĦØ´Ùĩ": 7329,
      "ĠØ§ÙĦØ¨ÛĮØ§ÙĨ": 7330,
      "ĠØ§ÙĦØ§Ø¦ÙħÙĩ": 7331,
      "ĠØ¢ÛĮÙĨ": 7332,
      "ĠØ¢Ù¾": 7333,
      "ĠØ®Ø§ÙĪØ±ÛĮ": 7334,
      "Ø¶Ø¹": 7335,
      "ĠÙĤØ§Ùģ": 7336,
      "ĠÙĤØ¨Ø§Ø¯": 7337,
      "ĠÙĤØ§ÚĨ": 7338,
      "ĠÚ¯ÙĪÙĩØ±ÛĮ": 7339,
      "ÙĩØ§ÛĮÙħ": 7340,
      "Ø§Ø²Ø´": 7341,
      "ĠØ¹ÙĦÛĮÙĩØ§": 7342,
      "ĠØ§ÙħÛĮØ¯ÛĮ": 7343,
      "Û±Û±": 7344,
      "Ø±Ø¯Ø§Ø±ÛĮ": 7345,
      "ĠÙħØ¹Ø¸ÙħÛĮ": 7346,
      "Ø§Ø¹Ø§Øª": 7347,
      "ĠÙħÙĤÙĦÙĩ": 7348,
      "Ø«ÛĮÙĦ": 7349,
      "ĠÚĨÙĪ": 7350,
      "ÙħÙĩÛĮØ¯": 7351,
      "Ø¢Ø°": 7352,
      "Ø¢ÙħÛĮØ²": 7353,
      "Ø¢ÙĨØ¬ÙĦØ³": 7354,
      "Û±Û¶": 7355,
      "ĠØºØ¨Ø§Ø±": 7356,
      "Ø§Ø¬Ø¹Ùĩ": 7357,
      "ĠØ§ØŃÙħØ¯Ø±Ø¶Ø§": 7358,
      "ĠØ¨ÙĨØª": 7359,
      "Ø´ÛĮÙĩ": 7360,
      "ĠØ³Ø±Ø´Ø§Ø±": 7361,
      "ĠÛ±Û·Û": 7362,
      "ĠÙħØ¬Ø±Ø¯": 7363,
      "ĠÙħØ¬Ø§Ø¨ÛĮ": 7364,
      "ĠØ¨ÛĮØ¶Ø§ÛĮÛĮ": 7365,
      "ĠÙ¾Ø±ÙĩÛĮ": 7366,
      "ĠØ³Ø§ÙĦÙħÛĮ": 7367,
      "ĠÙĨÙĪØ§Ø¨ÛĮ": 7368,
      "ĠÛ±Û³Û¶Û°": 7369,
      "ĠØ¹Ø¨Ø§Ø³Ù¾ÙĪØ±": 7370,
      "ĠÙĨÛĮØ³": 7371,
      "ĠØ¬ÙħÚ©Ø±Ø§ÙĨ": 7372,
      "ĠÚ©Ø´Ø´": 7373,
      "ĠØ§ÙĤØ¯Ø§Ùħ": 7374,
      "ĠÙ¾ÙĪØ±Ø¬ÙĪØ§Ø¯ÛĮ": 7375,
      "ĠØ§Ø¹ÙĦØ§ÙĨ": 7376,
      "ĠÙħØ´ÙģÙĤ": 7377,
      "ÙģØ³ÛĮØ±": 7378,
      "ĠØ°ÛĮÙĦ": 7379,
      "ĠØ¯Ø³ØªÙĨ": 7380,
      "ĠØ§ÙĦØŃÙĤØ§ÛĮÙĤ": 7381,
      "Ú©Ø§Ø±Ø§ÙĨ": 7382,
      "ĠØ¬ÙĨÙĪØ¨ÛĮ": 7383,
      "ĠØ´ÙĪØ±Ø§": 7384,
      "ĠØ¯Ø§Ø¯Ø®ÙĪØ§Ùĩ": 7385,
      "ĠÙĨÙħÙĪÙĨ": 7386,
      "ĠØ¹Ø¨Ø¯Ø§ÙĦØ¹": 7387,
      "ĠØ¹Ø¨Ø¯Ø§ÙĦÙĩÛĮ": 7388,
      "ĠØ¯Ø§Ø±Ø§Ø¨ÛĮ": 7389,
      "ĠÙĨØ´Ø§Ø·": 7390,
      "ĠÙħØ´Ø±ÙĤ": 7391,
      "ĠÙħÙĦÚ©Ùĩ": 7392,
      "ĠÙĪÛĮØ³ÛĮ": 7393,
      "ĠØ´Ø§Ø¹Ø±ÛĮ": 7394,
      "ĠÙĨØ®Ø¹ÛĮ": 7395,
      "ĠÙĨÛĮÙħÛĢ": 7396,
      "ĠØ¯Ø¹ÙĪØª": 7397,
      "ĠÙħÙĪÙĦÙģØ§ÙĨ": 7398,
      "ĠÛ±Û³Û¸Ûµ": 7399,
      "ĠØ¹ÙĤÛĮØ¯Ùĩ": 7400,
      "ĠÙħÙĨØ·ÙĤÛĢ": 7401,
      "ĠÙĪÛĮØ±Ø§Ø³ØªÙĩ": 7402,
      "Ù¾ÛĮØ´": 7403,
      "ĠThe": 7404,
      "ĠØ§Ø³ØŃØ§ÙĤÛĮ": 7405,
      "ĠÛ±Û³Û¶Û¸": 7406,
      "ĠÙĨÙģÙĪØ³": 7407,
      "Ø¬Ø¹ÙģØ±": 7408,
      "ĠÙģØ±ÙĪØ²ÙĨØ¯Ùĩ": 7409,
      "ĠÙħØŃØ±Ø§Ø¨": 7410,
      "ĠÙģØ³Ø§Ø¦ÛĮ": 7411,
      "ĠÚ©Ø§ÙĦØ¨Ø¯": 7412,
      "ĠÚ©ÛĮÙħÛĮØ§ÛĮ": 7413,
      "ĠØ³ØªØ§Ø±Ú¯Ø§ÙĨ": 7414,
      "ĠØ¬Ø¨Ø±Ø§ÙĨ": 7415,
      "ĠÙĤØ¨Ø§Ø¯ÛĮØ§ÙĨÛĮ": 7416,
      "ØµØ§Ø¯ÙĤ": 7417,
      "ĠØ·Ø¨Ø±Ø³ÛĮ": 7418,
      "ĠÙħÙĨØ§Ø¸Ø±Ùĩ": 7419,
      "ĠØ§Ø¬ØªÙĩØ§Ø¯": 7420,
      "ĠÙħØ¨ÙĦØº": 7421,
      "ĠÙģØ±Ø§ÙĨØ³ÙĪÛĮ": 7422,
      "ĠØªØ¯Ø±ÛĮØ³": 7423,
      "ĠØ§ØŃØªØ´Ø§ÙħÛĮ": 7424,
      "ĠÙģØ±ÙĪÙ¾Ø§Ø´ÛĮ": 7425,
      "ĠØ«Ø§Ø¨ØªÛĮ": 7426,
      "ĠÙģØ´Ø§Ø±Ú©ÛĮ": 7427,
      "ĠÚ©Ø¨ÙĪØªØ±": 7428,
      "ĠØ¹ÙĦÛĮÙĩØ§Ø§ÙĦØ³ÙĦØ§Ùħ": 7429,
      "th": 7430,
      "Û´Û": 7431,
      "Ø±Ø§Ø±ÛĮ": 7432,
      "ÙħØ´ÙĩØ¯": 7433,
      "ÙĪØ°": 7434,
      "Ø¯Ø³Øª": 7435,
      "ØªØ§ÙħØ¨Ø±": 7436,
      "ÙģÙĨØ¯": 7437,
      "Ø´Ø¯ÛĮ": 7438,
      "ĠØ¨Ú¯ÙĪ": 7439,
      "Ø§Ø±ØªÛĮ": 7440,
      "ĠÙĪØ¬Ø¯": 7441,
      "ĠØ¯Ø§Ø¹ÛĮ": 7442,
      "ĠÙĨÙĪÛĮØ³ÛĮ": 7443,
      "ĠÙĨØ§Ø·ÙĤ": 7444,
      "Ø§ÛĮØ§ÛĮ": 7445,
      "ĠØ³Ø§Ø¹ÛĮ": 7446,
      "ĠØ³ÙĦÙĪ": 7447,
      "Ø²ÙĦÙĪ": 7448,
      "ÙĦÛĮØªÛĮÚ©": 7449,
      "Ø§Ø¯Ø§Ø±": 7450,
      "Ø±ÛĮØ§ÙĦÛĮØ³Ùħ": 7451,
      "ĠØ´Ø§": 7452,
      "ĠØ´Ø§ÙĦ": 7453,
      "ĠØ´Ø¨Ø§ÙĨ": 7454,
      "ĠÙħØŃÙĪØ±": 7455,
      "ĠØ§ÙĦØ¶": 7456,
      "ĠØ§ÙĦØ°": 7457,
      "ĠØ§ÙĦØ§Ùģ": 7458,
      "ĠØ§ÙĦÙĦØ·ÛĮÙģ": 7459,
      "Ø§Ø³Ø¨Øª": 7460,
      "ĠÙ¾Øª": 7461,
      "ĠÙ¾ÙĪÙ¾": 7462,
      "ĠØ¢Ø¨Ø±": 7463,
      "ÙĪØ±ÙĨ": 7464,
      "ĠØ®ÛĮØ±Ø§ÙĨ": 7465,
      "ĠÙĤØ§Øµ": 7466,
      "ĠØ§Ø³Ø±Ø§ÙģÛĮ": 7467,
      "ĠØ²Ø±Ú¯": 7468,
      "ĠØ§ÛĮØ±ÙĨ": 7469,
      "ĠØŃØ³Ø±Øª": 7470,
      "ÙĤÛĮØ³": 7471,
      "ĠØµØºØ±ÛĮ": 7472,
      "ĠØ§ÙħØªÛĮ": 7473,
      "ĠÚĨÙĪÙ¾": 7474,
      "ĠØ§Ø¨Ø¯": 7475,
      "ĠØ§Ø¨Ø¯ÛĮ": 7476,
      "Ø¢ÙĪØ±Ø§ÙĨ": 7477,
      "ÙĪØ³Ùĩ": 7478,
      "ÙĪØ§ÙĨØ³ÛĮÙĪÙĨ": 7479,
      "ĠÙĦØ¨ÙĨØ§ÙĨ": 7480,
      "Ġ[ØŁ": 7481,
      "ĠÙħÛĮØ±Ø´": 7482,
      "ĠÙĩÙħØ´ÙĩØ±ÛĮ": 7483,
      "Ø§Ú©ÙĪ": 7484,
      "ĠØªØµÙħÛĮÙħ": 7485,
      "ĠØ§ÙĦÙħØ³Øª": 7486,
      "ĠØ±ÙĪØ³ÛĮ": 7487,
      "ĠØ¨ÛĮØ§": 7488,
      "ĠØ¯ÛĮØ§ÙĦÚ©": 7489,
      "ĠÙħØµÙģØ§": 7490,
      "ĠØ¬ÙĩÙĨ": 7491,
      "ĠÚ¯Ø±Ø¯ÙĩÙħ": 7492,
      "ĠØ§Ø´Ø¹": 7493,
      "ĠØ§ÙħÛĮØ±Ú©": 7494,
      "ĠØ§Ø¬ÙĦ": 7495,
      "ĠÙĨÛĮÚ©Ø§ÙĨ": 7496,
      "Ø³ÙĨÙĩ": 7497,
      "Ø§Ø¸Ùħ": 7498,
      "ĠØ¢ÙĨØ§ÙĨ": 7499,
      "ĠÙħØ´Ø®Øµ": 7500,
      "ĠÙħÙĩØ±Ú¯Ø§ÙĨ": 7501,
      "ĠÛĮØ§ÙģØªÙĩ": 7502,
      "ĠØ§ÛĮÙĪØ¨ÛĮ": 7503,
      "ĠØ«Ø¨ØªÛĮ": 7504,
      "ĠØ¬ÙħÙĩÙĪÛĮ": 7505,
      "ĠÙ¾ÛĮØ´ÛĮÙĨ": 7506,
      "Ú©Ø±ÛĮÙħÛĮ": 7507,
      "ĠÚĨÙĩØ§Ø±Ø¯ÙĩÛĮ": 7508,
      "ĠØµØ¯ÙĤ": 7509,
      "ĠÚ©ÙĦÛĮÙĩ": 7510,
      "Ú©Ø§ÙģÛĮ": 7511,
      "ĠÚ©Ø±Ø¯ÙĨ": 7512,
      "ĠÙħÚ©ØªØ¨Ùĩ": 7513,
      "ĠÙĨØ¨ÙĪØª": 7514,
      "ĠÙĨÙħØ§ÛĮÙĨØ¯Ú¯Ø§ÙĨ": 7515,
      "ĠØ¨ÙĪØ¯Ùħ": 7516,
      "ĠØ¨Ø§ØºØ¨Ø§ÙĨ": 7517,
      "ĠØªØ´Ø±ÛĮ": 7518,
      "ĠØ®Ø§Ú©Ø³ØªØ±ÛĮ": 7519,
      "ĠØ³ÙĨÚ¯ÙĦ": 7520,
      "ĠØ§ÛĮÙĦØ§Øª": 7521,
      "ĠÙħÙĩØ§Ø¬Ø±ÛĮ": 7522,
      "ĠÙħÙĩØ§Ø¬Ø±Ø§ÙĨÛĮ": 7523,
      "ĠØ·ÛĮØ¨ÛĮ": 7524,
      "ÙħÙĤØ¯ÙħÙĩ": 7525,
      "ĠØªÛĮÙ¾": 7526,
      "ĠØ¨Ø§Ø±Ø§ÙĨÛĮ": 7527,
      "ĠÙħØ³Ø¦ÙĪÙĦ": 7528,
      "ĠØ®ÙĦØ§ØµÛĢ": 7529,
      "ĠÛ±Û³Û¹Û´": 7530,
      "ĠØ§Ø³Ø·Ø±ÙĦØ§Ø¨": 7531,
      "Ø³ÙĪØ§Ø±ÛĮ": 7532,
      "ĠÙĨØ´Ø±ÛĮÛĢ": 7533,
      "ĠØ§ÙĦÙģØªÙĪØŃ": 7534,
      "ĠÙħØ¬ÙĦØ¯": 7535,
      "ĠØµÙĦØ§ØŃÛĮØª": 7536,
      "Ø¯Ø§Ø´ÙĦÙĪ": 7537,
      "ĠØ§Ø¹ØªÙĤØ§Ø¯Ø§Øª": 7538,
      "ĠØ§ÙĦØ´ÛĮØ®": 7539,
      "ĠÚ©ÙħÙĪÙĨÛĮØ³ØªÛĮ": 7540,
      "ĠØ§Ø®ØªÛĮØ§Ø±": 7541,
      "ĠØ±Ø§ØŃÙĦÙĩ": 7542,
      "ĠÙħÙĨÙĩØ¬": 7543,
      "ĠÙ¾Ø¯ÛĮØ¯Ùĩ": 7544,
      "ĠØ§ÙħÙ¾Ø±Ø§Øª": 7545,
      "ĠÙĪÚ©Ø§ÙĦØª": 7546,
      "ĠØ´Ø§Ø±ØŃ": 7547,
      "ĠØªØŃØµÛĮÙĦØ§Øª": 7548,
      "ĠØ¢Ø±Ø´ÛĮÙĪ": 7549,
      "ĠØ§Ø±Ø³Ø·ÙĪ": 7550,
      "ĠÙĤÙĨØ¯ÙĩØ§Ø±ÛĮ": 7551,
      "ĠØªÙĦÙĪÛĮØ²ÛĮÙĪÙĨ": 7552,
      "ĠØ¯ÙĪØ³Ø§ÙĦ": 7553,
      "ĠÙĦØ§Ø¬ÙĪØ±Ø¯ÛĮ": 7554,
      "ĠØ¢Ú©Ø§Ø¯ÙħÛĮ": 7555,
      "ĠØ¹ÙĤÙĦØ§ÙĨÛĮØª": 7556,
      "ĠØ¹ÙĨØ¯ÙĦÛĮ": 7557,
      "ĠÙģØªØ§ÙĪØ§ÛĮ": 7558,
      "ĠÙĪÙĤÙĪØ¹": 7559,
      "ĠÙĤØ§ÚĨØ§ÙĤ": 7560,
      "ĠØ®ÛĮØ±Ø§ÙĨØ¯ÛĮØ´": 7561,
      "en": 7562,
      "Û·": 7563,
      "ï»": 7564,
      "ĠE": 7565,
      "ĠN": 7566,
      "ÙħØ§Ø¦ÛĮØ§ÙĨ": 7567,
      "ÙĨÙĪØ±ÛĮ": 7568,
      "ÙĦØ±": 7569,
      "ÙĦÙħØ§ÙĨÛĮ": 7570,
      "ĠÙħÙħÙĨ": 7571,
      "ĠÙħÙħÙĦ": 7572,
      "ØªÙĪØ³": 7573,
      "Ú©Ø§Ø´": 7574,
      "Ø´Ø§Ø³": 7575,
      "ĠØ¨Ø§ÙħÛĮØ§ÙĨ": 7576,
      "ĠÙĪØ¯ÛĮ": 7577,
      "ĠÙĪØ§Ø¬": 7578,
      "Ø¹ÙħÛĮ": 7579,
      "ĠÙĨÙħÙĩ": 7580,
      "Ø§ÛĮØ´ÛĮ": 7581,
      "ĠØ³Ø³": 7582,
      "ĠØ¹Ø²Ø§Ø¯": 7583,
      "Ø¬Ø§Ø¯": 7584,
      "ĠÚ©ÛĮÙĨ": 7585,
      "ĠÚ©Ø³Ø±ÛĮ": 7586,
      "ĠØ´Ø¹ÛĮ": 7587,
      "ĠØ´Ú©Ø§Ø±ÛĮ": 7588,
      "ĠÙģØ´": 7589,
      "Ø§ÙĦØ±": 7590,
      "Ø§ÙĦØ¨ÛĮØª": 7591,
      "ÙħØ¯Ø§ÙĨ": 7592,
      "ĠÙħØŃØ§Ø³": 7593,
      "ĠÙħØŃØ¶Ø±": 7594,
      "ĠØ§ÙĦØ§Ø³": 7595,
      "ĠØ§ÙĦØ¯Ùĩ": 7596,
      "ĠÙ¾Ø§ÙĦÛĮ": 7597,
      "ĠØ¬Ø²ÛĮ": 7598,
      "ĠØ¢Ú¯Ø§Ùĩ": 7599,
      "ĠØ§Ø³ÙĦÙħ": 7600,
      "ĠØ²ÙħÛĮÙĨÛĮ": 7601,
      "Ø·ÛĮØ±": 7602,
      "ÙĪØ´Ø§": 7603,
      "ÙĨÚ¯ØªÙĨ": 7604,
      "ÙĩØ±Ùĩ": 7605,
      "ĠØµÙħØµ": 7606,
      "ĠØ¨Ø±ÙĨØ§ÙħÙĩÛĮ": 7607,
      "ØºÙĨÛĮ": 7608,
      "ĠØ¨Ø§ÙģÙĤÛĮ": 7609,
      "ĠØ·ÙĪØ³": 7610,
      "ÙĪÙĦÙĪÛĮ": 7611,
      "ĠØ§ØŃØ±Ø§Ø±": 7612,
      "ĠØºØ§Ø±": 7613,
      "ĠÙĦØ¯ÛĮÙĨ": 7614,
      "ĠØ§Ø¯Ø±ÛĮØ³": 7615,
      "Ø¹ÙĦÛĮÙĤ": 7616,
      "ĠØ§ÙģØ®": 7617,
      "ĠØ§Ø±Ø§Ø¶ÛĮ": 7618,
      "ĠØ´Ø¹Ø¨": 7619,
      "ĠØ§Ø´ØºØ§ÙĦ": 7620,
      "ĠÙĨÙĪØ¨Ø®Øª": 7621,
      "ĠÚ©Ø±Ø¬": 7622,
      "ĠÛ±Û³Û·Û°": 7623,
      "ĠØ§ÙĤØ¨Ø§ÙĦÛĮ": 7624,
      "ĠÙģÛĮØ§Ø¶ÛĮ": 7625,
      "ĠÙħÙĦÙĤØ¨": 7626,
      "ĠØ§Ø¹Ø¸ÙħÛĮ": 7627,
      "ĠØ¢Ø±Ø§Ø³ØªÙĩ": 7628,
      "ĠÙħÙĩØ±Ø²Ø§Ø¯": 7629,
      "ĠÙħÙĩØ±ÙĨØ§Ø²": 7630,
      "ĠØ±ÙĪØ²Ø´ÙħØ§Ø±": 7631,
      "ĠÛĮØ§ÙĤÙĪ": 7632,
      "ĠØ§ÛĮØ§Ø²ÛĮ": 7633,
      "ĠØ¢ÛĮØ§": 7634,
      "ĠØ¨ÙĩØ±ÙĪØ²ÛĮ": 7635,
      "ĠØ«Ùħ": 7636,
      "ĠÛĮØ§Ø¯Ú¯Ø§Ø±ÛĮ": 7637,
      "ĠØ´ÙĪØ±Ø§ÙĨÚ¯ÛĮØ²": 7638,
      "ĠÙĤÙħØ´Ùĩ": 7639,
      "ĠÙĪØŃÛĮØ¯Ùĩ": 7640,
      "ĠÙĨÙħÙĪØ¯": 7641,
      "ĠØ¨ÙĦÙĪØ±": 7642,
      "ĠØ¨ÙĦØ§ØºÛĮ": 7643,
      "ĠÙĩÛĮÛĮ": 7644,
      "ĠØ´ÙĨØ§Ø®ØªÛĮ": 7645,
      "ĠØ¨Ø±Ú¯Ø²Ø§Ø±": 7646,
      "ĠÙĤØ¯Ø³ÛĮÙĩ": 7647,
      "ĠØªØ¹Ø²ÛĮØ±Ø§Øª": 7648,
      "ĠØ¨ÛĮÚ¯Ùħ": 7649,
      "ĠÙħÙģØ±Ø¯": 7650,
      "ĠÚ©Ø§ÙģÙĩ": 7651,
      "ĠØ®ÙĪØ´ÙĨÙĪÛĮØ³Ø§ÙĨ": 7652,
      "ĠØŃØ¯ÛĮØ«ÛĮ": 7653,
      "ĠØªÙģÚ©ÛĮÚ©": 7654,
      "ĠØ§ÙģØ³Ø±ÛĮ": 7655,
      "ĠÚ¯Ø°Ø§Ø±": 7656,
      "ĠØ¹Ø³Ú¯Ø±": 7657,
      "ĠØªÚ©ÙĪÛĮÙĨ": 7658,
      "ĠÚ©ÙħÛĮØª": 7659,
      "ĠÛ²Û·": 7660,
      "ĠÛ²ÛµÛ": 7661,
      "ĠØ¨Ø§ÙĩØ±": 7662,
      "ĠØ¢Ø¯ÙħÛĮØª": 7663,
      "ĠØ§ÛĮÙĦØ®Ø§ÙĨ": 7664,
      "ĠÙħØ±Ø²ÙĩØ§ÛĮ": 7665,
      "ĠÙĤØ±Ø§Ø±Ø¯": 7666,
      "ĠØ²ÛĮØ¨Ø§ÛĮ": 7667,
      "ĠØ³ÙĦØ§ÙħÛĮ": 7668,
      "ĠÙĪÛĮØ±Ø§Ø³ØªÛĢ": 7669,
      "ĠÙħØ³Ø¦ÙĦÙĩ": 7670,
      "ĠÛ±Û³Û¹Û³": 7671,
      "ĠØ´Ø§ÛĮÚ¯Ø§ÙĨ": 7672,
      "ĠÙ¾Ø§ÙĨØµØ¯": 7673,
      "ĠÙĩØ´ØªÙħÛĮÙĨ": 7674,
      "ĠÚ©ÙģØ´": 7675,
      "ĠØ¯Ø¨ÛĮØ±ÛĮ": 7676,
      "ĠÚ©Ø§ÙĪÙĪØ³ÛĮ": 7677,
      "ĠØ§Ø³Ø§Ø·ÛĮØ±ÛĮ": 7678,
      "ĠØ³ÛĮØ§ØŃØª": 7679,
      "ÙħØ±Ø¯Ø§ÙĨ": 7680,
      "ĠÙħØ´Ø§ÛĮØ®": 7681,
      "ĠØ°Ú©Ø§ÙĪØªÛĮ": 7682,
      "ĠÚ©Ø§ÙĨØ§Ø¯Ø§": 7683,
      "ĠØ§ÙĤØªØ¯Ø§Ø±ÛĮ": 7684,
      "ĠÙħØ£Ùħ": 7685,
      "ĠØªÙĤØ±ÛĮØ±": 7686,
      "ĠÙħØ§Ø±Ú©Ø³ÛĮ": 7687,
      "ĠÙĤØ¶Ø§ÙĪØª": 7688,
      "ĠÛĮØ¯Ø¯Ø´ØªÙĩÛĮ": 7689,
      "ĠÙĪØ¬ÛĮÙĩÙĩ": 7690,
      "ĠØµØ§ÙĨØ¹ÛĮ": 7691,
      "ĠØ®ÙĦÙĪØª": 7692,
      "ĠÙħØ²ÛĮÙĨØ§ÙĨÛĮ": 7693,
      "ĠÙ¾ÙĪÙĩÙĨÛĮØ§Ø±": 7694,
      "ĠØŃÛĮÙĪØ§ÙĨØ§Øª": 7695,
      "ĠÙĤØ§ÙĨÙĪÙĨÚ¯Ø°Ø§Ø±ÛĮ": 7696,
      "ĠÙ¾ÛĮØºÙħØ¨Ø±": 7697,
      "ĠØ§ÙħØªÛĮØ§Ø²": 7698,
      "Ûµ": 7699,
      "ĠØ¤": 7700,
      "Ø±ÙħØ§ÙĨ": 7701,
      "Ø±Ø§ÙĤ": 7702,
      "Ø¯ÙĪÙĨ": 7703,
      "ĠÙħÙĪØ±ÛĮ": 7704,
      "ĠÙħÚ©Ø±": 7705,
      "ĠÙħÙħØª": 7706,
      "ĠÙħØ¨Øª": 7707,
      "ĠÙħÙĪÙħÙĨÛĮ": 7708,
      "Ø³Ú©Ø±ÛĮ": 7709,
      "Ú©Ø¨": 7710,
      "ÙĤØ¯Ùħ": 7711,
      "ĠØ¨Ø¨": 7712,
      "ĠØ¨ÚĨ": 7713,
      "ĠØ¨Ø³ØªÙĨ": 7714,
      "Ú¯Ø³ØªØ±": 7715,
      "ĠØªØ§Øª": 7716,
      "ĠØªÙĪÙĨ": 7717,
      "ĠØªØ§Ø²ÛĮ": 7718,
      "ĠØªØ¹ÛĮ": 7719,
      "ĠØªØ§ÙĦØ´": 7720,
      "ĠÙĨØ¯Ø§Ø±": 7721,
      "ĠÙĨØ¯Ø§ÛĮ": 7722,
      "ĠØ³Ø§Ø¹Ø¯": 7723,
      "ĠØ¹ÙħØ§ÙĨ": 7724,
      "ÙĦÛĮÚ©": 7725,
      "Ø¬Ø§Ø±": 7726,
      "ĠÚ©Ø¨ÛĮØ±ÛĮ": 7727,
      "Ù¾Ø³": 7728,
      "Ù¾ÙĪØ±ÛĮ": 7729,
      "ĠÙģØ§Øª": 7730,
      "ĠÙģØ¯Ø±": 7731,
      "ĠØ±Øª": 7732,
      "ĠØ±Ú©": 7733,
      "Ø§Ø³Ø§Ø³": 7734,
      "ĠØ¬ÙĪÙĩØ±ÛĮ": 7735,
      "ĠÙĩÙģ": 7736,
      "ĠØ²Ø§Ú©": 7737,
      "ĠØ¨ÙĩØ§Ø¯Ø±ÛĮ": 7738,
      "ĠÙģØ±Ø´Øª": 7739,
      "ĠØ¹ÙĦÛĮÙĨÙĤÛĮ": 7740,
      "ĠØµØ±Ùģ": 7741,
      "ĠÛĮÙĪ": 7742,
      "Ø¸ÙĦÙĩ": 7743,
      "ĠØ¨Ø±Ø²ÙĪ": 7744,
      "ĠØ¨Ø±ÙĦÛĮÙĨ": 7745,
      "ĠØ§ÙħØª": 7746,
      "ĠØ·ÙĪØ¨ÛĮ": 7747,
      "ĠÙħØ¹ÛĮØ±ÛĮ": 7748,
      "ĠÙħØ¹Ø¯ÙĨÛĮ": 7749,
      "Ø§Ø¹Ø±": 7750,
      "ĠÙħÙĤØ§Ø¨ÙĦ": 7751,
      "ĠÙħÙĨØŃ": 7752,
      "Ø¢Ø¯": 7753,
      "ĠÙħÙĩØ¬": 7754,
      "ĠØªØ±Ø¬ÛĮ": 7755,
      "ĠØºÙĪØ±ÛĮ": 7756,
      "ĠØ¯Ú©ØªØ±ÛĮ": 7757,
      "Ø§Ø·Ø±Ø§Øª": 7758,
      "Ø¨Ø±Ø±Ø³ÛĮ": 7759,
      "Ø²ÛĮÚ©": 7760,
      "Ø²ÛĮØ³ØªÛĮ": 7761,
      "ĠØªØµÙĪÛĮ": 7762,
      "ĠØ§ÙĦÙħØ¬Ø¯": 7763,
      "ĠÙĨØ¸Ø±Ø§Øª": 7764,
      "ĠÙĤØ±Ø§Ø¦": 7765,
      "ĠØ§Ø³ØªÙĪØ§Ø±": 7766,
      "Ø§ÙĦÛĮÙĨ": 7767,
      "ĠØ§Ø±Ø¶ÛĮ": 7768,
      "ĠÙħÙĪÙĦÛĮ": 7769,
      "ĠÙħÙĪØ¬Ø§ÙĨÛĮ": 7770,
      "ĠØ§Ø¨ÙĪØªØ±": 7771,
      "ĠØ´Ø¹Ø¨ÛĢ": 7772,
      "ĠØ´ÛĮÙħÛĮ": 7773,
      "ĠÙ¾Ø±ÙģØ³ÙĪØ±": 7774,
      "ĠÙħØ¯Ø§ÛĮØŃ": 7775,
      "Û°Û°": 7776,
      "ĠØ®Ø§ÙĨÙĪØ§Ø±": 7777,
      "ĠÚ©ÛĮØ³Øª": 7778,
      "ĠØ§Ø®Ú¯Ø±": 7779,
      "ĠØ§ÙĦØ¹Ø§ÙĦÙħ": 7780,
      "ĠÙĨØ³ÙģÛĮ": 7781,
      "ĠØ³ÙĦÙģÛĮ": 7782,
      "ĠÙħÙĩØ±Ø§Ø¨": 7783,
      "ĠØ±ÙĪØ²ÙĩØ§": 7784,
      "ĠØ±Ø§ÙĩÚ©Ø§Ø±": 7785,
      "ĠÚ©Ø§Ø¸ÙħÛĮÙĨÛĮ": 7786,
      "ĠÙĩØ§Ø¯ÛĮØ§ÙĨ": 7787,
      "ĠØºØ²Ø§ÙĦ": 7788,
      "ĠØªÙĪØ³Ø¹": 7789,
      "ĠØ§ÙĦÙĩØ¯": 7790,
      "ĠÙ¾Ø§ÛĮÛĢ": 7791,
      "ĠØ³Ø®ÙĨÛĮ": 7792,
      "ĠÙħØ¹ØµÙĪÙħØ§ÙĨ": 7793,
      "ĠØ³ÙģÛĮÙĨÙĩ": 7794,
      "ĠØ¢ÙĦÙħØ§ÙĨÛĮ": 7795,
      "ĠØ¢ØºØ§": 7796,
      "ĠØªÙĤÙĦÛĮØ¯": 7797,
      "ĠØ¨ÛĮØ¯Ú¯ÙĦÛĮ": 7798,
      "ĠØ¨Ø±Ú¯Ø²Ø§Ø±ÛĮ": 7799,
      "ĠÙĪØ±Ø²Ø´": 7800,
      "ĠØ¹Ø§Ø±ÙģØ§ÙĨÙĩ": 7801,
      "ĠØ®ÙĪØ¯Ùħ": 7802,
      "ĠØ¢Ø¦ÛĮÙĨÛĢ": 7803,
      "ĠÙĤÙĨÙĪÙĨ": 7804,
      "ĠØ¨Ø´Ø§Ø±Øª": 7805,
      "ĠÙħØ²Ø±": 7806,
      "ĠØ§Ú©Ø±ÙħÛĮ": 7807,
      "ĠÙħÙĪØ¶ÙĪØ¹Ø§Øª": 7808,
      "ĠØ§Ú©Ø¨Ø±ÛĮØ§ÙĨ": 7809,
      "Ø´Ø§ÙĩÛĮØ§ÙĨ": 7810,
      "ĠØºÛĮØ¨ÛĮ": 7811,
      "ĠØ³Ø±ÙĪØ¯Ø§ÛĮ": 7812,
      "ĠÛ±Û³ÛµÛ¹": 7813,
      "Ø§ÙĦØ¹ÙħÙĦ": 7814,
      "ĠÙĨØ§Ø¸ÙħÛĮ": 7815,
      "ĠØµØŃØ±Ø§": 7816,
      "ĠÙĨÙģÛĮØ³": 7817,
      "ĠÙħØ·ÙĦØ¨ÛĮ": 7818,
      "ĠØªØ§Ø¨Ø´": 7819,
      "ĠØ¯Ø§Ø¦Ø±Øª": 7820,
      "ĠÙħØŃØ¯Ø«ÛĮ": 7821,
      "ĠÙĩØ²ÛĮÙĨÙĩ": 7822,
      "ĠÛ±Û³Û·Û¸": 7823,
      "ĠÙĨÛĮØ³ØªÙħ": 7824,
      "ĠÙħØ´Ú©ÛĮÙĨÛĮ": 7825,
      "ĠÙģÙĪÙĦÚ©ÙĦ": 7826,
      "ĠÙ¾Ø¯ÛĮØ¯Ø¢ÙĪØ±ÙĨØ¯Ùĩ": 7827,
      "ĠØ³Ù¾ÙĩØ³Ø§ÙĦØ§Ø±": 7828,
      "ĠÚ©Ø§ÙħÛĮØ§Ø¨": 7829,
      "ĠÙħØ¤Ø³Ø³ÙĩÛĮ": 7830,
      "ĠÙħØ³Ø¤ÙĦÛĮØª": 7831,
      "ĠØªØºÛĮÛĮØ±Ø§Øª": 7832,
      "ĠØ¨Ø±ÙĩØ§ÙĨÛĮ": 7833,
      "ĠÛ±Û°Û°": 7834,
      "ĠØ¢ØªÙĪØ³Ø§": 7835,
      "ĠÙĩÙħØ³Ø§ÛĮÙĩ": 7836,
      "ĠÚ¯Ø°Ø±Ú¯Ø§Ùĩ": 7837,
      "ĠØ¯Ø²ÙģÙĪÙĦ": 7838,
      "ĠÛĮØ§ØŃØ³ÛĮÙĨÛĮ": 7839,
      "ĠÙ¾Ø§Ø²ÙĪÚ©ÛĮ": 7840,
      "ĠÚĨØ´ÙħØ§ÙĨØ¯Ø§Ø²": 7841,
      "ĠÙħØµÙĨÙģ": 7842,
      "ĠÙĤØ±Ø§Ú¯Ø²ÙĦÙĪ": 7843,
      "ĠÚ¯ÙħØ±Ú©ÛĮ": 7844,
      "ĠØµØ¯ÙĪÙĤÛĮ": 7845,
      "ĠÚ©ÙħÙ¾Ø§ÙĨÛĮ": 7846,
      "ĠÙħØ±Ø«ÛĮÙĩ": 7847,
      "ÙĤØ¶Ø§ÛĮÛĮÙĩ": 7848,
      "ĠÙĨÚ¯Ø§Ø´ØªÛĢ": 7849,
      "ĠØªØ®ÙĦÙģØ§Øª": 7850,
      "ĠØªÙĪÛĮØ³Ø±": 7851,
      "ĠÙĪØ¬Ø¯Ø§ÙĨÛĮ": 7852,
      "ĠØ§ÙħÛĮØ±Ú©Ø¨ÛĮØ±": 7853,
      "))ØĽ": 7854,
      "or": 7855,
      "Û¸": 7856,
      "ÙĨØ§Ø±": 7857,
      "ÙĨØ´Ø§Ùĩ": 7858,
      "ÙĩØ§ÙĦ": 7859,
      "ĠÙħØ§Ø¦": 7860,
      "ØªØ¨Ø§Ø±": 7861,
      "Ú©Ø¯": 7862,
      "Ø´Ú©ÛĮ": 7863,
      "Ø¨ÙĦÙĩ": 7864,
      "Ø¨Ø§Øº": 7865,
      "ĠØ¨Ú¯": 7866,
      "ĠØ¨ÛĮØ¯Ùĩ": 7867,
      "ĠØ¨ÙĪØª": 7868,
      "ĠØ¨Ø¯ÙĨ": 7869,
      "ØŃØ§Ú©": 7870,
      "Ú¯Ø§ÛĮ": 7871,
      "ĠØ¯Ø§Ø¹": 7872,
      "ĠØ¯Ø¨ÛĮØª": 7873,
      "Ø¹ÛĮÙĨ": 7874,
      "ĠÙĨØ§Ø®": 7875,
      "ĠØ¹Ø¯ÙĨ": 7876,
      "ĠØŃØ±ÛĮÙħ": 7877,
      "ĠØ´ÙĩÛĮ": 7878,
      "ĠØ´Ø¯ÛĢ": 7879,
      "ĠØ±Ø§Øº": 7880,
      "Ø§ÙĦÙħØª": 7881,
      "ĠÙħØŃØµ": 7882,
      "Ø®ÙĪØ±Ø¯": 7883,
      "ĠØ®Ø³": 7884,
      "ĠÙĤØµØ±": 7885,
      "ĠÙĩÙĪØ´ÛĮØ§Ø±": 7886,
      "ĠØ²Ú©ÛĮ": 7887,
      "ĠØ¨ÙĩØªØ±": 7888,
      "ĠÙģØ±Ø§": 7889,
      "ÙĨÚ¯Ø§Ùĩ": 7890,
      "Ø¸Ø§Øª": 7891,
      "ÙĨÛĮØ§ÙĨ": 7892,
      "ÙĨÛĮØ³ÛĮ": 7893,
      "ĠÙħØ¹Ø¯ÙĨ": 7894,
      "ĠÙħÙĤØªÙĦ": 7895,
      "Ø«ÛĮ": 7896,
      "ĠÚĨØ§Ùĩ": 7897,
      "ĠÚĨÛĮÙĨÛĮ": 7898,
      "ĠÙħÙĨØ«ÙĪØ±": 7899,
      "Ø¢Ùħ": 7900,
      "ÙĪØ±ÛĮÚ©": 7901,
      "ĠØºÙĪØ«": 7902,
      "ĠØ¹ÙĦÙĪÛĮØ§ÙĨ": 7903,
      "ĠÙĦÚ©Ùĩ": 7904,
      "ĠÛ³Û±": 7905,
      "ĠØ§Ø±ÙģØ¹": 7906,
      "ĠÙ¾Ø±ÙĪØ±": 7907,
      "ĠØªÙĪÚ©ÙĦ": 7908,
      "ĠÚ©Ø±Ùĩ": 7909,
      "ĠØ´ÙħÙĦ": 7910,
      "ĠÙģØ±ÛĮØ¯ÙĪÙĨÛĮ": 7911,
      "ĠØ§Ø¹Ø¬Ø§Ø²": 7912,
      "Ø§ØºÙĦ": 7913,
      "ĠØ³ÙĦØ§ØŃ": 7914,
      "Ø¹Ø§Ø±Ø¶": 7915,
      "ĠÙĨØ¬ÙĪÙħ": 7916,
      "ĠÛ²Û±": 7917,
      "ĠØ¬ÙĨØ§ÛĮØª": 7918,
      "ĠØŃØ§ÙģØ¸ÛĮ": 7919,
      "ĠØ®ÛĮØ³": 7920,
      "ĠÙħØ¸ÙĩØ±": 7921,
      "ĠÙħØ®ÙģÛĮ": 7922,
      "ĠÙħØ®Ø¨Ø±": 7923,
      "ĠÙĨÛĮÚ©ÙĨØ§Ùħ": 7924,
      "ĠØŃÙĤØ§ÙĨÛĮ": 7925,
      "ĠÙĨÚ¯Ø§Ø±ÛĮ": 7926,
      "ĠØ¯Ø¨ÛĮØ±Ø³ØªØ§ÙĨ": 7927,
      "ĠØ¢Ø°Ø±ÙĨÚ¯": 7928,
      "ĠÙĪØ²ÛĮØ±Ø§ÙĨ": 7929,
      "ĠØ§Ø³ØªØ±Ø§ØªÛĮ": 7930,
      "ĠØ¨Ø¯Ø®Ø´Ø§ÙĨ": 7931,
      "ĠÙ¾ÚĺÙĪØ§Ú©": 7932,
      "ĠÙ¾Ø±ÛĮØ´Ø§ÙĨ": 7933,
      "ĠØ®Ø§Ú©Ø³ØªØ±": 7934,
      "ĠØ³Ø§Ø®ØªØ§Ø±ÛĮ": 7935,
      "ĠÙĪØ§ÙĤØ¹": 7936,
      "ĠØ³Ø±ÙĪØ¯ÙĩÛĮ": 7937,
      "Ú©Ø´Ø§ÙĨ": 7938,
      "Ø³Ø§Ø²Ø§ÙĨ": 7939,
      "ĠØŃÙĦÙĤÙĩ": 7940,
      "ĠÙĪÙĩØ§Ø¨ÛĮ": 7941,
      "ĠØ³Ø¨ØŃØ§ÙĨ": 7942,
      "ĠØ³ÛĮÙħÛĮÙĨØ§Ø±": 7943,
      "ĠØ´ÙĪØ§ÙĩØ¯": 7944,
      "ĠÙĤÛĮØ§ÙħØª": 7945,
      "ĠØªØ³Ø¨ÛĮ": 7946,
      "ĠØ´Ø´ÙħÛĮÙĨ": 7947,
      "ĠØ±Ø§ÛĮØ²ÙĨÛĮ": 7948,
      "ĠØµÙĪÙģÛĮÙĩ": 7949,
      "Ú¯Ø²Ø§Ø±ÛĮ": 7950,
      "ĠØ¢Ø´Ù¾": 7951,
      "ĠØ³ÙħÛĮØ¹": 7952,
      "ĠØ¶Ø±Ø§Ø¨ÛĮ": 7953,
      "ĠØ´Ø§Ø®Ùĩ": 7954,
      "ĠØ§Ø±ÙħÙĪÛĮ": 7955,
      "ĠØ±ÛĮØŃØ§ÙĨ": 7956,
      "ĠÙĩÙħÛĮØ´": 7957,
      "ĠØªÛĮÙħÙĪØ±ÛĮØ§ÙĨ": 7958,
      "ĠÙħØ¤Ø³Ø³Ø§Øª": 7959,
      "ĠÙ¾ÙĨØ¯Ø§Ø±": 7960,
      "ĠÙĩØ±ÙħØ²Ú¯Ø§ÙĨ": 7961,
      "ÙĨØ¨Ø§Ø·": 7962,
      "ĠØ¢Ø¨Ø§Ø¯Ø§ÙĨ": 7963,
      "ĠØ§ÙĦØ§ØŃÚ©Ø§Ùħ": 7964,
      "ĠØ§Ø®ØªÛĮØ§Ø±Ø§Øª": 7965,
      "ĠØ§ÙĦØ¹ÙĦÙħØ§Ø¡": 7966,
      "ĠØ¦ÛĮ": 7967,
      "ĠÙħØ³Ø§ÙģØ±Øª": 7968,
      "ĠÙĤØ²ÙĦØ¨": 7969,
      "ĠÙħÙĨÙĩØ§Ø¬": 7970,
      "ĠÚ©Ø±Ø¨ÙĦØ§ÛĮÛĮ": 7971,
      "ĠØ®Ø¯Ø§Ø¨Ø®Ø´": 7972,
      "ĠØ±Ø¹ÙĨØ§": 7973,
      "ĠØ¨Ø¬ÙĨÙĪØ±Ø¯ÛĮ": 7974,
      "ÙħØªØŃØ¯Ùĩ": 7975,
      "ĠØ°ÙĪØ§ÙĦÙģÙĤØ§Ø±ÛĮ": 7976,
      "ĠØ³Ø§Ú©Øª": 7977,
      "ĠØ¬ÙĨØ¯ÙĤÛĮ": 7978,
      "ĠØ²ÙĦÛĮØ®Ø§": 7979,
      "ĠØ§ÙĦÙħØªØ£ÙĦÙĩÛĮÙĨ": 7980,
      "ĠØ¹Ø²Ø§Ø¯Ø§Ø±ÛĮ": 7981,
      "Ġa": 7982,
      "ĠØ¡": 7983,
      "ÙĨØ§Ú©": 7984,
      "ÙĪØ§ÛĮÛĮ": 7985,
      "ÙĩÙħÛĮ": 7986,
      "ÙĦÙĦÛĮ": 7987,
      "ĠÙħÙĦÙĪÚ©": 7988,
      "Ø³ÙĦÛĮ": 7989,
      "Ø³Ø§Øª": 7990,
      "ÙĤØ·": 7991,
      "Ø¨Ø§ØºÛĮ": 7992,
      "ĠØ¨ÙĪÙħ": 7993,
      "ĠØ¨ÛĢØ§Ø¯": 7994,
      "ĠÙĪØ§Ùħ": 7995,
      "ĠÙĪØªØµØŃÛĮØŃ": 7996,
      "ĠØ¯ÙĪÛĮ": 7997,
      "ĠØ¯Ø¨ÛĮ": 7998,
      "ĠØ¯Ø§Ø´Øª": 7999,
      "ĠØªÙĨØ¯": 8000,
      "ĠÙĨÙĪÛĮ": 8001,
      "ĠÙĨØ§ÙĤ": 8002,
      "Ø²ÙĦÙĩ": 8003,
      "Ø²Ø´ÛĮ": 8004,
      "ĠÚ©Ø¬Ø§": 8005,
      "ĠÚ©Ø¨ÙĪØ¯": 8006,
      "ĠØŃØ²ÛĮÙĨ": 8007,
      "ĠØ´Ø¯Ùħ": 8008,
      "ĠÙģÚ©": 8009,
      "ĠÙģÙĦÚ©": 8010,
      "ĠØ±Ø¯Ùĩ": 8011,
      "ĠØ±ÙĨÚ¯ÛĮ": 8012,
      "Ø§ØªÙĩ": 8013,
      "Ø®Ø±ÛĮÙĨ": 8014,
      "ĠØ§ÙĦØ§ØµÙģÙĩØ§ÙĨÛĮ": 8015,
      "ĠØ§ÙĦÙħÛĮØ²Ø§ÙĨ": 8016,
      "Ø§Ø³Ø§Øª": 8017,
      "ĠÙ¾ÙĦØ§ÙĨ": 8018,
      "ĠØ¬ÙħÛĮÙĦ": 8019,
      "ĠØ¯Ø±ÙħØ¯ÛĮ": 8020,
      "Ø¶ÙħÙħ": 8021,
      "ĠØ²ÙĪ": 8022,
      "ĠØ²ÛĮØª": 8023,
      "ĠÚ¯ÙħÙĨ": 8024,
      "ĠØ§ÙĨÙĤØ±": 8025,
      "ĠØ§ÛĮØ±ÙĪØ§ÙĨÛĮ": 8026,
      "ØªØ±Ùħ": 8027,
      "Ø¸Ø±": 8028,
      "ĠØ¨Ø±Ø±ÛĮ": 8029,
      "ĠÙħØ±Ø´Ø¯ÛĮ": 8030,
      "ÙĪÙĨØ§": 8031,
      "ĠÙħÙĨØ§ÙģØ¹": 8032,
      "Ø¢ÛĮÙĨØ¯": 8033,
      "ĠØªØ±ÙĨÙĩ": 8034,
      "ĠØªØ±Ø¨Øª": 8035,
      "ĠØºØ°": 8036,
      "ĠØªØŃÙģÛĢ": 8037,
      "ĠÙĦÚ©ÛĮ": 8038,
      "ĠÙĦØ¨Ø§Ùģ": 8039,
      "ĠØ§Ø¯ÛĮØª": 8040,
      "Ø°ÙĨÛĮ": 8041,
      "ĠØŃÙħØ§Ø³ÛĮ": 8042,
      "ĠØ¬ÙĩØ§Ø¯ÛĮ": 8043,
[...]
